#version: 0.2
Ġ t
h e
Ġ a
i n
e r
o n
Ġt he
o r
a n
r e
a t
Ġ o
e d
e n
s t
a l
a r
i t
Ġ w
Ġo f
n d
Ġ in
Ġ s
i s
Ġ c
Ġ f
e s
i c
Ġ b
Ġ p
Ġa nd
in g
i on
a s
Ġ S
r o
Ġ T
Ġ A
Ġ C
l e
Ġ m
Ġ 1
Ġt o
o u
Ġ d
i l
Ġ M
Ġ (
en t
Ġ h
Ġ B
a m
o l
o m
e l
Ġ P
Ġ re
Ġ I
c t
Ġ 2
ĠT he
Ġ H
a d
c h
e t
at ion
Ġ R
Ġ l
Ġ1 9
u r
Ġ n
i v
Ġ D
Ġ e
Ġ L
Ġw as
Ġf or
Ġ F
i g
er s
Ġ is
i d
u s
Ġ N
l y
c e
Ġ on
i r
o t
Ġ2 0
Ġ G
Ġt h
Ġ W
a y
i m
i st
u t
o w
r a
Ġa s
Ġ g
u n
Ġ E
e m
it h
Ġ J
an d
â Ģ
Ġ st
Ġb e
Ġb y
u l
t h
he r
Ġ O
Ġw ith
u m
a g
t er
âĢ ĵ
o s
ro m
' s
v er
Ġa l
Ġa t
a c
Ġa n
ĠI n
o c
r i
o p
Ġ "
Ġ U
Ġc on
Ġ K
Ġw h
Ġ v
e st
o d
Ġf rom
Ġ20 0
it y
ĠS t
b er
e c
i an
i es
al l
e w
a b
Ġp ro
Ġc om
a in
at e
a v
re s
ar t
Ġ he
i a
u d
il l
or t
i f
u p
ar d
Ġth at
Ġ it
u b
Ġ or
ig h
Ġd e
a k
i p
a p
at ed
Ġa re
a st
ic h
e ar
ĠC h
ar y
m ent
r an
Ġ V
es s
q u
n t
g e
Ġp l
o v
l d
m er
) ,
is h
Ġh is
iv e
Ġ âĢĵ
i al
on g
en d
u g
an t
ou r
Ġs e
1 9
0 0
in e
Ġc h
Ġe x
u st
s e
or d
el l
o g
ĠU n
am e
ct ion
Ġ r
u c
u nd
e p
Ġ20 1
i re
o st
ĠH e
er e
ic al
or e
u re
Ġ19 9
u e
Ġs p
Ġ le
Ġcom p
i e
t s
Ġwh ich
or k
s o
e ct
Ġw ere
f f
c l
r it
r y
p p
t her
r ic
as s
Ġ Y
l and
Ġ y
Ġs h
o k
Ġ k
Ġ 3
ation al
ĠA l
er v
ĠI t
ation s
ou s
it ion
ir st
a re
Ġal so
ou nt
m an
Ġh as
ac k
Ġ un
ag e
Ġ1 8
on d
Ġ us
ig n
ĠT h
id e
he d
igh t
or n
o ol
ic e
Ġt e
p er
ow n
i z
Ġc l
n g
av e
it ed
e y
an g
ar k
) .
Ġf irst
Ġa r
at es
Ġpl ay
t e
om e
p ort
am p
ĠA r
Ġn ot
a ch
at er
Ġ -
ĠN ew
ic an
w o
Ġit s
re e
f ter
i b
Ġcon t
Ġw he
en ce
Ġre s
Ġa d
Ġ ro
Ġ19 8
Ġp art
or y
ch ool
ion s
r u
en s
cl ud
ou nd
t o
ul t
Ġh ad
ub l
ĠA mer
im e
e g
iv ers
Ġa c
ol l
p l
ĠC om
Ġa pp
o ver
em ber
f er
ĠM ar
a w
il d
Ġon e
Ġin clud
Ġ 4
ou t
Ġwh o
Ġthe ir
Ġ j
al ly
Ġa b
i k
as ed
f or
p h
ug h
Ġy ear
ent s
Ġ19 7
an y
a ce
Ġre c
is s
e b
a ct
o y
res s
w n
Ġ Ċ
it e
Ġh ave
ĠA s
Ġp er
ol d
p t
ur ing
er n
or s
l es
i o
Ġb ut
i le
on s
ĠAmer ican
Ġt wo
v el
ad e
o b
a il
ĠD e
at h
ĠL e
Ġal l
Ġbe c
ĠO n
Ġs c
o in
i ed
Ġo ther
Ġ 5
Ġa g
Ġ en
il m
2 0
w ard
ing s
g h
t ed
is hed
Ġbe en
Ġth is
or ld
w e
t on
Ġcom m
ĠUn ited
ou th
r al
Ġd es
al s
o ot
re d
w ay
u ch
p e
h ip
ab le
ic s
oc k
Ġs erv
Ġ19 6
o h
el y
ou ld
Ġa fter
in d
Ġd is
Ġ im
a h
b all
r am
Ġ her
Ġw ork
ivers ity
o od
an ce
r on
ĠS h
ur n
ol le
an s
Â ł
c es
Ġn ew
is ion
Ġt ra
or th
d uc
Ġl oc
Ġin ter
Ġof f
re n
as e
o ok
ĠP ro
ran s
Ġc an
ĠS c
Ġ ra
g an
d u
Ġo ver
am es
ĠA n
d er
c k
Ġ up
Ġin to
ic k
ou gh
Ġg ro
Ġ und
Ġe le
f t
in al
ol og
Ġk n
on e
Ġ |
i x
ĠUn iversity
op le
Ġo ut
e x
Ġ 6
s on
ĠS p
an n
Ġa ct
c he
ĠC on
Ġe v
ro ugh
ri b
Ġp re
for m
i el
c ess
r ad
ic t
Ġ Z
in ce
1 8
en er
ĠI nd
ak e
i ous
e at
ĠC l
Ġfor m
Ġb u
os e
ĠSt ates
Ġp ubl
ĠE ng
e ople
ĠO r
Ġc ent
Ġ Ġ
Ġf ilm
Ġcon s
Ġre g
Ġus ed
oc i
er ies
Ġb et
e v
re at
Ġs ec
it ies
Ġat t
Ġund er
ou n
Ġp r
Ġc o
Ġthe y
a z
in s
Ġt ime
oll ow
ĠJ oh
Ġ19 5
a j
em b
we en
e e
ot h
Ġ19 4
as on
Ġst ud
in n
Ġs chool
Ġin d
ĠTh is
ĠN ational
ct ed
ĠF or
l l
Ġs y
e ver
ul ar
id ent
Ġe st
t en
Ġ 7
Ġm ost
u al
o ber
i er
at t
Ġp ol
ur y
Ã ©
Ġd uring
Ġre le
ab l
Ġyear s
Ġwhe n
2 00
Ġs ub
oot ball
Ġte am
Ġas s
us e
ĠA ust
en n
Ġm ore
ĠS chool
ĠJoh n
ar l
at ive
ĠW orld
c ed
res ent
Ġon ly
Ġf ound
Ġbet ween
ist s
over n
Ġs up
Ġ ed
le y
Ġkn own
p r
Ġm e
il y
us ic
b um
ĠI s
ĠW ar
Ġre l
ĠC an
er m
Ġm an
Ġwhe re
Ġre t
ĠB rit
Ġn um
a ir
ĠC ount
ĠB l
i am
Ġth ree
Ġd ist
ĠCom m
as h
" ,
Ġ 8
Ġs he
iel d
Ġth rough
Ġf ollow
Ġt rans
Ġf l
iv er
ion al
ro s
at ing
ter n
if ic
ag ue
ou se
ow er
Ġ1 7
al e
Ġs uch
he n
Ġpro v
Ġ Q
Ġ200 6
m p
Ġsp ec
ĠY ork
Ġre m
Ġ &
in es
er man
ĠP h
p en
ct or
Ġ qu
if e
ĠF ran
Ġ 9
Ġ1 0
" .
u res
Ġab out
in a
vel op
Ġp op
Ġh im
ĠA d
ar g
Ġag ain
Ġw ould
ro und
c c
an k
s h
Ġp eople
st it
ĠP l
st em
ĠA t
Ġs eries
Ġ| |
b orn
Ġs et
ĠJ un
Ġl ater
Ġrec ord
ĠS he
ĠS outh
Ġm ov
Ġd ec
Ġthe re
Ġd ire
Ġ end
ĠN o
Ġal bum
ĠW est
Ġa m
j ect
Ġc all
Ġsec ond
Ġw rit
in ist
ĠM ay
Ġp h
r id
em ent
et h
is m
it s
us s
c y
f ore
Ġde f
Ġs ing
ĠAust ral
Ġs o
Ġs ome
ĠJ an
Ġ1 5
ĠR eg
iv ed
os s
Ġbec ame
Ġ .
ur ch
ric t
Ġinclud ing
Ġ1 6
Ġar t
am ed
Ġin v
Ġth an
Ġm ade
Ġest abl
Ġo per
Ġ ent
ep t
is e
Ġn ame
Ġthe n
ar s
i um
n e
a x
Ġm od
Ġor ig
er ed
Ġ19 3
Ġe ar
i ew
ĠBrit ish
ik e
Ġm ed
ut e
Ġc ount
b y
ĠT e
ĠCount y
er t
u ro
r ist
Ġf our
ay s
Ġse ason
Ġw ell
Ġfor mer
00 0
. "
Ġb l
Ġm ay
Ġgro up
ĠW h
Ġm on
olle ge
Ġex p
le t
ĠC ent
ĠCan ad
ĠG erman
Ġthe m
Ġac c
ers on
Ġbe ing
g ram
v e
ĠN orth
ire d
Ġf ootball
ur al
Ġm any
ĠG e
ut ion
Ġ200 5
ĠJ u
ĠA m
Ġf am
t il
Ġin c
ment s
ĠC ar
le v
ĠP r
Ġh igh
Ġm ain
ĠM an
ul l
Ġad d
Ġch ar
u ary
a u
Ġle ad
Ġin t
ction s
Ġs ong
Ġde velop
Ġst ation
ver y
ĠN ov
Ġd o
ĠMar ch
ot her
Ġs ign
Ġnum ber
ut h
Ġ1 2
Ġb ro
ug ust
u es
Ġrele ased
y s
duc ed
ĠAl l
ĠAs s
Ġare a
Ġo wn
Ġg u
ic ip
ĠC ol
a i
at her
Ġun til
Ġv ar
m y
i ent
ĠR e
r and
iv es
t y
el s
he s
ic a
19 9
Ġh ist
in c
Ġre p
Ġsh ow
ra ph
ot t
Ġn o
ar ri
ĠE d
Ġf eat
en g
Ġsy stem
Ġ20 2
ĠA ugust
k e
ic es
im es
ener al
Ġs ur
ept ember
Ġplay ed
aj or
ĠC ity
et er
ĠO ct
overn ment
ir d
emb ers
Ġo pen
Ġse ver
Ġb as
Ġb oth
ĠK ing
el f
i or
et y
ĠE x
iz ed
ĠB ro
pr il
olog y
l ish
c on
T he
ĠB ar
amp ions
ĠG u
ĠI I
ĠA fter
Ġan n
Ġd if
Ġdes ign
Ġbu ild
Ġwh ile
m ber
Ġbe fore
ĠJan uary
Ġc ap
ĠC al
Ġcall ed
ros s
ĠS eptember
ĠJun e
Ġm usic
ĠCom p
Ġc re
ra ct
1 0
Ġs m
o x
Ġb ack
re nt
f ess
ĠOct ober
ow ever
ĠB e
Ġex t
on y
ĠW ill
Ġst ate
Ġ200 4
ĠJu ly
Ġe m
Ġpro du
ĠE uro
ĠH igh
Ġpol it
ul ation
os ed
y l
st ru
u ally
Ġ '
r ing
ĠA pril
k s
are d
Ġpro gram
ce mber
st er
it al
ov e
r is
Ġf in
Ġdes c
Ġw on
Ġ âĢ
ĠM on
lev ision
p or
Ġc ur
Ġr un
ĠR ep
v ed
ag es
Ġagain st
ĠEng lish
et s
ĠLe ague
o ard
ib le
Ġre ce
iss ion
l ed
Ġ19 2
ĠSt ate
Ġor gan
Ġa ir
Ġsever al
Ġ1 1
il t
re t
Ġg ame
Ġoff ic
s p
ar m
Ġus e
Ġ1 3
v ent
Ġestabl ished
Ġ ran
Ġ200 7
at or
ĠDe cember
Ġ1 4
ĠCh rist
Ġfollow ing
ain ed
Ġcomm un
v en
om an
Ġ200 3
Ġ200 1
Ġpubl ic
a id
Ġloc ated
Ġde p
ĠF l
ĠNov ember
Ġb ased
ch n
en e
ĠR ec
eb ru
Ġl ong
ebru ary
1 7
is c
ĠP ark
od e
il ity
al ity
Ġn e
it t
ĠU S
Ġn amed
ĠP ol
f l
ain s
oin t
Ġb ook
Ġd r
ĠC ollege
h am
Ġb and
al es
ĠGe or
ĠE ast
ial ly
er g
Ġear ly
Ġo b
ĠEuro pe
res ident
Ġn ear
ĠC o
ĠM ed
Ġto wn
ĠA nd
Ġs ince
p le
ĠS e
ĠH is
an c
ĠThe re
ĠF ebruary
ro p
Ġs ame
ĠA f
a use
Ġst art
ĠThe y
Ġg o
ĠH ar
f ul
al th
ical ly
Ġchar act
am b
ĠIn tern
i ence
Ġv ers
he m
Ġ200 8
ĠM c
ce pt
z e
Ġcont in
ak ing
ang u
ĠOr der
ĠA ir
y n
ure d
re en
Ġm in
ĠA ward
1 2
f ord
Ġs im
ĠH ist
c om
ampions hip
il it
ant s
a f
an e
Ġs uc
Ġcl ass
Ġcl ub
ond on
Ã ¡
Ġcomp le
Ġc ity
Ġthe se
es e
il le
Ġ ,
end ed
Ġplay er
Ġm at
ĠS w
og raph
os ition
ĠA b
ĠP art
iv ing
in k
ĠE n
Ġ200 0
ĠD av
om en
Ġb el
Ġsup port
ly mp
Ġw ill
Ġ201 0
Ġch ild
ĠR o
Ġm embers
iv al
id ed
oun c
Ġdif fer
Ġ200 2
ĠO lymp
Ġan y
k et
Ġcent ury
ian s
Ġm ajor
Ġhe ad
Ġal ong
uth or
Ġt it
ad em
ĠE l
Ġfam ily
Ġt erm
Ġb us
ing ton
Ġm ember
Ġe ach
ap an
ĠS y
igh ts
Ġv ill
rid ge
is ed
Ġw orld
ĠWill iam
er y
1 6
1 5
Ġsm all
Ġ200 9
a e
b le
a ugh
in ess
Ġe ff
ĠL ondon
t he
Ġinclud e
Ġret urn
ill ion
Ġcomp any
Ġ199 9
Ġo cc
re w
Ġ201 1
Ġres p
u ed
uc k
1 3
ĠA c
Ġm et
at ic
19 8
re m
Ġdis c
Ġh ome
iv ision
Ġpubl ished
ĠL ist
Ġp ass
Ġpl ace
ur g
ĠH er
or m
ĠP ar
our n
Ġre fer
Ġl ist
a ul
Ġapp ear
ubl ic
ord s
Ġe p
Ġl aw
Ġn ational
Ġg overnment
qu e
Ġt r
Ġin st
Ġcomp et
y p
in ed
Ġte levision
Ġc are
Ġen g
Ġbe gan
n er
ĠT r
un g
Ġhe ld
at s
ĠJ apan
ĠS ec
ĠC or
s ide
our t
Ġn ow
ro w
. ,
Ġl and
Ġp rom
ĠA ng
Ġserv ed
1 4
Ġ X
ear ch
Ġc ar
ĠS up
Ġw e
Ġsing le
i et
Ġ199 8
Ġbu ilt
ac ed
ar ge
al d
ren ch
her n
c ent
ad io
ĠB r
ĠIntern ational
Ġloc al
Ġre v
Ġc ol
ĠPh il
ou ng
un icip
Ġg ames
i en
at ure
id d
um b
ounc il
id es
r ation
c ast
in o
Ġb orn
Ġinter n
in t
Ġa round
ed er
Ġs l
Ġpop ulation
d om
is on
ĠR es
ĠM e
ort hern
if ied
. .
Ġl ine
Ġim p
ĠA ct
oci ation
Ġman ag
ĠD ist
at a
Ġcur rent
Ġp erson
Ġc olle
u k
ro l
av ing
Ġ19 0
ĠG l
Ġpro fess
ĠR oy
che s
ĠR uss
Ġ2 5
iz ation
Ġm ark
Ġo ld
Ġ201 2
Ġp ar
Ġl ast
ĠM ich
ĠC up
d ay
ĠF rench
w ork
ow s
re et
at ely
ent ly
an a
Ġre f
u ff
et t
ĠA g
Ġapp ro
19 7
ĠH ouse
Ġsuc cess
ĠL a
Ġa ward
ĠCanad a
land s
ĠAf ric
if orn
Ġle g
Ġp resent
ĠT ra
ĠAr t
l ing
ĠAustral ian
an ge
Ġn orth
um ent
Ġ3 0
Ġc amp
Ġa v
Ġed uc
Ġd ied
Ġl arg
arri ed
p s
Ġst r
Ġst and
ak es
om in
l ine
ĠH owever
ord ing
iforn ia
ie f
ilit ary
ĠS an
ar a
e al
Ġd ue
Ġplay ers
i od
ĠAustral ia
um mer
ĠCal ifornia
Ġs ix
a us
Ġde ath
ur s
Ġp o
er ing
Ġd id
Ġre st
Ġre port
Ġsh ort
Ġ201 3
op h
m ed
or ed
ain t
Ġorig inal
ĠEng land
ĠR iver
ide o
Ġl angu
1 1
Ġcons id
Ġf ive
ĠS ch
ar n
Ġinclud ed
Ġserv ice
ĠIt al
l er
um an
iv en
th ough
Ġwith in
Ġs k
Ġre qu
Ġdiffer ent
Ġadd ition
Ġtra ck
Ġe qu
Ġt rad
al k
Ġd et
ĠD uring
ĠCh ar
ĠInd ian
iv ely
Ġre pl
od y
Ġl arge
ort s
ra ft
ac es
Ġvill age
it ar
ri es
ĠOn e
Ġf inal
ĠCh urch
ĠDav id
Ġj oin
on es
Ġ2 4
Ġs outh
ard s
ĠR ail
Ġa uthor
Ġ $
Ġp ower
ol ic
it er
Ġvers ion
Ġ201 4
19 6
Ġ18 9
ect ed
Ġrep resent
Ġcharact er
Ġpro duced
Ġf ield
ĠP er
Ġto ok
ĠR ober
Ġper form
Ġof ten
p ed
Ġrece ived
in ing
Ġhe l
v ers
Ġm en
c er
Ġev ent
oc ial
v an
oci ety
Ġl a
Ġd own
en cy
ep end
a im
Ġorig in
âĢ Ļ
o on
s c
Ġc or
Ġcount ry
et her
con om
g es
Ġv oc
le x
Ġl ife
t ain
ĠCh ampionship
p ar
Ġcomm on
ru ct
Ġs on
Ġstud ents
inn ing
Ġn on
Ġwrit ten
ber t
ĠS m
a el
Ġbuild ing
Ġle ft
Ġep is
Ġ199 0
ĠN or
ĠJ ames
Ġad m
v ious
ĠG ro
ĠĠ ĠĠ
Ġ201 5
Ġhist ory
Ġth ird
Ġdist rict
al t
5 0
Ġw ater
re g
Ġor der
ĠB as
Ġg ener
ul ations
Ġde b
n ess
ĠP ress
om b
Ġto p
ĠGeor ge
Ġd ay
ĠO ff
n a
ĠA nt
B C
Ġm unicip
art ment
Ġ201 6
l in
t al
Ġra il
Ã Ń
Ġp ost
Ġbec ause
Ġdesc rib
Ġd em
Ġchild ren
Ġres ult
ĠDist rict
rib ut
ĠH ol
ĠP aul
ĠRoy al
Ġ 0
ĠR ich
Ġcare er
ĠAss ociation
Ġw est
Ġc over
ĠF ilm
le ct
a ff
Ġbus iness
or ies
Ġbe st
Ġc ould
y le
Ġf ac
ast er
Ã ¼
ĠM or
Ġs old
iv il
m s
ĠQ u
k a
Ġinc re
Ġar ch
ĠC ap
Ġv al
ĠT rans
oun ced
c o
Ġe ast
Ġm ag
Ġper iod
Ġcon stru
ĠP ort
Ġst ill
Ġintern ational
il ar
Ġv is
om et
Ġele ct
os p
ĠB y
ĠD es
Ġopen ed
Ġc r
ĠAr my
ec ut
ĠD ep
form ation
use um
ot e
Ġs ol
ĠR ed
ic ian
Ġis s
i us
pl oy
ition s
and er
ĠB ra
g ed
Ġj ust
Ġ18 8
ĠAc adem
ĠCanad ian
Ã ³
ri end
Ġst ruct
ĠR oman
ic o
a ur
Ġl ike
re st
ĠC ath
v es
am a
Ġst at
ĠE m
ĠTh om
Ġ2 2
Ġw ar
Ġle vel
ĠQ ue
ther n
Ġte chn
ĠPart y
he l
n ey
Ġam ong
o e
ĠB el
ĠC ouncil
Ġh ost
Ġ if
ĠSt ud
Ġ2 1
ĠAmer ica
ĠKing dom
Ġn ov
ĠRo ad
ĠD r
ee k
ur b
y m
Ġa ff
k y
ĠR ev
Ġ199 7
Ġf un
ĠL ou
Ġl ate
o f
al f
Ġ201 8
t t
Ġim port
Ġ very
ou thern
Ġs ite
Ġspec ies
Ġset t
ourn al
Ġ2 3
ĠV al
ĠH all
Ġ198 0
as es
Ġ201 7
ex t
d e
Ġm ult
Ġtit le
Ġt ri
Ġm illion
o ff
Ġvar ious
it or
Ġmov ed
ĠD ivision
Ġk ill
Ġg eneral
Ġpro cess
ĠA cc
att le
our s
Ġp ort
Ġ199 6
Ġhist or
Ġf re
Ġan other
ĠSt reet
o le
ĠM usic
ĠEurope an
ir c
Ġeng ine
ab or
Ġro le
Ġpro ject
ĠY ear
ag o
ĠS erv
ĠM inist
Ġex per
Ġact iv
r ay
Ġh and
Ġs aid
ĠInd ia
iz e
Ġch ang
) :
Ġinv ol
av y
Ġv ol
m ing
Ġo pp
et work
est s
Ġus ing
Ġcommun ity
ĠBl ack
Ġst ations
ad y
Ġp oss
ĠF rom
Ġc rit
Ġeff ect
Ġ /
ic le
Ġpre vious
Ġs ide
Ġp at
ĠB er
v ille
ir l
am ent
Ġth ose
Ġh ouse
u el
Ġspec ial
ĠThe se
ĠT V
Ġl ed
Ġp osition
Ġint ro
Ġcre ated
Ġpr im
f ield
ist er
Ġex amp
Ġg rad
ĠâĢ Ķ
um n
ad cast
Ġ20 19
Ġc ult
ĠUn ion
Ġs it
im ent
Ġd el
Ġth ough
Ġpop ular
e le
us h
Ġm arried
op s
ock ey
Ġs w
Ġann ounced
Ġco ach
ĠP eople
ug g
stit ute
ĠW hen
t ra
ket ball
Ġ2 6
an ish
c hed
re land
ĠW ith
âĢ Ķ
Ġan t
Ġbe g
Ġ18 6
ĠSc ott
i ber
Ġg iven
Ġ el
Ġa ge
Ġp e
Ġ2 7
Ġgu itar
en se
ir on
Ġoffic ial
Ġpro t
Ġ2 8
ĠJ os
ĠGerman y
Ġf ather
in ter
olog ical
le ar
on t
ĠRober t
ĠG eneral
Ġprodu ction
ish ing
n ing
re am
Ġp res
ĠL aw
ot s
Ġ es
e ed
o or
ĠM al
w est
ĠB est
ree k
ĠJ e
Ġ199 5
Ġev en
ĠB u
Ġmon th
Ġt em
3 0
Ġex pl
Ġpro duc
Ġbec ome
Ġ18 7
Ġschool s
ĠB ook
ĠPro v
ĠI reland
it z
eb all
ap er
an ies
ĠM y
Ġserv ices
ĠP al
ĠP at
ĠM ark
ĠAr ch
ron t
Ġ Ã
ĠM ag
Ġfound ed
Ġdevelop ment
Ġ20 20
ĠW ash
Ġsim ilar
ĠFran ce
Ġare as
e ared
Ġm ake
Ġall ow
ol ution
ber g
Ġto tal
Ġ199 4
Ġcon c
ent ion
ĠP resident
ĠG reat
for man
ric k
Ġ [
ĠP ri
Ġh ig
Ġe very
Ġ197 0
ĠCath olic
stit ut
wo od
op e
ra g
Ġreg ion
Ġg l
b or
ar i
Ġre n
ĠC ourt
ĠH ill
ri pt
Ġp ri
ap p
ip p
e h
k i
Ġw omen
Ġpro p
ĠS ociety
ĠM art
Ġy oung
st on
Ġt w
idd le
Ġp ark
Ġt imes
ict ion
Ġm uch
in ation
ĠCl ub
ĠComp any
ĠF ootball
c her
Ġb re
ĠM ary
ĠRail way
ib r
Ġ199 2
ri an
u f
Ġc ame
Ġw eb
ĠComm un
og n
ĠWash ington
ĠRec ords
ĠOlymp ics
iv id
ĠMich ael
itt le
Ġf act
Ġin it
ate g
ĠF irst
Ġcom b
Ġdire ct
Ġad v
r ated
Ġlangu age
ĠE duc
ist an
Ã ¶
Ġapp eared
arl iam
ĠD on
h a
il es
Ġind ust
Ġstart ed
Ġvoc als
Ġro ck
19 4
ĠK n
Ġpolit ical
ĠM iss
oin ted
ĠJ ack
ro te
se qu
od es
port s
arliam ent
ĠGro up
Ġl im
Ġm ilitary
ĠZ eal
ail able
ic ular
Ġp ract
ĠD em
ac hed
Ġt yp
Ġf ew
Ġe conom
' t
ĠS l
ĠIs land
Ġprofess ional
Ġ2 9
ĠHist or
ĠZeal and
ĠA lex
ĠH en
ĠV ir
Ġt er
Ġdevelop ed
i ol
ĠReg ulations
ĠCent ral
Ġh aving
Ġatt ack
Ġw ent
ĠChrist ian
Ġ202 1
ĠHist ory
Ġdire ctor
fl u
Ġg reat
Ġf ull
y ear
Ġrecord ed
y pe
ĠCon t
ĠV ol
ĠWest ern
l ic
at ors
Ġa ut
Ġ1 00
un t
Ġ199 1
x t
ograph y
ĠW e
ĠAng el
Ġt urn
ĠAcadem y
m a
ĠU K
Ġwh at
Ġconsid ered
19 5
ĠCent er
Ġteam s
ĠY ou
ĠS en
Ġv ideo
Ġin f
Ġ199 3
C A
fer ence
ĠLou is
m e
Ġtrad ition
Ġadm inist
Ġ( )
Ġele ction
Ġgroup s
Ġg en
b e
ak en
er a
ur ther
y d
ĠM ex
Ġro und
Ġle ague
it te
ĠM ount
i ers
ĠThom as
Ġexamp le
Ġst ory
ĠIn ter
ĠS ome
ĠI r
ĠChar les
Ġp resident
Ġev ents
Ġpolit ician
Ġwork s
Ġd er
ward s
ĠT o
ĠM ac
ra b
ĠFl or
ĠT ex
Ġro ad
augh ter
e f
b urg
ĠB ay
ĠG ames
ĠP eter
Ġdeb ut
Ġform ed
ĠS al
2 2
Ġwork ed
u it
Ġav ailable
ĠV ict
Ġcon f
ad ium
ĠA pp
Ġs ent
Ġd ra
Ġnov el
ĠS er
Ġd i
Ġh on
ĠG o
Ġjoin ed
ĠT er
r as
is ing
Ġd iv
Ġmod ern
m en
ĠG old
Ġ #
Ġpro per
u le
ĠS am
l ess
Ġ z
ro ll
en ces
Ġ ident
an ces
it ect
S t
ĠW il
Ġreturn ed
Ġw ay
at re
Ġp oint
Ġcl aim
ĠS im
ain ing
ĠL eg
Ġh old
ap t
g in
e ad
i j
Ġvar i
Ġcont rol
ut er
ĠB ill
Ġinclud es
ĠG reen
ĠFran k
Ġr adio
Ġch urch
um e
Ġpr iv
id a
est ed
ĠM et
Ġsh ip
is l
Ġse e
ĠN e
Ġind epend
Ġimport ant
s ite
Ġn ext
ĠT om
Ġne ed
Ġepis ode
ĠM us
Ġst ar
Ġwith out
ĠIn stitute
2 5
at ural
Ġbro ther
ep h
ĠM er
ĠFran c
v al
ak er
eth od
Ġl ive
at ter
h ib
ĠRich ard
Ġde g
Ġ196 0
az ine
Ġw rote
ĠC he
ĠB en
Ġt ake
ĠS ing
est ival
ul es
ĠRep ublic
Ġr ight
it her
ĠE ar
il i
ĠPl ay
ĠS ong
oin ts
ic les
Ġof fer
Ġper forman
pl ay
ĠAcc ording
Ġcomp anies
ĠR h
Ġh owever
ir th
ĠG rand
ann el
ish op
Ġ202 2
p ro
im ately
ĠT or
r d
s elf
Ġ et
are nt
a ut
sh ire
Ġdescrib ed
ĠO ther
eder al
ĠK h
Ġbe h
Ġse par
om m
Ġmed al
Ġm ot
ĠC ons
Ġpart icular
Ġbro adcast
id ence
Ġ198 8
b oard
Ġcomple ted
ĠJapan ese
Ġw in
ab ly
e el
w are
ĠD ay
ol f
Ġm ater
ĠI m
us ed
ĠCol umb
4 0
ĠT own
Ġh alf
ar ch
y a
ign ed
end ing
ific ation
end ment
Ġex ist
Ġind ivid
ĠJ ew
Ġeduc ation
Ġele cted
ud d
em or
ĠR ock
u ated
Ġprodu ct
Ġapp ointed
c raft
Ġem ploy
Ġorigin ally
t ime
v iew
ĠM useum
Ġpart icip
ers ey
Ġl ess
Ġlarg est
Ġh uman
Ġd est
g er
Ġmunicip ality
ĠTex as
2 1
ĠH am
Ġan im
Ġsp orts
id s
i que
Ġ198 9
Ġdire cted
Ġd oc
Ġcontin ued
Ġb ody
ecut ive
v iron
Ġsign ed
ĠD an
Ġc ase
" )
Ġl ow
ra p
y ing
ers hip
Ġc aus
ĠSc ot
ert ain
ĠP et
Ġcon d
um p
Ġw ife
Ġ198 6
it ive
Ġbas ketball
Ġrail way
ĠCar ol
. )
ap e
Ġrele ase
19 3
ĠDep artment
Ġass ist
Ġf riend
ĠC ro
Ġmod el
Ġs qu
Ġ5 0
2 3
n ow
ens ive
Ġplay ing
un n
th let
e in
Ġin flu
Ġb i
ou l
Ġres earch
Ġm iss
ell s
Ġw eek
Ġac qu
ĠC ong
Ġph ys
Ġdo es
em ents
ĠM el
at ch
itte e
ĠB ur
Ġgro und
b our
Ġt en
Ġre al
ĠM ill
Ġperform ed
ac y
Ġc oll
ot a
he ast
Ġother s
ĠVict or
ug by
ĠR ob
ar ies
Ġph ot
ĠM ad
Ġgro w
ist ic
ell ow
ud e
Ġtrans l
ran ch
Ġass oci
c le
at ory
ent ial
Ġfilm s
Ġan al
o ice
Ġ3 1
Ġatt em
Ġprom ot
om s
ĠSm ith
as ons
ĠP ublic
ĠL ake
ibr ary
l o
Ġac cess
re y
il ities
ĠP e
F L
en c
he re
Ġoff ice
ĠL os
ĠCh ic
ĠRuss ian
Ġsur v
Ġ198 7
Ġfeat ures
Ġs ocial
m ost
ĠCh ina
Ġd ays
Ġ198 4
at in
ĠD el
st ra
Ġ( "
oc r
A m
Ġinv est
ĠS ir
all s
b ack
and ing
Ġmark et
ĠCl ass
ĠSp anish
Ġm id
s y
ĠItal ian
it ing
Ġs our
Ġrec ogn
it ted
it ch
ĠWh ite
k m
Ġv iew
ĠP enn
ul a
ĠD ire
Ġac ross
ĠM ass
Ġin formation
Ġc ross
ĠS ince
Ġl ost
Ġrel ig
ĠN orthern
Ġf und
ĠOlymp ic
erg y
ĠAfric an
r ight
ĠMinist er
Ġ197 9
ĠSec ond
ĠD o
e es
ĠDe f
w rit
ĠC amp
Ġm aking
Ġm ix
ĠAn n
Ġl ight
ab ility
Ġ198 3
2 4
ĠM ost
ce ed
Ġde v
Ġp oints
Ġh ous
Ġre d
ĠG od
i qu
Ġla un
ĠVir gin
Ġb ank
ec k
r im
Ġk ey
or es
c ial
Ġfeat ured
Ġcurrent ly
Ġb oard
ri a
ĠHen ry
at ives
Ġf ree
Ġst yle
Ġre ad
ĠAfric a
ver t
Ġcon du
T V
Ġl ab
âĢ Ŀ
m on
Ġmater ial
ĠA re
Ġal though
Ġpart y
Ġm us
viron ment
ĠChic ago
ip le
ĠJ ersey
Ġrev iew
overn or
ĠS ummer
Ġc irc
ĠF in
a ign
Ġ198 2
le g
Ġconstru ction
oy s
u x
Ġ198 5
Ġto ur
Ġd aughter
ĠJ ust
Ġto g
way s
ĠSt ev
Ġus ually
ac her
he st
ĠEduc ation
w h
ĠServ ice
Ġsh ould
Ġs ound
Ġc ast
k ed
, "
Ġm ust
ĠBro wn
Ġintro duced
Ġtog ether
on a
ĠI ts
Ġsing er
Ġn etwork
ĠMon t
is her
Ġdesign ed
ad es
g o
ĠG ra
Ġwork ing
ĠWh ile
Ġf urther
Ġab ove
he ad
Ġin s
Ġm y
Ġg ood
Ġc ollege
Ġwrit er
id ing
Ġthrough out
ut ch
o ch
Ġbl ack
ĠFor ce
Ġestabl ish
ul ts
ĠGeor g
Ġ4 0
r or
Ġbec om
Ġrel ations
Ġ18 5
uf act
Ġra ce
Ä ģ
ines e
le ment
ĠL and
Ġl iter
Ġ :
ro y
if f
Ġf em
air s
Ġrepl aced
C h
Ġf ind
Ġe ight
n ect
ov iet
Ġ =
un k
Ġl o
ant a
Ġme et
Ġme an
I I
ĠW ales
) ;
Ġn ever
al a
ĠK ore
Ġa ver
Ġreg ular
ific ant
Ġpro ble
ĠE mp
Ġweb site
Ġact or
ol k
ĠP arliament
ĠT wo
i os
ur ity
Ġaward ed
Ġhel p
Ġf ire
ell ing
Ġ197 6
Ġappro x
er ous
ur a
Ġcons ist
ul ated
Ġfootball er
ĠS aint
ut es
Ġstr ong
g ress
ra in
ĠR adio
Ġbuild ings
s erv
h i
ĠO ld
ed y
ĠM od
ĠSup er
stit ution
ĠP re
il ver
Ġw id
Ġse en
Ġg old
Ġ198 1
ĠS qu
m ar
emb ly
Ġreport ed
Ġm other
Ġsuccess ful
ail ed
ough t
Ġt ro
Ġcount ries
ĠSc ience
t a
Ġran ge
ch ie
ĠN ot
ĠW ork
Ġsp ace
ĠU nd
ĠL ove
ĠS ports
Ġc ivil
ien ces
ĠTe chn
ĠAngel es
u ation
omet imes
Ġv ia
ĠG overnment
ĠAr ts
Ġfollow ed
in i
ĠF re
ĠâĢ ľ
Ġs uff
ĠSt ar
Ġv ot
Ġv ict
ĠB o
Ġs em
Ġst ates
ap s
Ġse ven
ĠC arl
ĠS k
Ġkill ed
ac hes
Ġcont ract
Ġsign ificant
ĠA p
Ġon ce
l or
S A
Ġsong s
h ood
ic ated
ord er
ĠB ut
2 8
and ed
osp ital
ic y
) )
Ġshow s
Ġc ost
im ate
Ġb ar
Ġcom mer
Ġ197 2
Ġt aken
en a
Ġf oc
2 7
ar ian
Ġc our
ĠJ im
Ġ197 8
Ġimp ro
Ġarch itect
Ġhim self
ĠH on
du ction
un e
ĠO ut
ĠHe alth
ĠAl though
Ġm ount
ĠCh inese
ĠColumb ia
Ġtra ining
ĠO per
ĠM ur
umn i
ĠM il
6 0
p ite
Ġcl osed
ĠA v
Ġbel ie
Ġpriv ate
Ġ ill
ĠC ast
em s
b ased
Ġent ire
ĠP ak
ĠF ound
ĠD ou
i ation
| |
Ġsystem s
r up
Ġbook s
ĠIr ish
ĠH ow
at al
s s
Ġt ype
ĠI ll
Ġmonth s
ar ily
ĠSw ed
ĠM o
ĠS oviet
Ġfun ction
f ace
Ġe ither
ĠP op
Ġmat ch
id ents
Ġpart s
eng th
ĠE v
Ġb irth
Ġse le
op er
augh t
Ġhe alth
Ġp ast
S I
Ġ195 0
ad a
Ġd ata
Ġe arl
Ã ¤
inn er
rem e
Ġd ou
ra el
ĠJos eph
Ġh ockey
Ġt est
ic ial
erv e
i ents
ad o
ri al
ran t
av es
ĠPar is
w ell
ĠO l
ig an
Ġ197 5
p ec
Ġs er
Ġ ide
Ġ197 7
Ġse ction
Ġstud y
ĠB ob
u z
ĠIn c
ĠAt l
2 6
re ad
Ġs en
e ep
Ġfre qu
ĠFlor ida
Ġj ournal
Ġv iol
Ġto urn
ĠO b
ĠComm ission
2 9
ĠSp ec
ĠD i
ĠM r
ĠL ife
ĠC ur
Ġproduc er
Ġr iver
Ġcl os
Ġa ud
Ġrem ained
Ġtrans fer
b ur
Ġdoc ument
Ġm ethod
Ġle ast
st r
Ġr ights
ol a
Ġ197 4
ĠA rab
Ġlist ed
Ġperforman ce
Ġt reat
ens ion
Ġmanag er
m ark
Ġed ition
g en
Ġh ow
por ary
Ġcent ral
m ond
ĠMed al
m b
Ġp ur
ĠJ er
tra ck
e ated
g round
Ġsub ject
ĠBu ild
Ġin j
Ġpl an
yl van
Ġar r
n es
Ġc y
ĠS un
ĠR ou
v ing
an i
Ġ18 4
c ient
ĠU p
Ġcharact ers
Ġresp ons
Ġlead ing
Ġown ed
i res
g y
Ġj ud
Ġnew sp
Ġt re
m in
Ġre b
Ġf ig
ĠT our
ĠMex ico
Ġman ufact
Ġ202 3
Ġch ange
Ġpl ant
p ect
Ġp ress
as c
Ġprov ided
is es
ele b
ĠC amb
ĠB ig
ĠC D
Ġsub sequ
as ing
r ade
Ġdec l
ĠW ood
Ġis land
ĠB ow
am s
Ġpl aces
ach ing
ĠE r
Ġst aff
ĠB ank
ĠD en
Ġch ampionship
ĠR os
ĠCarol ina
Ġm ar
Ġun its
l am
inc ip
k n
Ġs outhern
it es
Ġc op
end er
te g
Ġb ass
p ly
Ġadd ed
ĠS eries
Ġaver age
Ġcamp aign
ut ure
ĠMart in
B A
Ġen c
Ġinvol ved
Ġ197 3
Ġn orthern
ĠF red
er o
Ġag re
Ġst ri
an o
ens us
et te
Ġme ans
ĠEmp ire
um ents
ĠPak istan
ing u
Ġme as
ro ad
ĠP an
ar ter
Ġp ut
st ant
ĠItal y
Ġresp ect
re l
Ġprov ide
Ġh om
if t
Ġcent er
ĠVirgin ia
ĠO x
Ġne igh
ĠM a
ĠScott ish
ylvan ia
it a
Ġapprox imately
z a
ĠDem ocr
Ġ196 8
Ġb o
ĠT ur
et ic
ĠD u
av al
Ġa way
ĠN A
Ġart ist
ch an
Ġo pt
Ġc ourt
ĠW inter
Ġf ront
om a
Ġattem pt
ĠF ort
Ġair craft
Ġup on
Ġocc ur
ĠB us
ult ural
ar io
ĠO h
Ġcompet ition
N A
Ġwh ite
F A
ĠM ajor
Ġcl ose
ent al
Ġs ch
ĠY oung
Ġdeg ree
o o
Ġh ard
ĠNew s
Am endment
Ġchang ed
ĠCong ress
el t
end s
p art
Ġfor ces
ĠS ur
Ġn atural
z il
Ġ197 1
s k
ĠC ross
Ġfin ished
Ġprim ary
r ig
ĠIs rael
ĠW omen
h ab
Ġco ast
d en
Ġs ugg
il s
w ith
Ġevent ually
b on
Ġcap ital
Ġexp ress
Ġcap t
ag ed
g l
Ġstand ard
ĠVal ley
Å į
Ġdisc over
.. .
ĠScot land
A mer
ĠD utch
or por
ĠF estival
Ġl ower
ĠComm on
Ġmag azine
Ġa chie
ian o
Ġ196 9
ĠG reek
as k
Ġd ram
Ġk ing
ĠPro fess
8 0
in ary
Ġc red
ĠAl bert
Ġp urch
Ġ18 3
Ġoper ated
Ġqu al
ĠL ong
Ġp ot
Ġs ometimes
Ġst age
I n
ĠHistor ic
is ions
it an
l im
ĠB BC
Ġatt ended
Ġprevious ly
Ġwh ose
ĠM ic
ĠAward s
Ġcont ribut
Ġoper ations
pec ially
ĠThe atre
ĠS outhern
s hip
Ġrun s
Ġsp e
s ylvania
at form
and id
Ġcont ains
Ġsc ience
ĠC ivil
Ġv eh
Ġact ive
Ġcent re
ĠT im
Ġacc ount
med i
ig ital
en ced
ĠP ac
Ã³ n
Ġp red
ĠM embers
ĠS ocial
Ġ196 4
Ġcon v
ĠM at
Ġindepend ent
ĠS ol
ĠG ar
ĠComm ittee
Ġtradition al
Ġt ax
and s
ill s
Ġrel ated
he t
Ġstruct ures
u a
Ġse x
Ġy ou
ĠPenn sylvania
Ġso ft
n y
ĠSy stem
Ġg ave
Ġac adem
vent ion
ĠH el
Ġmin or
Ġposs ible
Ġcommer cial
ĠC olle
Ġm ass
Ġro ute
ĠBrit ain
Ġle arn
Ġsup er
Ġter rit
sy ch
ent h
Ġd am
ĠM en
ĠD is
Ġcomple x
Ġout side
ian a
ĠN avy
18 9
Ġw ord
cl us
ĠT imes
Ġ196 7
Ġpre m
ill a
Ġindust ry
19 0
f ic
Ġc al
Ġim m
Ġ Â
ĠB attle
Ġbas eball
ĠT w
Ġa ction
rough t
Ġpl aced
l ike
ĠH ot
Ġtra vel
b ury
Ġst adium
Ġex cept
at ers
Ġlead er
ĠJ o
p ts
Ġstud ent
Ġmult iple
ult ure
ĠMc C
Ġdef eated
s el
Ġd u
ran g
h old
Ġob ject
ĠO f
ĠM ot
ĠB oard
Ġorgan ization
ĠM any
ĠEd ward
Ġocc up
ĠEng ine
ĠFilm s
ĠS ub
Ġfour th
Ġhig hest
o id
y r
Ġh it
un s
Ġapp lic
Ġg e
Ġcolle ction
ĠM os
ĠB re
7 0
ann ing
Ġaddition al
Ġstruct ure
Ġw inning
ĠB or
az z
ch ange
ĠT ro
ly ing
ĠSec ret
ĠRes earch
ĠF ollow
Ġtourn ament
ĠII I
rib ution
anc ial
Ġf arm
Ġmed ia
Ġpr ison
ĠBra zil
ĠM id
c ell
ĠB et
R A
a ction
ĠChampionship s
ri ate
Ġloc ation
Ġm inist
Ġinter est
Ġmus ical
Ġ196 6
ant ic
om p
Amer ican
ĠAss embly
kn own
ut y
Ġnew s
ĠBl ue
ĠP rem
ĠO ver
ĠEx p
Ġstud io
Ġ196 5
ĠL ine
ip l
Ġcrit ic
Ġde al
st ate
isc o
at o
Ġf ight
Ġph il
Ġg rand
ĠB i
ĠCor ps
Ġf av
Ġgener ally
ow ers
Ġb ase
Ġes pecially
Ġb ridge
ĠM in
ĠL ab
Ġre ached
n ed
Ġv en
Ġmov ement
Ġprogram s
Ġv ir
ĠB C
ĠIn t
Ġreg ard
Ġte xt
Ġdesc ent
bur gh
Ġc reat
Ġd en
ĠL iber
Ġr ather
Ġits elf
ĠP ubl
ĠQue en
o ir
ĠM ah
ĠUn ivers
ost on
ĠS a
Ã ¨
Ġf ar
Ġd ivision
Ġassoci ated
ĠJ ud
Ġb ur
Ġsc ient
ĠR el
ĠJ ournal
Ġun it
ĠTe levision
all ed
Ġse asons
k ing
ĠAr g
Ġ194 5
inc ial
ĠUnd er
ĠT ri
irl s
Ġc eleb
ĠM iddle
Ġn ight
Ġf ood
Ġst re
ff ic
ĠOx ford
ĠG ood
Ġacc ording
b ers
Ġal most
y e
Ġf all
ans as
ĠH aw
w er
Ġtrans port
Ġpol ice
Ġact ress
ĠC r
ĠL ibrary
ĠM ain
os oph
ĠJew ish
ĠG all
ĠT ime
ok e
Ġpo et
ov ers
e ction
f it
Ġn omin
Ġs aw
ĠCh ief
ĠTe am
ĠL ord
amp ion
Ġpro te
Ġcomp os
Ġf if
Ġann ual
Ġs ummer
ĠW ay
Ġinst r
ĠLe e
Ġal tern
ĠL u
Ġp ers
ĠFollow ing
ad el
ĠAl b
b and
ĠRou te
Ġc ou
ĠEast ern
ac ing
as ion
ple ment
Ġgo al
ĠP o
Ġres ults
ĠL atin
Ġp arent
ul f
Ġinst ead
Ġn ames
it ors
Ġun ion
Ġsch ol
Ġorgan iz
Ġc ut
Ġar g
a res
ĠT re
Ġl ength
ed s
Ġbel ow
h an
ĠSt ep
ec ess
Ġac cept
al le
ist ics
Ġpl atform
ĠM att
Ġhig her
ĠK ent
ven ue
Ġm ention
ĠH a
che ster
Ġrefer red
Ġl ic
Ġob serv
ĠF our
Ġc andid
id er
ĠJ ul
ĠK e
Ġkn ow
ĠB oston
ĠC oll
ic ation
Ġsc ored
Ġsur round
ĠI f
Ġen vironment
et ts
Ġrem ov
ĠS o
Ġ194 0
Ġm ur
ĠU r
B S
Ġp p
en ed
Ġin stitut
at i
st anding
ĠUS A
emor ial
ĠB ul
ĠL im
ĠPort ug
l a
ĠTh at
T A
Ġdet erm
ann ed
Ġw ind
ic ations
ob al
Ġtra in
ĠRuss ia
Ġs elf
ĠJ r
ĠV er
it iz
in ct
Ġb rought
Ġd ed
Ġret ired
Ġnum erous
ĠGeorg ia
3 5
Ġ ice
n el
ĠL oc
ian t
ĠPr ince
ĠD et
Ġbl ock
Ġlim ited
Ġw ood
e ign
p ut
ĠF am
Ġus es
ĠS at
oun ter
ĠL ittle
ĠB al
Ġp ay
or se
Ġs at
or ing
Ġad op
r ative
n ot
Ġl iving
ĠSp ain
att al
ĠS und
Ġfam ous
Ġmost ly
Ġfeat ure
Ġc he
em porary
ĠOh io
st ein
Ġl ived
il ed
Ġe ver
i Ä
Ġt rib
ĠCh ild
Ġ196 2
Ġclub s
Ġequ ip
ĠC am
um s
Ġcomp let
ĠAd m
ĠW ind
ĠW ater
Ġbeg inning
ĠAre a
ĠG al
Ġab le
ach us
ĠCent re
u ate
ell a
c ing
Ġrepresent ed
ĠAlex ander
ult y
ĠN ight
Ġb ox
ino is
Ġc ertain
ol s
ĠD ie
Ġsc reen
Ġtrack s
Ġmunicip al
uc lear
ĠAnd rew
Ġ i
Ġed itor
ĠPri ze
ĠTrans port
Ġrequ ired
Ġ eth
Ġindivid ual
ard en
w an
Ġs us
Ġc ust
Ġmean ing
ad ron
k in
Ġform s
Ġwest ern
ĠSe a
un c
Ġfor ce
ir m
ĠW ild
ĠIn f
ys is
ĠF ield
Ġperson al
Ġrem ains
Ġrelations hip
ĠW al
is ation
ĠM ilitary
ĠBas eball
ĠMich igan
ĠT op
Ġtr ade
m it
Ġcomp uter
writ er
Ġn eg
ĠDe v
urb an
Ġl oss
ĠE nd
Ġpract ice
ib ility
Ġl ook
h ouse
Ġthe ory
Ġr ate
Ġserv ing
a o
oc ese
Ġl ik
Ġc ases
ĠS pe
ĠB and
Ġterm s
Ġprov ides
Ġwrit ing
ĠSpec ial
achus etts
Ġrelig ious
Ġacqu ired
Ġcomple te
erv ation
ĠIll inois
velop ment
ĠB ern
u als
ĠHe ad
ĠEar th
Ġab s
Ġsp eed
Ġcons ists
om er
ĠJ ones
Ġinvest ig
Ġappear s
Ġb rand
ir it
E R
Ġpur p
Ġinter view
Ġm erg
Ġse qu
if y
Ġex hib
ĠAd d
Ġr ad
che stra
Ġ193 0
ĠSh ow
ĠS ar
Ġf ederal
Ġrun ning
ĠCon ference
Ġopen ing
ĠBro ok
ĠT od
Ġvari ety
ĠB ab
Ġwh om
ĠTh ree
Ġch art
ĠSt r
Ġen ergy
ĠMass achusetts
Ġepis odes
Ġ196 3
4 5
Ġdest roy
Ġlangu ages
Ġdec ided
Ġform at
ĠB ridge
Ġl og
ap ers
Ġfem ale
aw a
Ġr ugby
el a
Ġend ed
ĠPac ific
g ar
ĠI ran
pp ed
Ġmanag ement
Ġb all
ĠG en
C C
Ġlaun ched
ĠA ri
c a
air man
os ing
Ġactiv ities
ĠB oy
Ġf uture
ĠIs lands
ĠPro t
ra w
Ġse at
ad d
ĠR og
Ġpri or
Ġun iversity
Ġg ra
k en
Ġst op
9 0
as y
u an
Ġp ain
Ġg et
Ġeconom ic
Ġappear ance
ĠB ell
ĠFranc isco
Ġ er
Ġn ar
ĠT enn
Ġind ic
Ġs af
Ġ ĠĊ
ri ef
Ġsp ent
Ġ )
ĠĠĠĠ ĠĠĠĠ
por ation
Ġc hem
Ġe mer
w a
ĠSt ation
i ro
ĠMar ine
Ġpro b
ip s
ĠIs lam
Ġ ver
ĠR ay
7 5
Ġ6 0
Ġd ate
ĠMan ag
ĠAs ia
ĠJ ac
stru ction
ĠC le
Ġun ivers
Ġconc ern
ĠCo ast
Ġl ines
ĠM inn
ig g
Ġallow ed
Ġiss ues
Ġb ound
Ġth us
ĠEn ter
ĠG re
ĠProv ince
Ġoffic er
ĠW all
k o
cent ury
Ġsh ot
ĠThe ir
Ġcult ure
on n
Ġmajor ity
Ġsepar ate
Ġper cent
and a
ĠE ll
adel ph
b it
Ġbeh ind
Ġm ission
ĠE p
um ber
t ained
Ġ194 4
Ġr ul
Ġ196 1
Ġte acher
olog ist
Ġs ister
c el
Ġs ize
Ġlab el
ail y
il ly
Ġstat us
ĠK ar
Ġle t
Ġt aking
Ġd om
adelph ia
Ġst ated
it ation
ĠH uman
Ġp it
ĠAr m
Ġpr incip
ubl ican
Ġm er
Ġm ale
ĠSup reme
Ġmat ches
s en
ĠT em
ĠE lect
ĠO nt
ĠU l
Ġ194 8
Ġb attle
Ġbre ak
ĠA thlet
out heast
ran ts
ĠF er
Ġspec ific
Ġin teg
Ġleg al
in em
on ic
Ġart ists
ĠG overnor
Ġdef eat
ĠM u
Ġh um
Ġp en
is hes
ĠAl bum
ĠM ike
ab eth
ig er
ian ce
inn ers
Ġqu est
Ġfoc us
Ġon line
ĠOr ig
ĠSy d
ĠT ony
Ġsele cted
Ġto wards
Ġearl ier
Ġin sp
ron ze
ĠVictor ia
Ġm em
Ġal umni
Ġmov e
ĠS and
Ġincre ased
ĠCamb ridge
ed d
ar ing
Ġc ell
ĠJust ice
ab les
T h
ĠW eb
y an
Ġ â
ak ers
ĠJohn son
Ġes c
ĠJe ff
Ġprov ince
Ġar m
Ġren amed
ran ge
18 8
Ġiss ue
Ġd on
Ġch ief
ĠWilliam s
Ġ195 8
ĠS I
ron ic
Ġstud ies
in et
ĠV ideo
ĠK ong
ĠGu ard
Ġsour ce
ĠDire ctor
Ġ +
Ġcour se
Ġdra w
Ġ3 5
ĠJ oe
ĠC orn
Ġ19 20
ĠM ov
Ġsen ior
Ġf e
ĠSt an
Ġor d
Ġnot ed
ĠFound ation
Ġlong er
Ġn orm
ĠPhil adelphia
our ces
Ġm ach
ĠO pen
Ġg overn
3 3
v a
in ent
Ġs ay
enc ies
im um
S P
200 6
ĠV an
ĠDemocr atic
ĠC ub
Ġto day
ac ity
Ġnewsp aper
es h
ir a
Ġcol on
Ġ195 6
Ġproduct s
ĠBar on
ĠOff ice
ĠBel g
or a
Ġw ide
i as
Ġeast ern
ĠOnt ario
Ġc ateg
Ġn ine
u ge
Ġcomm ission
Ġcamp us
Ġan cient
Ġnum bers
Ġleg isl
Ġl ittle
ĠRep resent
Ġchang es
ĠStev e
Ġpass eng
Ġc ities
Ġart icle
r ich
ĠHigh way
ĠM ax
Ġrecord ing
Ġh ot
ĠF ar
ric ts
Ġc ouncil
Ġmov ie
rop ol
ĠB udd
200 5
Ġmain ly
ĠP res
n am
stit u
k ey
ĠOr gan
Ġo il
ĠB a
ĠBer lin
ĠJun ior
Ġparticular ly
Ġhe re
ĠP ower
ĠAir port
e en
op her
Ġcom e
Ġrequ ire
ĠSyd ney
200 0
ak a
man n
im ated
ing er
Ġ ens
ph y
Ġfeat uring
Ġbecom ing
ĠR et
I A
Ġrec ent
Ġ Ð
ĠC at
ric ket
ĠC ard
Ġch annel
ĠW el
ob ile
ĠP ost
ear s
Ġant i
Ġtem per
ĠWil son
on to
ur ies
ric e
Ġdisc uss
attal ion
Ġ195 7
Ġproper ty
ĠE st
Ġv on
l it
Ġf oot
res p
im b
Ġ195 9
at ively
ĠE le
w in
re ady
Ġcoll abor
Ã ¸
Ġbel ong
ĠPol it
ĠJe an
Ġfor eign
ĠL ew
Ġsec ret
Ġdou ble
art ers
eder ation
Ġelect ric
led ge
ĠDe velopment
ĠAn th
t ies
d own
Ġcaus ed
Ġhistor ical
ĠA ut
ou ri
Ġcount y
Ġaut om
ĠK enn
orpor ated
ay er
Ġw oman
Ġp aint
Ġmet al
ĠBook s
Ġsh own
Ġk eep
Ġmedal ists
rup t
Ġplay s
ĠL ater
ĠTr ust
ĠC reek
Ġgo als
w ide
b ook
Ġtechn ology
ĠReg iment
ĠD ec
Ġcommon ly
Ġlarg er
oc cer
Ġse a
Ġad j
con t
iÄ ĩ
Ġc ode
Ġdif fic
ĠL es
ay a
Ġm iddle
ry ing
Ġext ended
w ick
ĠCh arl
Ġpresent ed
ur t
Ġdis e
ĠCh ap
al ed
ĠCommun ity
Ġw ant
Ġassist ant
Ġs um
ĠH ong
Ġs ilver
Ġcommun ities
H L
ĠG h
ĠPro gram
th ur
Ġprim arily
Ġp il
ĠTechn ology
Ġmon ey
Ġval ue
os es
Ġl ack
Ġmed ical
te en
m m
ol i
ĠO s
y er
ĠG r
ĠC y
ĠN ations
Ġem b
Å ¡
ĠM ir
ĠL uc
Ġmur der
Ġt akes
Ġr ules
ĠQue ens
st one
he im
ĠB oth
am m
A R
v ement
Ġ ess
ze ch
ĠL ive
op p
av en
ĠH ockey
Ġcomp osed
Ġc lear
pt ion
ĠCount ry
hem at
3 8
ĠSong s
ant ry
ĠG ame
Ġaff ili
3 4
Ġam ount
Ġent ered
Ġoffer ed
en ant
Ġl ies
ig a
Ġme chan
Ġp age
am in
we alth
Ġhon or
Ġd ro
on se
che n
Ġstud ied
Ġsur face
Ġ194 7
Ġoper ation
3 6
ĠT ay
ce an
Ġm useum
ĠP ers
I D
k ins
Ġconsid er
at riate
ĠSt at
ĠF ame
Ġ194 2
ĠArg ent
ĠStep hen
g ing
Ġover all
j a
in als
ĠM ore
Ġb ene
ri ed
Ġsubsequ ently
Ġbet ter
Ġcon nect
ĠEl iz
Ġdis p
ĠH ome
ĠL ight
ĠL ady
Ġ194 3
ĠR em
Ġto o
ag n
ĠAs h
ĠCol or
Ġreg ional
Ġtra ins
Ġthough t
3 7
Ġhost ed
Ġd iss
em an
Ġre ve
bour ne
Ġc er
Ġin hab
ript ion
ĠS anta
ĠD er
un ct
Ġar my
ĠFor est
it age
Ġst ep
= "
ĠAn other
ĠJ on
Ġso on
ĠE arl
S C
ĠRep ublican
yd ro
he w
ĠN etwork
Ġprofess or
a ult
Ġele ments
Ġ195 2
Ġpe ak
Ġhous es
i y
Ġacadem ic
Ġl ink
b l
iz ing
w ar
Ġm akes
ir ing
Ġ195 5
ĠP en
ĠCommon wealth
b re
av a
Ġfac ilities
ĠS ev
Ġalbum s
Ġnear by
S c
Ã ±
Ġprogram ming
h y
ĠE conom
Ġincre ase
A l
e k
ĠB ishop
Ġrem aining
Ġcover ed
Ġp aper
Ġcre ate
9 5
im al
Ġinit ially
Ġsc ore
el d
ĠN ether
ĠSc iences
ĠK ir
Ġb rief
a is
ĠCl ark
ous ly
Ġev idence
4 8
Ġfin ancial
em eter
Ġsoft ware
Ġp ick
M A
ĠJack son
emeter y
Ġs om
ound s
Ġrem ain
ĠStud ies
Ġinstitut ions
Ġmention ed
Ġal ways
ĠB h
ĠF ederal
ect or
ĠK en
ctor al
ĠCor poration
ĠT am
ĠKore a
on ia
Ġex ecutive
Ġdirect ly
Ġproble ms
f ect
4 7
ĠHar v
u er
Ġw ords
9 9
Ġim medi
Ġim plement
Ġtyp es
Ġh ours
ĠC zech
Ġcom ment
ĠPrem ier
ĠB ang
ĠU k
Ġrecord s
A r
ĠDan iel
itt ing
it ude
Ġcap acity
ĠA venue
200 7
ad or
ess ion
Ġfollow s
ĠD ar
ĠO k
Ġj un
m ore
ct ors
ans ion
Ġdec ision
resp ond
3 1
Ġsit uated
Ġprop osed
ĠTor onto
Ġmod els
Ġded icated
ĠR aj
Ġdiv ided
Ġo p
ĠH ung
ĠNor w
ĠNor way
Ġb order
Ġal ready
Ġb ranch
ĠSt and
Ġf ail
Ġ195 4
Ġ193 9
og rap
ĠPol ish
Ġcontin u
Ġb omb
ĠN FL
ĠB ad
Ġag ric
Ġsupport ed
V D
Ġpass ed
Ġ195 3
Ġpol icy
ĠL t
ĠH ind
ĠJ es
Ġn ative
gy pt
ic ted
il ton
ĠB rian
Ġserv es
w orth
v is
i est
n ic
ĠAs ian
ĠPhil ipp
ĠSer b
ĠReg ional
L A
ress ion
ĠBar b
Ġ194 6
igh ter
arri age
Ġorganiz ations
Ġl ove
ĠMed ia
Ġestablish ments
ort un
uck y
6 5
ĠRev iew
Ġcont ra
Ġrespons ible
Ġconstru cted
os a
Ġcomm and
ĠAnt on
Ġcon cept
ĠAl so
itz er
200 4
Ġdep art
ĠR od
ĠHe art
Ġin n
ĠV iet
ĠEliz abeth
ĠNether lands
Ã §
ĠT al
ell ed
Ġ18 0
Ġsus p
Ġc itiz
ee ks
Ġl in
ĠL y
o z
E C
Ġpar ish
Ġear ned
ird s
Ġback ing
Ġstart ing
Ġ194 1
ĠIndian a
ab b
is k
il ies
Ġoffic ially
i h
ĠCh ris
Ġdep artment
4 4
Ġbe at
r ate
ie ce
ĠÂ £
Ġa thlet
ĠA ff
Ġformer ly
Ġcompos er
ion e
ĠAt t
Ġperson nel
Ġg ive
Ġv oice
Ġ8 0
Ġra ised
ĠInd epend
5 5
S T
Ġbelie ved
ent y
m ph
ut s
ed om
Ġle aving
for mer
ĠDes pite
ort heast
Ġsp ort
Ġneigh bor
ĠR am
d a
ĠS il
ĠT reat
ĠG er
Ġs al
Ġmin utes
ĠRev olution
ĠBe ach
cl es
Ġmiss ing
Ġs ociety
ĠC O
ic ine
3 2
on om
ĠE gypt
Ġsol o
Ġsecond ary
Ġdire ction
Ġoff ers
Ġw inner
Ġoper ating
Ġd yn
Ġsuc ceed
ie ut
enn is
ĠMan chester
e an
ĠU s
Ġdist ricts
Ã¡ n
Ġfor ced
A A
in ity
or ter
3 9
orn ing
N ew
ĠAr thur
ĠW rit
Ġserv e
Ġlaw s
ĠC as
ran ce
Ġnot able
Ġa st
Ġlevel s
ribut ed
Ġtyp ically
ĠS us
Ġapp l
ĠF I
ĠF ore
ess ee
ĠHar ris
ri f
Ġl atter
angu age
ĠTay lor
ĠB ec
qu arters
Ġcond itions
Ġvict ory
ĠCon f
Ġc ard
en z
ic ed
Ġst ories
Ġhe avy
ell ig
Ġa p
Ġg ran
Ġr at
al so
Ġdis play
ĠPro ject
ĠInd ust
ag on
l i
ĠB ir
Ġth reat
ub e
ition al
Ġappear ances
ill ed
ast ic
pp er
) "
ĠMus lim
Ġnear ly
ĠI ra
ra ck
Ġj ob
ĠH al
Ġc arried
Ġdram a
Ġbas is
ĠC E
ric s
ĠS u
um ed
Ġcon stitu
ou d
Ġpl ants
Ġsy mb
Ġcon ver
ors hip
6 4
a ith
ĠD un
ĠD own
Ġ5 00
te xt
sel ves
Ġc at
Ġn ature
Ġaward s
y o
Ġp sych
Ġar rest
Ġele ctions
ĠRec ord
il a
ĠV en
ĠTenn essee
' ,
Ġn ation
ĠL i
Ġch arg
Ġprodu ce
Ġmount ain
ĠPol ice
z ona
ĠB rad
Ġwe ap
ĠSen ate
ĠF air
ak h
red ited
Ġthem selves
Ġtransfer red
Ġhel ped
van ced
n o
ĠA z
os aur
ĠFor m
Ġd igital
200 1
ĠPol and
Ġhe art
e z
ut t
Ġsett lement
Ġc ause
b ro
og ue
ropol itan
Ġsc hed
Ġwid ely
ĠM unicip
l ight
ist ance
Ġfor t
Ġgrow th
7 8
it led
Ġclaim ed
osoph y
g et
Ġengine er
ĠReg ister
Ġcult ural
ĠMount ain
ĠSwed ish
ĠA k
200 2
Ġd one
Ġd ial
Ġmot or
ĠEar ly
ed ia
ĠV ill
Ġrepl ace
ieut enant
ĠMar g
E ng
Ġl ake
in son
es ota
ĠF ox
ĠBus iness
Ġdiscover ed
Ġl ives
Ġst ore
Ġc ars
Ġc ensus
ĠP it
Ġincre asing
ĠSchool s
ĠPr ime
Ġill ust
ad er
200 3
v est
ad ing
Ġdel iver
ĠServ ices
f ound
Ġet c
Ġf le
ĠHol y
ĠProfess or
ĠLe v
Ġadd ress
Ġm ic
Ġ194 9
ul ly
an cy
ou ra
ig en
Ġt arg
ĠC a
Ġde ep
ĠBr ig
ro g
Ġinit ial
Ġpo or
Ġro om
ĠMinn esota
ĠLew is
ath an
hen s
Ġh ospital
Ġext ra
ĠSt adium
Ġw eeks
6 6
ĠF ire
ĠLeg isl
Ġv an
ren ce
ĠH ay
ĠC are
Ġsh are
Ġtown s
Ġgen us
un a
Ġparent s
Ġfound er
ĠM emorial
Ġgrad uated
ĠM aster
Ġresp onse
Ġpre vent
Ġpurch ased
ĠG reg
form ed
Ġqu ick
ĠR ome
ĠFam ily
p resent
N o
b ra
ĠGold en
Ġmeet ing
Ġeffect s
und red
Ġp iano
us band
ĠDe ath
k er
in ated
ĠL ike
Ġalong side
ĠAl f
Ġ3 2
Ġterrit ory
r ass
ĠC irc
Ġp os
ĠB on
per or
roll ed
ĠT a
ĠT ok
Ġpart n
ix ed
ĠW alk
ĠK ansas
5 00
Ġbl ue
Ġ Å
or g
b ec
ĠMiss ouri
Ġfif th
Ġch all
Ġan g
U n
Ġh ar
stru ct
ĠMill er
Ġn ecess
ĠColor ado
ĠSp ring
Ġp ath
er ick
ĠMod ern
g rad
ĠB ol
ĠF inal
ĠBro ther
ĠDes ign
ĠDu ke
ĠSecret ary
Ã £
Ġqu arter
ĠAri zona
Ġra p
Ġun c
Ġsmall er
Ġcol or
m ission
Ġo vers
ĠS her
Ġdr ug
ĠOff icial
Ġele ment
Ġ7 0
Ġcor respond
d am
im a
Ġindivid uals
7 6
l av
Ġsh oot
Ġinflu ence
Ġiss ued
Ġ195 1
Ġremov ed
ĠB all
ĠMel bourne
Ġproble m
ĠBuild ings
Ġequip ment
Ġn uclear
est abl
j i
ĠA uthor
ol is
ĠS ix
Ġk ind
ĠU t
ol n
Ġpl ans
Ġdiffic ult
Ġbl ood
m as
r ical
Ġgo ing
od ies
Ġ9 0
Ġcondu cted
ĠH ospital
Ġr ule
clud ing
ail s
Ġmanag ed
Ġphys ical
ĠL o
Ġm ax
ograp her
Ġsem i
200 8
Ġ Î
g reg
ĠR en
Ġtit les
Ġjournal ist
Ġg as
ĠE ach
ri e
Ġfig ure
Ġsec urity
gh an
ly n
Ġadminist ration
Ġb ronze
Ġm ight
ĠW at
cl ass
ĠH y
Ġcom edy
Ġwhe ther
ĠMar sh
Ġl y
Ġcon ne
Ġinstr ument
Ġup per
ĠFor mer
Ġold er
Ð °
ĠK el
ĠSp ace
Ġdem on
Ġper man
Ġh ol
Ġst ay
Ġass igned
ĠB alt
Ġanal ysis
Ġg raph
em y
Ġ *
ĠR oss
Ġindust rial
Ġadop ted
Ġg re
ĠLe on
Ġhigh ly
ĠL abor
ĠM P
ĠCh annel
ĠC ost
ĠReg ion
Ġdef ined
Ġsit es
5 8
Ġd omin
ĠB orn
for ce
4 6
i ary
Ġpro gress
Ġwork ers
Ġexper ience
ĠA h
ĠC op
Ġcon cent
Ġc orn
ĠFranc is
4 9
ĠE s
Ġatt ra
Ġold est
Ġch ap
ol ved
Ġp ack
ĠI d
ul pt
st ic
al i
ank s
Ġra re
Ġlet ter
Ġch ampion
ĠAb b
Ġcomp on
Ġ era
b s
Ġcom es
Ġv ote
Ġfin ally
Ġair port
ĠIra q
Ġ x
Ġf ailed
20 10
Ġminist er
a ug
n ected
Ġwho le
Ġcre w
Ġg reen
Ġj oint
if ying
or ph
ĠK er
iv ity
ĠS ever
Ġcer em
ĠCast le
Ġcomb ined
or ation
ĠB ah
Ġres idents
Ġs n
4 2
ĠAdm inist
Ġ ut
ict ional
p ass
on ed
Ġret ire
ĠH art
ag h
Ġvers ions
Ġass ociation
Ġown er
Ġtreat ment
A C
le te
Ġturn ed
Ġ urban
Ġstr ateg
Ġlik ely
al y
Ġst e
Ġ193 8
Ġg rew
Ġm arriage
Ġsour ces
ĠSqu adron
Ġinter p
ĠA D
du ce
ĠY our
199 9
ang a
ĠHon or
Ġprom inent
i i
Ġre ason
ac hel
inc oln
Ġfac ility
se y
Ġexp anded
ĠPhil ip
Ã º
ro wn
Ġliter ature
Ġsw im
ĠSt ock
Ġy outh
ĠKore an
Ġm iles
ĠH u
ĠComm and
Ġt ree
Ġeduc ated
am ber
Ġ4 5
Ġran ked
Ġref ers
f rom
ĠM ember
Ġh usband
ĠB ru
per ial
ĠH an
Ġest imated
Ġtro ops
ĠC ra
ĠB ack
ĠR on
ĠCol on
ar ry
Ġf irm
Ġpart ies
r ator
ograph ic
ĠMex ican
Ġatt end
ĠB os
ĠF le
w ater
ur er
ĠS om
ĠR ugby
ĠD or
Ġre pe
ĠPl aces
ĠD VD
Ġsc ene
C l
id ae
Ġad apt
ĠPr im
Ġproject s
ing ham
Ġdist ribution
ĠAf ghan
Ġp al
p son
eg ian
Ġsub s
Ġadminist rative
iz es
h ol
Ġp ages
ĠMed ical
ad s
i ated
ot o
S S
Ġb ring
ro vers
7 7
ĠM oon
ĠWh o
ĠD isc
ĠSh ort
Ġint ended
ĠA st
Ġbecom es
Ġele v
l ife
Ġd ance
ĠL ind
ĠN az
Ġrespect ively
200 9
ĠO p
ĠF ree
ĠS em
ĠB attalion
Ġl if
ĠManag ement
h at
Ġs amp
ĠT ax
Ġde ad
Ġf ace
Ġdise ase
ĠA M
Ġpre c
Ã© e
Ġhold s
ĠH ard
ist ry
Ġcon fl
ĠS on
Ġfam ilies
ĠEngine ering
ĠTod ay
Ġres ident
os h
Ġengine ering
9 8
ak s
ubl in
Ġpot ential
ĠS ound
ĠHar ry
Ġl ay
Ġ3 6
du ct
Ġmix ed
us c
Ġsp lit
al o
ĠP ass
ast y
Ġrec ently
ĠCro at
Ġdist inct
ĠMinist ry
are t
b ass
m et
in us
Ġthe atre
Ġa im
if orm
Ġt able
Ġcontin ue
il ation
4 1
p ool
Ġro les
ĠPl an
Ġimm ig
Ġfl ight
Ġ ult
Ġf ast
ell er
Ġcont emporary
ag ing
i ot
ĠS ant
in cess
eat her
Ġtra ffic
ĠOff ic
Ġreg ions
ĠEnter tain
Ġsp ons
ile y
Ġsing les
Ġvol ume
ĠSt ory
ĠL incoln
8 8
Ġdist ance
Ġtit led
ĠH o
Ġte le
ĠHam ilton
Ġin side
Ġsurround ing
A n
ĠT est
Ġst reet
th ing
ĠSim on
Ġf ish
um es
igh th
ĠA C
% )
Ġdocument ary
re al
Ġ( ;
F M
en es
Ġprot ect
y g
ĠW olf
ul s
ĠMar c
Ġfor est
Ġact ing
Ġpromot ed
er al
Ġc le
1 00
a ud
ac c
ĠSwed en
Ġchar ge
Ġrefer ence
Ġun s
west ern
Ġ( ),
Ġdestroy ed
Ð ¾
v o
ĠSt one
Ġw alk
ro om
ĠMar ia
an th
Ġrecogn ized
ĠD am
ĠNorw egian
ol ished
Ġp et
Ġg ot
un te
ov a
ĠBe fore
Ġpl anned
ist ed
res h
ik a
Ġvoc al
Ġactiv ity
ar on
Ġab ility
ĠK im
ĠV is
pl ace
ĠR om
Ġdes pite
erv ative
ĠT y
Ġro ll
en ge
ĠAnth ony
Ġs ens
Ġcomp ut
Ġmusic ian
est ic
se e
h u
Ġmem ory
C D
n s
Ġe c
Ġdr ums
ĠG ree
9 6
Ġcolle ct
Ã£ o
Ġs u
ic ient
ĠFore ign
ĠA ud
ĠW eek
Ġlarg ely
Ġsold iers
b ed
ĠTh rough
Ġcontin ues
Ġimp act
ĠAtl antic
ord in
und er
Ġsy nt
ĠD ick
c ol
g u
ĠWar s
Ġoffic ers
199 8
Ġcre ation
' .
i ec
m un
Ġf estival
ann a
Ġreg ist
ĠB urn
Ġre duced
Ġst ock
Ġcompet ed
ĠEntertain ment
Ġ19 18
8 5
Ġdef in
Ġh ydro
ĠCap e
ur d
ĠF ront
Ġp ict
Ġcandid ate
Ġrec ip
Ġmov ing
Ġ( ,
ĠKent ucky
ĠWal ter
ons in
199 7
ĠSec urity
ĠDou gl
Ġcal c
ann er
ĠRepresent atives
ĠD rag
ĠCon nect
ĠE P
Ġconc ert
i at
isc onsin
Ġinhab it
ĠC re
ĠB at
Ġse ats
ĠQueens land
and y
ĠCap tain
20 11
S h
Ġa ired
oc ated
ĠD ark
Ġo x
ĠR ang
Ġship s
se x
m ad
Ġc ounter
Ġg overnor
ur ches
Ġdesign ated
hed ral
7 9
Ġc oin
Ġstre ng
ĠLoc al
ĠD ave
ut her
ĠChild ren
h ist
ĠT rib
Ġrest aur
iqu es
A M
el ine
5 6
Ġback ground
em ic
ap ed
Ġle tt
Ġac id
Ġ193 6
ues e
Ġpres ence
ĠR ad
4 3
Ġhigh way
0 6
ĠS av
ĠP ict
Ġcont rovers
ĠOr chestra
rid ges
Ġclass es
Ġder ived
Ġra cing
ony m
Ġhistor ic
ĠSund ay
ĠC emetery
Ġbur ied
Ġ ;
ou red
ĠF ord
Ġst ra
Ġcan cer
A F
ĠTransport ation
S E
Ġw ins
ĠMal ays
Ġproper ties
Ġg ives
Ã¼ r
Ġkey board
ĠM as
ĠE ric
ĠK al
Ġent er
Ġmag n
Ġschol ars
O R
Ġp an
Ġmeas ure
ĠD ublin
Ġar ts
ĠG il
om ot
Ġest ate
Ġveh icles
ĠIn formation
Ġfun ctions
Ġfl ag
ĠMc G
Ġle ave
Ġc arri
ĠF ederation
ĠBas ketball
Ġ3 3
ĠMus ical
ĠB oys
ĠHow ard
ĠW isconsin
Ġst ars
ap ore
Ġlead ers
ot ed
ĠV o
ĠCon c
ent ed
ur is
ib ly
ĠO t
Ġs il
ĠAl an
Ġad vert
wh ich
Ġt aught
ĠViet nam
ĠM it
ĠH or
ĠJac ob
I T
pe ople
Ġp oll
ĠDav is
Ġsign al
Ġpe ace
W ales
os en
20 12
oot h
Ġtw ice
ĠN ic
ĠO tt
Ġall ows
Ġen ough
ĠH amp
Ġra in
Ġg un
Ġ3 8
Ġopp ortun
Ġbeh av
ĠL iter
Å Ĥ
Ġmult i
ce st
Ġven ues
Ġex ecut
Ġt al
ar o
ĠD omin
Ġch airman
Ġsy n
Ġveh icle
ĠPubl ishing
Ġb ig
us ion
Ġfriend s
ak i
Ġident ified
Ġlead ership
Ġprov iding
Ġc ells
Ġaltern ative
5 4
Ġh ab
Ġw ild
Ġrec over
Ġwe ight
ĠU N
b u
Ġpos itive
Ġcon nected
ĠMag azine
d ied
ĠI ce
ĠBro ad
ĠMor ris
re c
ell ows
ĠAll en
ĠDougl as
b o
ĠP oint
ain e
Ġparticip ated
ĠDo ctor
9 7
Ġb al
ĠPr iv
Ġf ellow
ĠColl ins
er c
f ile
Ġf iction
Ġ193 7
v in
Ġport ion
Ġpat tern
Ġ192 2
ĠMary land
r ill
ĠL at
ĠN ow
r in
Ġcont act
ĠFor ces
Ġm aster
l ers
Ġt im
Ġgran ted
Ġra ces
b ell
Ġaccept ed
en ing
Ġthem e
j e
y al
Ġmerg ed
Ġprob ably
ain ts
Ġthere fore
Ġh or
ĠBet ween
Ġcitiz ens
Ġsex ual
ĠLab our
it ness
ĠM un
Ġtarg et
z z
ĠP ier
ĠL ow
Ġprincip al
Ġquest ion
ou ts
ĠW in
og s
Ġco aches
ĠHol ly
CA A
Ġcond ition
m outh
Ġdecl ared
Ġy et
Ġrec on
Ġr ural
Ġ192 9
ĠPortug uese
ĠM ach
ost er
g or
Ġs ales
ĠJes us
or al
Ġp urs
Ġas ked
ĠPl ace
Ġvill ages
I C
Ġh undred
Ġfav or
ĠAl ab
D on
Ġqu ality
anc ing
Ġexper iment
ĠAff airs
Ġsp ect
Ġnomin ated
ic ians
ens ity
ĠS ee
Ġnew ly
ro it
Ġd ark
am i
ĠKh an
199 6
ĠRe al
s pe
ast e
ĠAr men
Ġexp ansion
Ġsim ply
ĠSing apore
Ġthe or
Ġb ott
ĠF C
ĠO ak
Ġappro ach
i ate
ĠF M
ian ts
Ġcust om
ĠG ord
ĠG ram
ĠN Y
Ġresult ing
ĠBow l
F C
Ġw inners
Ġre ach
orn ey
ĠAd am
ĠK r
est er
Ġsp irit
5 9
b a
Ġw a
Ġsp ring
Ġcomp ared
Ġsc ulpt
Ġreport s
5 2
Ġp arliament
Ġ19 14
Ġg ained
Ġide a
ĠM oh
ĠD ak
ru it
Ġgre ater
Ġb ishop
ĠT en
il ing
% .
Ġcont ain
m itted
ap h
l aw
ĠT urn
0 7
Ġf ully
Ġ193 3
l ah
ĠAlbum s
ĠT s
Ġo ur
ĠW ell
Ġmaterial s
Ġgu est
Ġhistor ian
Ġl abor
Ġ3 7
ow a
Ġro b
Ġ193 5
Ġtransl ation
are n
ÃŃ a
i enn
ĠCom ics
Ġcol umn
Ġsaf ety
m es
s ky
in ally
ash ion
ĠJ am
Ġpr int
C y
Ġg iving
Ġknow ledge
u ct
ron e
w ing
it o
le ased
Ġl ibrary
ish ment
Ġst one
Ġwith d
ad ed
we ight
0 8
ĠD iv
ĠD ream
ĠN ick
ĠĠ Ġ
6 7
c ar
Ġbeg ins
ĠLt d
Ġtr ue
ĠRober ts
Ġ19 00
el le
ĠH and
ĠAnd erson
Ġfrequ ently
t le
Ġpit cher
Ġappl ied
N orthern
ĠI V
ĠK l
5 1
re es
Ġ192 8
Ġmark ed
Ġimmedi ately
P S
ĠD ue
ĠH ans
Ġcont ent
" ),
6 8
ĠAd vent
c ow
ĠA ge
Ġres erv
ĠAm ong
Ġagre ement
Ġs earch
os is
ĠAust ria
Ġpurp ose
g ow
Ġresult ed
itzer land
ar ia
ellig ence
Ġf r
ĠAlab ama
Ġsp read
Â °
Ġpre p
ipl om
Ġmach ine
Ġb ad
ivers ary
Ġc overs
ur ance
ap ted
199 0
rest ling
P ro
ĠBuild ing
Ġc e
our ce
Ġag ent
ĠHill s
ic ut
Ġretire ment
r um
ĠO cean
Ġeconom y
d i
ĠWh it
Ġorgan ized
eth ing
ym n
ĠSever al
Ġcl imate
ter y
ĠSy mph
Ġlett ers
ĠI mp
Ġscient ific
199 5
Ġset s
Ġst ream
Ġexp atriate
ĠG ib
Ġform ation
Ġun ique
Ġanim als
ian g
Ġcont est
g g
Ġvir t
Ġs outheast
ĠH ou
Ġse vent
ĠWh at
ĠK ey
Ġreview s
establ ished
Ã ¢
Ġquick ly
Ġfield s
Ġtri al
cl aim
Ġneed ed
Ġcr im
Ġs uit
ĠS ilver
Ġth ous
ul ate
Ġb illion
ĠR oll
Ġcomp ris
ĠFred erick
d on
ĠAr k
b urn
Ġb ought
ĠF ood
Ġstar ring
Å «
ĠCh ampions
Ġhead quarters
Ġto ld
Ġinhabit ants
Ð ¸
Ġmethod s
Ġar ms
h ar
Ġm ill
Ġse ctor
Ġ192 1
ĠRog er
Ġ ir
ry st
ro up
og y
Ġeff orts
M S
Ġc art
om y
Ġact ually
Ġcons um
ole c
Ġg od
Ġg irl
Ġnot es
ĠIntern et
ĠH un
ĠProv incial
Ġsp ok
Ġequ ival
Ġcrit ical
5 3
Ġab and
or age
Ġb oy
ĠB rand
Ġn ortheast
re ll
Ġfl oor
Ġbas ic
ĠGu ide
Ġconver ted
ĠGl as
Ġh all
Ġte aching
ĠP ope
ect s
ĠDet roit
Ġhe av
vel and
Ġrel atively
Ġmain tain
Ġoccur red
Ġ19 19
ink ing
Ġsuff ered
o es
ĠDie go
ĠPh ill
ĠTem ple
B l
Ġsup pl
Ġyoung er
Ġsucceed ed
ĠM em
ĠR ights
ow nt
Ġcan not
re ct
Ġm ess
Ġsqu are
Ġh arm
ev in
Ġcondu ct
Ġd aily
ĠR eb
y t
y es
ĠS hip
Ġh ap
ĠL ast
Ġart icles
in th
Ġeffect ive
Ġ192 4
Ġsub urb
ĠBec ause
r ings
Ġp ra
ĠS ab
ĠG irl
Ġim age
Ġexist ing
5 7
Ġarr ived
Ġapplic ation
Ġloc ations
ĠSw itzerland
ĠPat rick
Ġgl obal
Ġeth nic
Ġinsp ired
Ġrec omm
ĠConnect icut
ress ed
Ġsup ply
ingu ished
Ġb att
O S
ĠP ot
iv als
ĠL et
Ġex c
o en
Ġc am
Ġlearn ing
A N
Ġf olk
ĠE th
Ġ3 4
ĠPit ts
ut ies
Ġemploy ed
Ġh our
ill ery
ĠPh ys
ĠTer rit
ĠL as
Ġprov incial
Ġ193 1
Ġcr ime
or i
is er
ĠG irls
ĠSl ov
ĠT ai
ac ent
Ġcent uries
Ġlic ens
z y
Ġf eed
at ab
Ġm ap
ĠB eng
ate ur
Ġ193 2
Ġdr iver
ĠMic ro
Ġto wer
ĠTok yo
b an
k es
9 2
ir med
ĠBro adcast
en h
ĠCh ile
Ġar rang
Ġrece ive
Ġt alk
20 13
ĠS ac
ag u
we et
ĠJew s
ee ch
Ġjud ge
Ġs ac
hem e
0 1
a ver
Ġfor ward
ours es
Ġocc asion
ĠF e
Ġrap id
ag a
Ġfound ing
Ġoper a
Ġlaun ch
' '
Ġcomp osition
ĠTh ird
Ġ192 7
Ġsl ight
Ġreve aled
8 6
ĠB eat
Ġe as
Ġatt ention
T C
r ine
ĠN ar
Ġrecord ings
Ġ193 4
ul ed
Ġex clus
Ġun known
ol es
Ġcont aining
Ġneighbor hood
Ġf ictional
ĠS ky
Ġtemper ature
Ġs ons
b ar
an es
ind er
ĠInd ones
Ġauthor ity
Ġpress ure
Ġre form
Ġal le
lah oma
ĠE ag
rop ical
Ġsim ple
ĠS um
Ġcy cl
ĠN ich
im ens
ĠAb d
a ctions
ĠInf antry
w ise
Ġc ricket
Ġcolle ges
ĠD ur
Ġchem ical
L e
ĠG ri
Ġarchitect ure
ĠMos cow
Ġ192 3
Ġpublic ation
0 9
Ġh yp
ĠGree ce
0 5
Ġcomb at
o is
s ch
ir al
ou ver
ĠLouis iana
Ġperforman ces
rick eter
Ġs occer
Ġc ab
am ing
ĠGall ery
ĠLegisl ative
ĠM ethod
ĠB erg
Ġk il
Ġcon stant
ĠCol omb
Ġagre ed
7 2
Ġval ley
ĠG ard
" ).
n ia
r Ã©
ar p
Ġse g
ik h
Ġtransl ated
Ġn ick
ĠL ang
ĠLiber al
Ġst ores
ĠS port
ĠN CAA
Ġent itled
Ġacc omp
ĠPri or
ĠSt ra
Ġmay or
Ġport ray
Ġattack s
ĠF all
ĠN on
Ġallow ing
7 4
Ġis lands
Ġfig ures
à ¤
Ġex change
ĠChrist mas
b ound
Ġ19 17
Ġauthor ities
ial s
ĠN ev
ĠOn ly
Ä į
act ive
Ġ192 6
ĠS n
og en
Ġfl ow
ĠYear s
ĠCle veland
z en
Ġch osen
Ġcomp ar
ĠWel sh
el ve
ĠN ob
Ġtre es
ĠA P
ag er
ĠHistor ical
Ġcou ple
Ġsay ing
Ġcom ing
ĠTr ade
ĠQue bec
Ġf air
Ġcon ference
Ġr ing
Ġsl ow
Ġf ranch
Ġad apted
Ġent ry
Ġgrow ing
ĠOk lahoma
iec es
ĠC ab
Ġorder ed
Ġp un
ĠO d
ĠBor ough
Ġm ig
ĠD C
Ġcom ic
S R
w w
199 4
Ġclaim s
g a
Ġ. ..
is f
ĠBill board
Ġg irls
Ġposition s
g n
is a
ĠR he
Ġperman ent
S O
Ð µ
ĠHarv ard
f all
Ġser ious
b ach
Ġw ear
ĠD all
Ġfac ulty
Ġoff ices
Ġqu ant
Ġsett led
stitut ional
Ġvot es
d ale
Ġw all
ĠS ri
ĠSt ew
Ġcomplet ely
hemat ics
in burgh
ĠEn vironment
Ġmunicipal ities
ĠEr n
8 9
Ġh y
ĠN ap
ĠW ing
ra ine
Ġprote ction
alle l
20 14
Ġran k
Ġperform ing
uss ion
Ġappro ved
t ing
Ġas pect
hes s
ĠEduc ational
l iving
ie val
ĠDe ad
Ġsup p
ism s
Ġext ensive
Ġly rics
Ġact ors
ĠL og
0 3
ĠB uff
ĠRh if
I N
Ġc ert
Ġrelig ion
Ġf ans
if ically
ĠPr incess
Ġcar bon
anc ouver
Ġsix th
ĠIslam ic
Ġpart ner
ĠGlas gow
ĠH ur
ĠF arm
ĠF riend
ĠRep ort
Ġs ays
Ġm ut
ol as
ĠK at
ĠCo oper
im ents
ĠChrist opher
le ep
ĠB ible
Ġeduc ational
Ġpasseng er
ag en
ant on
Ġwant ed
8 3
Ġv s
Ġfl ood
ĠLaw rence
z er
Ġpolit ics
Ġachie ved
Ġan th
Ġexp ected
ĠH ell
ĠK evin
Ġres ources
Ġval ues
6 2
ĠVol ume
Ġnorm al
ĠD eb
ud get
or f
Ġoper ates
Ġdam age
H S
ĠR un
ĠL iver
Ġv ent
cy cl
ĠSw iss
ĠMo ore
ĠIndepend ent
ĠAlbert a
ĠGord on
re te
20 15
Ġf ell
Ġy ards
ett ing
Ġcapt ured
Ġpromot ion
ĠTra ck
Ġhous ing
ĠB an
ast ers
p et
r at
Ġsh ared
ph as
ourn ey
7 1
j oy
199 2
Ġob tained
in cluding
or gan
ĠP ur
Ġclass ical
d is
D e
h o
Ġst eel
ri ev
Ġpil ot
Ġdro pped
st ream
Ġw inter
ĠC rit
ĠM and
ĠG arden
Ġhe ro
ĠAnton io
ĠPhilipp ines
l an
ipp i
6 9
ĠB uck
act er
Ġco al
ĠSen ior
g ency
ĠE c
Ġh op
le m
ĠV ancouver
i Ã³n
Ġal t
Ġde ploy
Ġl osing
Ġag ed
Ġp air
ĠM ult
Ġprogram me
Ġcop ies
ĠS in
Ġlaw yer
ĠRuss ell
uris d
Ġs ides
Ġle aves
ĠN atural
ĠK ings
Ġdou b
j o
ĠU pper
ir ty
ĠJan e
re p
st ar
ĠC all
ĠB ou
t i
ĠT el
Ġd raft
ud a
Ġnov els
ĠSam uel
Ġcast le
6 1
ĠC ow
Ġacc ident
Ġsugg ested
Ġ4 9
Ġint ers
ĠD om
ĠPop ulated
igen ous
C omm
ĠD anish
m iss
in y
ĠK am
Ġ3 00
ĠEd inburgh
ag ues
ĠB illy
Ġ4 00
199 3
P A
Ġel im
Ġbrother s
ĠB ry
ĠE very
Ġro t
Ġworld wide
Ġast ron
ap olis
u v
ag an
ĠAl umni
Ġ192 5
W est
Ġoper ate
ĠDi ocese
ĠSymph ony
l ast
Ġv o
ord ers
Ġend ing
ĠMount ains
l ines
ograph ical
Ġindepend ence
ĠDak ota
ĠIn n
ĠKn ight
ĠMiss iss
Ġin aug
Ġv ess
Ġim pl
Ġbro ad
Ġex am
Ġinj ury
ĠS el
Ġdr ive
ĠPitts burgh
d ie
ĠB ase
Ġear th
Ġstand ards
Ġsqu ad
ĠMatt hew
ĠG i
ond er
ĠF ac
Ġnecess ary
S p
us al
ĠK arl
us es
ĠSt aff
ym ru
Ġed ited
7 3
Ġcateg ory
c op
Ġcon vers
Ġconfl ict
m ers
ĠT rad
Ġ19 10
ĠBru ce
Ġm orning
ect ive
Ġenvironment al
u i
Ġtechn ical
ig ation
Ġro yal
Ġwrit ers
ĠLiver pool
ang el
Ġsc oring
Ġp aid
uc cess
Ġocc urs
ĠSqu are
ant e
Ġsc ript
in ch
ĠA qu
Ġcap tain
eg a
ĠAmerican s
pr ise
ownt own
el and
ĠF und
ot ic
ĠF al
ĠN ord
ĠA le
ĠA BC
ad ow
ĠCon stitution
ĠL or
ĠHer itage
Ġapplic ations
qu es
n i
ĠR ose
ĠN ep
Ġ19 15
Ġk ept
ĠAfghan istan
ĠG w
D A
Ġb ra
ĠI l
Ġb ow
th m
Ġren ov
ĠPolit ical
ist ers
Ġmax imum
Ġch ain
enn y
ĠCro wn
it i
ĠAl i
ĠStud ios
r ations
in ted
ol ly
ĠAn ne
Ġ190 8
ĠF isher
Ġsubsequ ent
Ã Ł
ĠComm ander
unn el
9 3
ock s
Ġtw enty
ĠL eb
ĠNor man
Ġanim ated
0 4
U S
p ur
ĠT ig
ac he
ĠMay or
6 3
Ġth ings
ant asy
Ġad vanced
id ge
ĠG or
Ġcomm ittee
ĠGl obal
ĠPortug al
Ġf eel
ĠSup port
reg on
ĠColle ction
k h
ĠÃ ī
ĠR a
ĠL ieutenant
Ġcomp l
g al
ĠF ellows
ah n
l ov
ou stic
ord an
p ir
Ġb ul
ĠN a
ĠBern ard
clud ed
Ġofficial s
achel or
c an
m illion
ĠAb out
ĠL anc
ĠJoh ann
Ġh orse
ĠCon vention
Ġsurv ey
Ġhab it
id ers
Ġvis it
Ġs urn
Ġinc orporated
b ridge
or ough
Ġend s
ĠMet ropolitan
Ġconsist ed
ĠO m
Ġad ult
Ġadj acent
y st
Ġb it
Ġro ugh
ĠApp le
et on
ram a
Ġsol id
le ts
ĠE ver
ch a
im ore
ĠY outh
Ġto uch
ĠBrother s
ĠG ab
ĠI ron
ĠWork s
ĠBar ry
ĠH ere
ĠW y
emb le
Ġequival ent
Ġp le
Ġneed s
I S
Ġw ing
ĠN eb
20 16
Ġsymb ol
à ¸
Ġpl anning
Ġstr ugg
iv a
iam ond
ĠF a
Ġweap ons
E S
Ġc ourses
Ġsett ing
ĠS eat
Ī Ĵ
ĠI owa
0 2
Ġy ellow
C on
Ġhand s
ĠEx ecutive
ĠBrig ade
ĠN ote
Ġr isk
ĠPe ace
rom e
Ġ6 4
Ġtem ple
v ey
Ġ19 12
Ġgo es
Ġpain ter
Ġrepresent ing
ĠHolly wood
au x
ĠL yn
os m
iss ance
ĠMot or
Ġ iron
Ġconsist ing
ec ution
ĠMc K
Ġcreat ing
Ġext ension
ĠSpe ed
n et
olog ies
o a
ĠAlf red
h ard
in ces
ĠF act
Ġschol ar
Ġfe et
p an
ĠB eg
own ed
E T
ĠJ ay
ĠArch itect
Ġsugg est
oy d
ĠF A
Ġbe aut
Ġfin ish
Ġguitar ist
ĠHou ston
ĠIm perial
Ġvict im
ĠBrazil ian
ur ation
ĠDe an
I s
st and
ig ious
Ġcontribut ed
9 4
Ġoccup ied
8 2
ĠD J
Ġv ice
Ġact s
ĠAlex and
ĠOper ation
Ġfight ing
Ġf uel
ĠSc ient
199 1
ĠArgent ina
ob e
198 0
Ġadv ance
ĠAm endment
Ġl iber
ĠEm peror
ĠO regon
Ġequ al
j an
Ġd iplom
ĠI an
ĠL ate
ĠSh ah
uer to
e ast
ĠCl in
iam i
Ġcontra st
c ussion
ĠM ission
os lav
Ġeff ort
Ġunivers ities
Ġchall eng
ĠC ook
che ll
ĠMississ ippi
Ġp ione
Ġim pr
Ġdom estic
Ġp owers
ĠN aval
ĠDall as
w ich
ĠP un
Ġintern al
Ġstra ight
9 1
Ġc ricketer
ĠMarg aret
Ġcomm ander
Ġfootball ers
Ġjun ior
od ox
ip e
Ġpre par
Ġarrest ed
ĠB ush
Ġpri est
I t
ĠD al
ist a
sp ec
ĠAuthor ity
or us
Ġs ense
ĠH ug
ĠH unt
Ġfl u
Ġelect ronic
Ġprem ier
ch t
Ġch urches
ĠStew art
Ġbe y
Ġconf irmed
es ign
ster dam
P C
Ġa ctions
Ġnar row
ĠP ap
Ġj azz
ĠJu an
ĠN ik
Ġform al
ĠPlay ers
Ð ½
Ġh am
se ason
Ġj urisd
Ġanim al
Ġagric ultural
Ġnick n
8 1
ĠMedal ists
tern al
Ġaud ience
Ġbey ond
Ġcons ult
I V
ĠD ance
ĠF inn
Ġgener ation
ĠMr s
s ki
ĠL in
Ġcont ained
ĠB ed
ĠR an
s ong
Ĩ Ĵ
Ġch ampions
cher s
Ġdec ades
Ġsupport ing
Ġalle ged
Ġmet res
ĠB omb
ĠD a
cept ion
ĠDis ney
8 4
G eneral
if ul
l ong
Ġg rade
Ġm om
ĠF ull
ell o
Ġdescrib es
Ġloc omot
ĠAg ain
e qu
Ġp iece
ĠS ax
ĠAdminist ration
h ire
Ġch o
Ġintro duction
ĠHot el
ĠP C
Ġpro s
Ġs ale
ĠN ative
ra c
' m
n ight
Ġl at
ĠB art
ĠJos Ã©
Ġinst all
Ġearl iest
Ġ7 5
ĠTe le
ĠFrank lin
Ġdeg rees
l ad
ĠC our
Ġam b
Ġmain tained
Ġgl ass
Ġ19 16
ĠN ash
ĠG ary
Ġvis ited
ĠArab ic
ĠS af
ĠK u
ĠBl ues
Ġopp osed
el er
ĠR ow
Ġreturn ing
ĠP as
ĠR ick
p oint
ĠF ive
ug ar
Ġband s
ĠPlay er
oth ing
ris is
isher s
Ġsubs id
M an
Ġmat ter
Ġkill ing
atab ase
Ġb urn
ct ic
Ġdec re
ĠR yan
Ġpro ceed
ĠZ h
Ġdev ice
Ġtr ust
Ġhouse hold
L C
ĠLa ure
Ġattem pts
s et
Ġb oys
Ġst orage
Ġapp arent
Ġ4 2
Ġph ase
ke ep
M ar
Ġa x
Ġl it
iel der
ĠF il
Ġle ct
eg et
bor ough
Ġb an
Ġv ac
ĠV ers
ĠV ice
ĠAnd re
Ġlim it
inem a
Ġp up
ret t
ĠExp ress
ĠBalt imore
ĠW right
ĠT ar
Ġ19 11
ill ing
20 17
ĠUp on
b ishop
Ġem phas
ĠP uerto
ĠL ov
ĠB ox
ĠAust rian
Ġclos ely
aw n
20 18
ming ham
l og
n old
ĠM ans
ĠF urther
Ġc ore
Ġpass es
i w
ĠG ran
ra f
Ġvol unte
h r
ĠAng l
ĠR ound
ĠMark et
Ġw ays
ĠC ru
ĠG rant
Ġcall s
Ġexist ence
Ġcrim inal
Ġem ig
Ġrepresent ative
or ig
198 9
Ġbusiness man
Ã ¥
Ġ rom
Ġsp eech
Ġshort ly
ĠMont real
Ġreb u
Ġhe ight
Ġcor por
Ġconne ction
Ġw ine
Ġs and
Ġsp ot
Ġcompet itions
al ing
ĠL ower
ĠCur rent
ĠA R
struct ure
ĠB ris
ew ay
Ġshow ed
Ġcommission ed
ri x
Ġref lect
Ġpower ful
ĠC hem
ia h
Ġenc oura
Ġse ctions
se a
ang er
opp ing
Ġmic ro
ĠM iami
ĠE nt
ĠO ur
ĠTra ining
u ing
ĠR ot
ĠV ic
Ġs an
Ġext rem
Ġtri ed
Ġdeterm ined
Ġh ired
ĠH om
ĠE ven
ri k
Ġme ant
Ġslight ly
Ġr ival
Ġf ashion
Ġb odies
Ġn ob
ĠAust in
Ġrecogn ition
D F
Ġinst alled
ĠCont in
ĠJ ordan
Ġgrad uate
Ġre action
198 7
Ġobject s
ĠT an
ĠH end
os ite
ĠDon ald
ĠC ultural
ĠDef ense
ĠThom pson
Ġ19 13
Ġplay off
ĠRec ip
ĠMet ro
Ġsynt hes
ĠSt e
idd en
ĠTur k
Ġcerem ony
Ġfranch ise
C ymru
Ġpre fer
Ġ189 0
oy al
Ġcons ecutive
f ather
Ñ Ģ
Ġf ought
Ġpol ic
ĠEn ergy
ĠWay ne
ĠCont rol
ĠDen mark
Ġw aters
th odox
Ġexamp les
ĠBir mingham
f ort
g ers
Ġcomp ilation
Ġup d
Ġpurp oses
el son
ir t
ĠW he
if er
Ġopp osition
Ġc atal
Ġre asons
unc redited
ic ide
Ġdist ributed
Ġstreng th
Ġdevelop ing
ã ĥ
ter m
ĠCommun ications
Ġroad s
Ġen joy
Ġmed als
ĠMalays ia
r un
Ġd ates
ĠF ather
Ġ4 4
ĠCent ury
Ġgu ard
Ġstand s
Ġstar red
ĠAp oll
Ġ ille
ĠF u
Ġon to
Ġ4 8
y ard
ĠP ed
et ime
Ġg all
Ġwrit e
ĠAg ric
Ġdyn asty
Ġr ise
r ons
ĠN BA
rel ated
Ġb irds
Ġtechn iques
ur day
Ġident ity
Ġemploy ees
ad au
ess ions
Ġres igned
Ġdep end
ĠAtl anta
b ane
ĠA ren
Ġm olec
Ġl ot
ĠS ign
Ġd ivers
ĠM ond
ĠL anguage
ĠG ener
ult an
Ġdef ense
ĠAss oci
Ġfoc used
r m
amp ton
Ġsit uation
Ġcaus es
p a
Ġre act
Ġre ject
Ġrece iving
Ġheav ily
un ction
Ġan cest
Ġsh ape
Ġsh all
ĠBl ood
Ġsequ ence
ch ant
ĠR est
ĠV ar
Ġpartn ership
Ġp ron
ĠJ ess
ĠJohn ny
Ġre duce
ĠL ost
row d
Ġliter ary
ition ally
ĠH ous
ĠBelg ium
in er
cont in
ot te
Ġpasseng ers
Ġd ensity
Ġregard ed
cycl op
Ġc as
le vel
Ġpark s
II I
Ġm is
ĠR ap
Ġsc ale
ast ery
ĠRe f
ĠE ss
um in
ĠâĢ ĺ
Ġav oid
Ġfail ure
Ġd a
ĠH orn
ĠRes erve
ĠLim ited
ĠCar ib
Ġh ill
Ġaband oned
Ġt ennis
ist ant
Ġland s
ĠMur ray
Ġregard ing
Ġh its
Ġbro ke
Ġres ear
Ġbene f
usal em
b ox
od ge
ĠEx t
Ġbrief ly
Ġse lect
Ġnot ably
Ġcred ited
ĠCE O
Ġp ieces
ĠTh ough
ke ley
en berg
ĠN ag
ens is
Ġinvol ving
R O
Ġf ram
ĠF ried
ĠPl ant
Ġinc ident
Ã¡ s
an ian
ĠR ain
Ġret ail
ĠComp et
ĠRail road
ĠOffic er
ĠBroadcast ing
ĠP ra
Ġhost s
ĠM aur
Ġv ary
Ġpro ced
ĠCap ital
ĠTown ship
Ġt end
ent ially
ra cy
Ġst ring
ĠOr d
Ġnewsp apers
Ġm and
ĠD igital
Ġhe ard
ĠKel ly
G B
ĠH op
ust er
ĠAd ela
Ġprom ote
Ġdis established
sc ape
Ġs ust
Ġex act
oh n
Ġann iversary
ĠK it
Ġpar allel
p ing
ĠC her
ith m
ĠO ri
Ġad vent
ĠOper a
Ġobserv ed
Ġbusiness es
l ow
Ġspec ifically
Ġcolle cted
ĠOn line
G A
H e
Ġc ru
ĠRob inson
ĠWalk er
Ġsurn ame
N T
Ġb ran
aught ers
ĠWind ows
ĠT ot
ĠC ulture
ĠN iger
ĠCh ang
omm od
ĠO w
Ġhold ing
ran ged
ail and
Ġsom ething
Ġ4 1
ĠKenn edy
ch i
ĠF alls
ĠCamp bell
á ¹
il er
Ġr ivers
ĠCar n
198 8
Ġinflu enced
Ġking dom
D P
Ġs oci
ell ite
ĠDef unct
Ġf er
am ic
W e
ĠG ill
ĠAg ency
ĠT it
le ton
ĠK y
ĠOn ce
Ġim ages
ĠR and
ĠF ern
Ġapp oint
Ġswim ming
ĠU E
av ed
Ġsele ction
Ġhot el
ĠB rew
or ia
ĠC ensus
ĠG ulf
duc ing
ins ula
Ġent rance
Ġphil osophy
Ġp ed
Ġper cussion
Ġsett le
Ġattempt ed
ĠAnd y
Ġestablish ment
ĠOrgan ization
ĠB ron
Ġclass ic
Ġocc as
ĠGra ham
ĠStand ard
ific ations
ĠEd ition
ĠPal ace
Ġinstr uments
ĠCom b
Ġcompet e
Ġmy th
Ġadapt ation
ĠC atal
az a
Ġdesign er
Ġmusic ians
ĠAcadem ic
iction ary
pro fit
ĠB rist
Ġ( ).
ĠJ ose
ter ed
ĠIn s
Ġcop y
um a
Ġout put
st ead
Ġd ig
ĠAm az
ĠJer ry
het ic
ĠM ind
ig e
Ġro w
ick s
Ġcomb ination
Ġentire ly
or ial
Ġgreat est
Ġspok en
at ures
be an
ĠOrig inally
it ic
Ġres idence
ograph s
ĠMit chell
Ġt ank
ĠY ug
ĠJer usalem
ĠAdela ide
Ġhe at
Ġdo ctor
Ġsched uled
ĠBroad way
Ġt ells
ĠFre edom
Ġfrequ ency
Ġproduc ing
8 7
res ents
ren e
Ġexp ed
ĠMed icine
ĠPrim ary
Ġt ack
ĠV erm
Ġfund s
ĠJim my
Ġven ue
b oy
amb ig
ĠW ard
ĠU nt
Ġbeg in
ĠBen j
ĠSev en
Ġconstitu ency
Ġpass ing
c ome
Ġposs ibly
ĠSat urday
Ġhum ans
Ġs ail
Ġf aith
ur u
iv ated
ĠCh ampion
Ġcour ts
ĠR ey
Ġ15 0
ĠTro phy
Ä «
Ġan ime
og ether
P h
ĠThe n
Ġ6 5
Ġcover age
Ġz one
Ġfund ing
Ġm ent
ĠL an
ĠL ank
ĠE qu
Ġcar ry
Ñ ģ
Ġm ind
ĠV ienn
Ġres istance
20 19
Ġneigh bour
Ġexhib ition
a fter
ĠH ig
Ġinf ra
f ish
Ġp rice
ĠB apt
ĠD oc
ĠV inc
Ġvis ual
ras ka
Ġinvestig ation
l ades
Ġy our
ĠFI FA
Ġl iqu
ĠS ud
ĠL arry
ag g
Ġcon ce
ĠD aily
ik i
Ġtyp ical
Ġpoet ry
Ġf ishing
Ġ3 9
ĠHol land
Ġcorn er
ĠP ay
Ġor chestra
ĠPh ot
Ġpaint ing
w all
ro ke
Ġcon vent
s er
ĠG a
Ġcon sequ
ĠCons ervation
Ġaud io
Ġbel ief
Ġexpress ed
Ġm obile
ĠM ix
Ġch oice
ĠRich mond
Ġvot ed
Ġe mp
os ure
ann els
Ġinterp ret
ĠTai wan
ic it
Ġed ge
og le
Ġus er
Ġag ency
p o
ĠM ap
Ġre ign
Ġact ual
Ġnorth west
ĠVictor ian
Ġcandid ates
ĠC hen
Ġfin ishing
com mun
Ġ190 6
ol ph
Ġcy cle
ĠP ear
ĠR ace
h aps
ell i
Ġtw elve
former ly
b al
ĠS A
ĠA y
Ġfl at
rop s
Ġarch ae
ĠIsrael i
ĠCost a
e as
f riend
ic ts
Ġprofess ion
Ġb udget
ĠE mer
ard o
Ġfound ation
Ġweek ly
ĠTh ailand
Ġrep resents
Ġcrit ics
ure au
Ġrequ est
Ġread ing
ish ops
197 0
ĠSing h
Ġthe ater
re leased
ĠSt ars
ĠMor gan
ĠK a
Ġfact ory
Ġdec or
Ġinv asion
ĠEconom ic
ĠCh all
Ġres erve
Ġsy nd
ĠVill age
? "
E D
ĠJ ason
uc ks
Ġsound track
M P
t hen
ap es
Ġex erc
Ġpres erv
Ġdoc uments
Ġpers ons
ĠTam il
ĠComp anies
ĠBer keley
ĠP A
Ġground s
W A
ĠR oc
ĠL P
Ġinc ome
ĠBang lades
ĠW a
ene z
Ġ190 3
Ġcl in
Ġwe alth
Ġdev ices
ĠG on
ĠSe ction
Ġchampionship s
f e
i ac
ĠCh art
Ġus ers
Ġco ordin
ĠBr ight
ĠRecip ients
Ġa part
ur i
ĠBuff alo
Ġt ick
Ġw eather
Ġb ond
Ġd ry
ĠW ol
ĠCon n
Ġacc ommod
T O
uk i
Ġleg end
Ġf resh
ĠNov a
Ġpo em
Ġactiv ist
ĠNaz i
l ock
Ġs ession
ĠC hel
ug u
Ġsur g
Ġtra v
ather ine
Ġrul ed
Ġp ool
Ġclass ified
Ġmembers hip
ĠBrook lyn
Ġhap pen
v ements
om ing
ann y
ĠAm sterdam
Ġun able
ut ation
os al
ten ance
ĠHe b
Ġro utes
ful ly
ĠElect ric
al ign
Ġmot ion
Eng land
Ġa id
ĠP ack
ĠThe ater
ĠW oman
est yle
ĠTh us
Ġapp eal
Ġcolon ial
Ġult imately
as m
Ġre ality
ĠMic hel
p ower
ĠG ray
Ġit ems
Ġsent enced
ĠSar ah
ĠJ azz
ant age
Ġpat ients
Ġsuccessful ly
Ġ ere
ĠM other
el ess
ĠRang ers
ĠNeb raska
ab y
Ġpr ime
Ġlo an
uth ors
Ġfact ors
ĠCons ervative
Ġimpro ve
Ġcompon ents
S U
ĠP ast
id ay
Ġ190 5
Ġimport ance
ĠPet ers
ĠAll iance
un ch
Ġ5 5
ĠP a
ĠP age
and o
Ġdef ensive
Ġconv icted
Ġlegisl ation
ĠCharl ie
ĠHamp shire
B I
ĠH old
Ġco oper
ĠHaw ai
ĠMu ham
b i
ĠN i
is ode
ĠCarl os
ĠSeat tle
h ill
Ġ4 3
ĠOr thodox
Ġlicens ed
x ts
ay an
oc al
Ġide as
Ġd oll
ĠUk raine
re hens
ĠM A
Ġpl ot
du ctions
Ġneg ative
Ġse em
Ġcont rolled
Ġkeyboard s
ĠC rim
Ġm arg
oc ol
ĠV ik
pl es
198 6
Ġregist ered
Ġw ound
Ġun iform
app y
ĠP sych
ĠD yn
az ines
Ġrest ored
Ġregular ly
clus ion
f eld
ĠCom mer
go ing
Ġc rown
Ġf lying
ut ions
Ġdiv isions
ĠProfess ional
d oor
ĠAl t
Ġso le
er b
an ia
ĠC BS
Ġl aid
Ġro of
Ġtra ined
ĠTreat ies
Ġa er
ud i
Ġref used
as ka
ĠC A
Ġre in
ak ed
Ġpurch ase
Ġal gor
oc racy
c oh
ĠAn na
inc orporated
Ġopp osite
ĠUt ah
ĠD ub
ĠSt eel
ĠL am
Ġan s
Ġp itch
ĠC ass
Ġent ertain
Ġcontribut ions
ĠB aker
Ġg ar
ib l
Ġis ol
Ġmed ium
ĠTra il
Ġrail road
Ġimpro ved
in ts
ark s
ĠBenj amin
t own
Ġopp on
ĠEv ans
ĠKe ith
id el
ĠIn vest
p ine
ĠH it
oth y
Ġresp ond
A ll
r ates
Ġcover ing
ĠH um
Ġord ers
ĠAren a
I nd
R C
ĠA ber
ĠC inc
Ġass ess
Ġsouth west
Ġbroadcast ing
Ġsurv ived
Ġcollabor ation
ĠPriv ate
ĠBris bane
Ġm el
Ġto ward
Ġres c
Ġche ck
Ġresident ial
it als
ĠC ricket
ict ions
ĠCub a
ĠMunicip al
ĠE lement
Ġgrad u
ĠB ull
th a
ĠLe ad
Ġcaus ing
ĠMunicip ality
Ġrequire ments
Ġimpr ison
ĠCarib bean
ĠUE FA
ambig uation
h arm
Ġin stru
Ġre aching
Ġover l
Ġ190 9
Ġsom ew
ĠYug oslav
ĠS aints
ĠN ever
Ġv eget
ex ual
Ġlong est
ĠHind u
M ay
ĠM ess
Ġre ar
ĠPro te
198 4
ĠSal v
n ce
Ġon es
Ġ190 1
Ġsepar ated
h um
u in
Ġs ought
ĠS oul
Ġv ide
Ġsc enes
ĠSe ason
Ġoffer ing
ĠCat hedral
ĠGri ff
Ġadv oc
inn ati
Ġstart s
Ġrepl acing
Ġeas ily
Ġb ill
ĠS outheast
ĠR acing
ĠF itz
ew ork
Ġen emy
rib ed
Ġcoast al
ĠTer ry
it ars
is ations
198 5
Ġ190 2
Ġaffili ated
od a
Ġqu ite
Ġbott om
Ġbran ches
Ġh unt
Ġv eter
ph a
ĠProt ected
M L
att an
so ft
Ġsup erv
ĠAd ams
Ġsk i
ĠApoll o
ĠA T
Ġsub stant
Sc ot
ĠVienn a
ĠM aj
ĠF rid
Ġpresident ial
ĠUn it
arg o
Ġdesc end
ĠDep uty
l on
z h
Ġf ixed
ĠF em
Ġann ually
ĠComp uter
Ġexper ien
ob a
Ġcon qu
rain ian
ĠGre ater
Ġbehav ior
Ġb rain
ĠK az
Ġgood s
le ans
ĠP ir
ĠB urg
Ġsevent h
op ter
ĠMarsh all
at ur
en burg
Ġreg iment
or er
Ġl ists
ph one
ĠKn ow
ĠA ction
Ġteacher s
Ġs ell
Ġch annels
Ġdesign s
S W
h ing
t ure
Ġf elt
Ġg ain
Ġro oms
20 20
Ġpri ze
Ġkil omet
ĠL ane
Ġview s
ĠArk ansas
ĠCinc innati
a ire
ĠG un
ar at
ĠT ower
Ġcomm emor
Ġrest rict
Ġm ilit
ĠP ad
Ġso il
N C
ĠS R
Ġ5 1
Ġeng ines
Ġref uge
e ch
Ġd ie
ot es
Ġprocess es
pect ive
ĠM ack
ĠK ill
Ġcomm itted
Ġvis itors
Ġneg ot
ĠDer by
Ġ ri
Ġ vert
ĠT on
Ġal ign
Ġcom ed
ĠCh amber
ĠHung arian
B M
ĠC P
ĠF el
Ġfilm ed
ÃŃ n
Ġshow ing
Y ou
ĠPh oen
Ġrev olution
Ġsol ution
igg est
k ee
m ith
ĠN elson
ĠSp irit
Ġcor rect
I P
ĠH as
ĠSystem s
ĠMuham mad
n ers
or row
Ġag greg
Ġfor ests
ĠBrist ol
% ,
es c
ge bra
Ġpl us
ĠMar ie
ien cy
Ġdiv or
Ġfle et
E A
Ġar med
Ġstri ke
N e
op al
Ġrequ ires
Ġelect ron
forman ce
ĠClass ic
Ġsecret ary
ĠR abb
Ġlead s
ĠEn cyclop
Ġexecut ed
Ġ Ä
ra v
ĠPro p
Ġsk ills
Ġaff ected
Ġcle an
Ġ190 4
Ġele ctoral
ann e
ĠGu y
Ġtechn ique
Ġrepe ated
ĠL l
ĠN av
Ġabs or
Ġw alls
ot an
ens on
Ġdefin ition
' re
le cted
Ġin stitution
Ġp hen
ĠP rom
Ã© t
ĠL ud
Ġac oustic
aw are
196 8
ĠR ivers
ran e
du cted
ĠOr leans
Ġdeterm ine
Ġd og
ĠR ub
Ġacc used
l ie
Ġs now
Ġc ards
ad i
ĠK an
ĠMov ement
T S
Ã ´
ĠP erson
ĠR ud
Ġr hy
ater n
ĠCo le
Ġappear ing
ĠA er
Ã© s
Ġtrans ition
ĠRes ources
Ġprot ected
Ã¶ r
ĠJon athan
ĠPat ri
Ġter ror
Ġd im
as ure
Ġh a
os opher
ant ly
oun ce
ĠAthlet ics
O N
Ġth ink
ĠO range
Ġr ating
Ġk id
Ġother wise
Ġdiffer ence
ĠTr inity
ob i
com p
ĠFin land
ĠMod el
Ġceleb rated
ĠSo ft
E x
ĠL ad
Ġplatform s
m at
ĠJ enn
ĠSc out
Ġhom es
D C
Ġatt ract
Ġmed icine
Ġdet ails
Ġf ine
Ġvol umes
H z
Ġin sc
ĠR y
ĠN umber
ot hes
ĠGl en
198 3
i able
ĠF ight
Ġparticip ate
Ġmanufact uring
ĠIran ian
ĠS ultan
Ġexpress ion
Ġbound ary
Ġ5 2
Ġatt ached
ĠCommun ist
Ġinj ured
Ġcharg ed
Scot land
/ /
Ġin form
ĠM all
Ġprov ed
Ġsuccess or
Ġst ret
Ġal one
oph one
om ic
ĠD og
ĠG iants
ĠCon struction
Ġagric ulture
Ġb iggest
Ġmed ieval
ĠMe an
197 9
Ġviol ence
osaur us
ĠP le
ĠAn cient
ã ģ
Ġb atter
Ġinter ior
ĠM i
Ġre nd
ab ad
int end
Ġjoin ing
Ġcharg es
force ment
Ġrough ly
ĠR io
ul um
ĠGo ogle
c ious
Ġb ridges
Ġcon cer
Ġdo ing
ĠEx pl
ar us
ĠG rade
Ġlic ense
ĠColon el
ĠR ules
Ġsing ing
ist ical
Ġ188 0
Ġbo at
c i
m aster
Ġpubl ishing
Ġinvest ment
ĠC ond
Ġm art
ĠD NA
ĠG et
Ġcon vention
Ġrele g
Ġattack ed
ĠUr ban
al ia
ĠC elt
dis ambiguation
Ġf est
Ġd owntown
il k
ĠI C
Ġorgan isation
ĠMethod ist
d o
ill o
Ġindic ate
ĠCra ig
p re
ra it
ĠCh airman
Ġcol our
y les
Ġbank s
Ġsignificant ly
ĠH ud
Ġ4 6
ĠS i
Ġd uties
Ġsc heme
rap y
Ġchap ter
Ġd ies
ĠK ap
ook ing
Ġstand ing
r ating
ĠT ak
ĠR al
ĠW et
se ud
Ġinter ests
ĠYork shire
Ġown ership
Ġbelie ve
Ġf ile
ĠS ite
Ġm anga
Ġrun ner
ĠAthlet ic
ĠBanglades h
h ost
ĠS id
Ġshe l
Ġinv ent
ĠTrans l
ed ing
or st
ch o
Ġcirc um
Ä ĥ
Ġf an
Ġsqu adron
h our
ol ar
Ġprison ers
d d
l ater
st ances
Ġch air
Ġw ave
et a
ĠK ild
Ġr ich
Ġqual ified
Ġreplace ment
Ġjurisd iction
Ġt ry
or ous
ĠIs a
eng er
ĠProt est
ĠM L
av an
ack s
196 0
Ġdem olished
ĠC art
Ġn or
Ġst orm
ort on
ĠCh ron
ur ers
ĠU C
ĠSt u
198 1
ĠPri x
l ig
uc le
re nd
Ġres ign
Ġrel ative
ro ck
Ġg ang
Ġal leg
op les
ĠMan h
Ġpar am
Ġmag azines
f inal
ro v
ĠC er
ub b
Ġinn ov
ĠT ob
Ġdef end
Ġ190 7
Ġinit i
Ñ Ĥ
Ġd uty
Ġk ick
Ġfl ows
Ġrestaur ant
oc ation
ĠCh and
Ġdem and
Ġb en
ĠD raft
Ġdi agn
ĠSecond ary
Ġfind s
ĠStan ley
ĠLeb an
m osp
ĠâĢ ł
ĠSm all
Ġdeliver ed
. ),
s a
Ġm ist
Ġrec re
Ġret ained
198 2
Ġlink ed
M C
Ġmin ing
197 4
Ġb on
ch ang
ab ilities
ence ment
Ġext ens
Ġ187 0
Ġf iled
oc ene
Ġstat ement
bass ador
m ate
ĠD ays
ĠL uther
ĠG round
Ġdesc ription
Ġfre edom
St ar
Ġut il
Ġpict ure
on ian
et ry
let t
Ġown ers
Ġesc ape
Ð¾ Ð
ĠM ason
Ġser ial
ĠL ear
us hed
ĠJ ama
Ġdis app
Ġmount ains
ĠC old
Ġex ists
ĠAnt ar
Ġcred its
ĠMov ie
Ġt or
Ġcon text
ĠK ra
Ġpl ate
ĠEx per
Ġrev ers
Ġposs ess
ĠTerrit ory
ĠS now
Ġm outh
Ġcan cell
w ig
Ġspirit ual
ĠB eck
ĠK o
ff ield
Ġen l
Ġcross ing
M arch
ĠStev en
! "
st ad
ol t
ĠKn ights
Ġg rass
Ġdemon str
ĠTig ers
: //
u ous
ĠL ib
Ġbe ach
ĠHun ter
ĠL ions
iz on
amp s
ĠSer ge
ĠAdd itionally
ĠSerb ia
as a
ĠAl ice
ĠUk rainian
riev ed
ĠM es
Ġfl o
197 2
O ct
u ction
em e
ĠMar vel
ĠStud ents
ĠÃ Ĺ
Ġsubject s
ĠMain e
Ġd aughters
ĠB enn
ĠF ellow
Ġst ood
ĠN BC
ĠV enez
eg as
Ġsold ier
r ong
as hed
ĠD ennis
197 8
Ġconc rete
ĠIm m
Ġrat io
ĠR ena
Ġass umed
Ġpop ulations
ĠTur key
ĠDrag on
Ġpopular ity
ĠL ock
ĠG rad
Ġm emorial
am an
Ġinv ited
z o
Ġcommun ication
Ġren ew
E P
a ired
Ġdeath s
Ġdi ocese
abl ed
ament al
Ġprot est
ĠS ay
Ġd ating
Ġpro file
ĠDef ence
ĠBarb ara
Ġc ool
Ġc able
aj a
Ġdr iving
R I
Ġm ort
ol o
3 00
J an
ĠB ureau
ran ean
Ġwhe el
d r
ĠMar s
Ġ5 4
Ġfact or
Ġexist ed
Ġtest ing
Ġop in
ĠRhe oli
ĠE SP
ĠT as
Ġdec ade
ĠN ature
od ore
lo ad
ĠPers ian
Ġc rowd
ĠSt ein
ĠAl aska
Ġform ally
Ġpubl isher
ĠPier re
Ġs elling
Ġp ull
Ġsk in
Ġcoach ing
Ġ !
ĠF r
ov iÄĩ
Ġsh ares
ash i
Ġmod ified
l anguage
Ġ1 20
ĠCroat ia
Ġgu itars
Ġob tain
Ġprote in
edd ing
ĠK on
Ġbro ken
ĠElement ary
ĠC ob
ĠB M
oc a
Ġ4 7
197 3
Ġsat isf
ryst al
Ġseg ment
Ġc ous
Ġf ly
ĠGu ine
197 1
Ġcost s
Ġtransport ation
e o
Ã ł
st an
ĠAd v
Ġadvert ising
st own
Ġag o
ĠHung ary
Ġg arden
ĠUn like
ĠLiter ature
B E
C an
d y
196 7
c ons
ĠRoman ian
Ġan ch
ĠPr incip
Ġpract ices
Ġdra f
Ġterrit ories
Ġstre ets
v ia
Ġt all
Ġs ed
Ġev olution
F or
ĠH ugh
Ġe ye
ĠK ath
ĠAv iation
ro c
ĠI v
ter ior
Ġapp rop
Ġmon ument
urs ing
ĠBa iley
Ġaspect s
w here
Ġtra il
Ġpol y
Ġdiffer ences
ĠBr uns
ĠBapt ist
ĠA ld
Ġher itage
Ġp apers
Ġpre ced
Ġacc ur
Ġc old
ĠLe eds
Ġass embly
Ġsports people
Ġshoot ing
ĠAbb ey
Ġt rying
Ġf ra
Ġam ateur
Ġran king
Ġinst ance
Ġaccomp an
ĠAngl ican
ic on
Ġass ass
wh ile
s uch
Ġw atch
Ġag encies
197 6
Ġh air
Ġmark ets
ĠUnt il
it ter
Ġ1 000
ĠB ass
Ġdescrib e
ĠPal est
Ġcred it
ĠS S
ĠL ith
Ġeng aged
ĠS ide
Ġcon cluded
ĠV el
aw ay
ĠHar old
Ġinflu ential
e enth
ic ate
ĠA round
ĠC ou
ĠD ictionary
Ġun us
Ġadm itted
Ġextrem ely
rehens ive
Ġpro hib
ĠC ode
am o
ĠN eg
Ã© n
ran o
Ġcall ing
ĠCar ter
Ã «
Ġw orth
are st
Ġpolit icians
Ġ189 8
c ount
Ġa uthors
Ġb at
ĠS r
Ġin fl
Ġd ub
ol id
Ġfav our
ĠCam er
Ġn et
ĠW as
ix on
ĠKir k
ĠProte ction
p at
Ġf oss
ĠM eg
Ġal coh
ĠHer z
Ġt ail
is ition
Ġh ang
ĠV iew
ĠPark s
ĠCont emporary
U K
Ġb ird
ĠN ation
Ġplan et
m und
Ġint elligence
ĠDr ive
Ġdirect ors
ĠRheoli adau
b ow
in ction
Ġte en
Ġin ducted
Ġbro wn
app ing
Ġcirc uit
ĠBut ler
f ielder
ĠC ov
Ġn ations
ĠShe ffield
ĠPol icy
196 9
Ġsh op
ens es
ĠP ract
em en
ĠDen ver
Ġarg ued
Ġoccasion ally
Ġpolic ies
Ġmain tenance
Ġsever e
ĠColumb us
E M
at che
ot ype
ĠE ug
Ġde leg
Ġsecond s
iv an
ĠY ank
ĠFl ight
Ġille gal
E d
ĠS C
ĠD ra
ĠSt orm
Ġbu y
Ġexcept ion
grad uate
ĠNich olas
f olk
iss ue
Ġass ault
Ġval id
ĠBruns wick
ĠB ath
ĠF ig
Ġequip ped
Ġb r
Ġn om
Ġst ages
ab et
Ġf aced
ĠR ight
197 5
Ġcomplet ion
Ġcateg ories
ĠT ourn
claim ed
L P
ro t
Ġth row
ĠBrook s
Ġre un
Ġland ing
r ity
Ġw arn
ur ring
Ġcar rying
Ġmom ent
Ġm ile
Ġjust ice
ĠBul gar
Ġinstrument al
N ov
o om
p m
el lect
ĠJ oy
ĠV I
Ġar ranged
Ġexper t
J une
ĠD od
ĠSt ri
ĠIndones ia
ĠP ant
Ġoff ensive
Ġâ ĨĴ
u y
Ġrel ation
wh o
ĠP rad
Ġph r
Ã¼ n
Ġoccup ation
Ġd ual
ĠB ranch
ane ous
ĠHer bert
ĠGab ri
O C
f ly
at ically
Ġse ems
Ġsh ut
Ġhead ed
p erson
ĠG ang
ĠRal ph
ug s
olle y
ĠRoman ia
ĠArmen ian
Ġportray ed
song writer
20 21
Ġcondu ctor
Ġmeas ures
Ġopportun ity
ĠVenez uel
ĠFran ces
Ġsugg ests
ĠW W
att ers
ows ki
ĠSen ator
Ġprep ared
it ime
Ġs un
ra ce
Ġcon stitution
ĠSt re
ĠArt icle
or p
Ġpublic ations
Ġgrad es
Ġassist ance
O n
h us
ĠR av
ĠG ot
ri pts
Ġtrans mission
Ġclass ification
Ġdel ay
ĠI van
ra ham
Ġinc orpor
Ġdr ummer
uck land
Ġhon our
Ġmarket ing
Ġuns uccess
Ġe gg
ĠJos h
Ġpen al
p ent
ĠB ud
Ġrel ocated
Ġrhy thm
ĠAl ong
cent er
cast le
Ġcompon ent
ĠSt art
ĠRob in
E l
Ġdefeat ing
Eng lish
st yle
ĠL iving
ul us
Ġpaint ings
ĠFac ulty
E E
ĠV as
Ġex ternal
ĠWall ace
f are
w inning
w right
ĠP y
ĠP ul
pp ing
Ġj ump
ĠPro ductions
ĠBob by
ĠClark e
Ġliqu id
u h
ind ing
Ġman usc
ĠPr ison
196 5
R S
ĠWar ren
Ġfin als
197 7
ĠSing les
Ġimplement ation
ĠConf eder
Ġj ourney
Ġmod e
ĠStud y
Ġinfra structure
c ia
hip s
Ġbe ar
Ġpl ane
ĠFin ancial
ĠBudd hist
ĠMicro soft
Ġexped ition
Ġexperien ced
al g
ĠP av
ĠR ico
Ġdep ending
Ġ189 5
og a
ĠZ one
ĠAnn ual
il st
ĠK um
Ġmov ements
ĠUnivers al
Ġlin ks
ĠBeng al
ĠH orse
Ġexpl os
j ab
Ġf rag
Ġn aval
ub le
hemat ical
ĠVinc ent
J u
in ian
ĠP ow
Ġl akes
Ġg olf
Ġmiss ions
Ġspe ak
Ġconcern s
ĠPhoen ix
m ont
Ġs ax
ĠS F
ĠBen ed
ĠS ox
ĠB elf
ĠH em
Ġper haps
Ġopt ion
Ġthous ands
Ġreject ed
i ere
n on
ĠBr un
Ġnorm ally
ĠSerb ian
ĠManh attan
V ID
ĠS alt
Ġgro wn
Ġmin imum
Ġtem porary
ĠD iamond
Ġsc ope
Ġher self
Ġ189 9
ĠNe il
ĠBi ography
ĠN HL
ia st
Ġdeploy ed
Ġere cted
h and
Ġt ropical
Ġunder standing
Ġmat hematics
R e
om on
Ġev al
Ġinvol ves
ript ions
Ġsat ellite
m aker
ĠS ask
ro duction
Ġor ient
Ġsp aces
m ill
t op
Ġnot e
Ġform ula
Ġvide os
Ġpro port
Ġmix ing
ct s
Ġsur f
Ġ186 0
om pl
Ġte xts
ach i
Ġdep th
ĠPort land
Ġcapt ure
Ġsuper ior
c alled
Ġw orship
Ġcon j
ĠChap ter
ĠMach ine
m i
ã Ĥ
Ġf al
ĠP il
ĠPer formance
Ġprocess ing
ĠVerm ont
ĠR oth
Ġn av
Ġr ates
ĠShe l
Ġeven ing
ĠTurn er
ĠR at
ik o
uss ian
Ġcr imes
Ã¨ re
Ġw rest
am ents
Ġadv is
Ġadv antage
Ġscient ist
Ġpremier ed
s ec
ip er
ĠUl t
ing en
Ġat mosp
ab il
av or
Ġmon arch
ĠStud io
ĠHeb rew
ĠA uckland
ĠN I
Ġsupport s
Ġrepresent ation
Ġw arm
ĠMag ic
ĠCharl otte
Ġthe at
ĠExp atriate
g ate
Ġg ram
Ġte ach
Ġuse ful
Ġperiod s
194 5
Ġrespons ibility
Ġdemon st
Ġar c
ĠSh a
ann on
ĠWar ner
Ġd in
ĠD ame
Ġste am
ĠS occer
ul ating
ang erous
Ġme ets
Ġadd ing
ĠBos nia
Ġre pr
Ġg uns
iz er
Ġtri p
Ġtrib es
ĠM ig
Ġ5 6
Ġatt orney
ĠMon te
196 6
ĠMag n
Ġdam aged
ĠS ig
ĠB od
ĠN orm
ĠFin ance
ĠPict ures
y gen
Ġcont roll
ors es
Ð º
Ġdis contin
Ġunder ground
Ġdist inguished
Ġperson ality
Ġmanufact urer
Ġphil osopher
O M
Ġb ed
ut ton
Ġoper ational
Ġdo or
Ġne ut
Ġc ited
Ġm ir
ov o
Ġrele ases
iter ranean
Ġsubsid iary
Ġch ose
ey er
ĠCl ay
ĠT u
Ġl ingu
ge on
Ġwe ak
Ġdra wn
ĠOb last
Ġpercent age
Ġconcent ration
Ġcap able
ĠNot able
min ster
c m
ĠS ie
ĠE ight
ud es
Ġex cell
Ġcorpor ate
H A
Ġm ac
ĠH erman
ac on
Ġdis miss
Ġreturn s
Ġ189 6
ĠGh ost
p es
ur st
ric ted
Ġrec ru
ĠEx change
Ġterm inal
Ġmerg er
ĠHud son
m ates
ĠF ighter
Ġun f
ĠJud ge
ĠRet urn
Ġrebu ilt
w ald
er ic
en ic
ĠM ick
ĠO cc
Ġaff ect
ĠStu art
r ors
ab ul
Ġcl imb
ĠAc cess
ĠFle et
or ic
ĠE sp
ele ction
ĠBulgar ia
f oot
ĠCroat ian
Ã ¦
st ers
ĠP ink
ac re
ip h
ster y
ĠPhil osophy
Ġchang ing
" ;
ĠA FL
ok ing
Ġnetwork s
Ġt ribut
sc ar
ĠB ird
Ġpr inted
Ġm ine
Ġl as
id o
ĠHe avy
ĠWith in
Ġentertain ment
ĠAt hens
B L
Ġ5 3
ĠColomb ia
ĠFriend s
Ġf ired
Ġm ob
Ġd ated
ĠF ish
hem atic
Ġcharacter istics
Ġens ure
Ġsomew hat
Ġconcer ts
ĠN am
Ġsw it
Ġachie ve
Ġquest ions
Ġin put
ol y
ĠW restling
Ġsurround ed
ĠRog ers
I M
ĠMer c
ĠPubl ishers
ĠP att
ig o
Ġdraf ted
re ck
Ġse ed
medi ate
ĠAndrew s
Ġdial ect
ĠPhill ips
Comm encement
b rid
l ar
Ġf alls
ĠC ad
Ġm ental
Ġorgan isations
Ġproduc es
Ġsusp ended
op t
Ġ6 6
Ġform ing
Ġpr inc
ific ial
Ġweap on
De cember
en cer
Ġal gebra
Ġle agues
Ġce ased
ac le
Ġdis pl
Ġterm inus
ĠStr ateg
m od
Ã ª
Ġw ides
Ġ189 1
Ġdebut ed
Ġarr ival
Ġt ort
Ġto ols
ach t
Ġaff airs
alle st
ĠHarris on
or o
Ġf ruit
ĠG oth
te enth
Ġhel ic
Ġinters ection
ĠTourn ament
ir k
ot ton
ĠSt ories
rupt ion
T E
Ġn one
Ġcon fer
ĠCO VID
t rans
Ġc aught
ĠCh ad
ĠWork ers
p read
v ant
Ġloc ally
Ġpo ems
Ġpred omin
L a
M y
ĠN ott
Ġ188 8
Ġsamp le
Ġsettle ments
Ġt ur
ĠDe ep
ĠIs s
Ġcount ies
ĠCar m
196 4
Ġ ign
ur rent
ĠF eat
ĠIn it
Ġindic ates
ĠNev ada
i ors
Å Ħ
Ġg ender
Ġtrib e
Ġinteg rated
enn ial
ĠMed iterranean
ĠBab y
Ġpeak ed
id ad
lev ard
Ġtem por
Ġsuff icient
ĠSur vey
p op
ĠS P
ĠM uch
ĠW es
Ġassoci ate
Ġelev ation
m pt
ĠS et
ĠD rama
ĠG rey
Ġas c
od ia
Ġ188 4
ĠIndust rial
in ate
ĠB av
ĠH ab
cl osed
ah a
che st
Ġdep os
ĠSus an
l s
Ġg etting
Ġv ic
ĠPar ish
Ġ25 0
Ġbank rupt
Ġlook ing
ĠBelg ian
Ġathlet ics
ĠL is
ĠO il
Ġcont ribution
Ġrem ix
Ġrece pt
Ġsupp osed
ĠEncyclop edia
it is
Ġaccount s
ĠArgent ine
Ġare na
ĠSh aw
ĠSp rings
ĠEd die
Ġmet ers
Ġcous in
ĠP rice
rib ute
Ġmon astery
Ġchild hood
hel m
c over
Ġa ware
et ies
ĠN ear
ru ction
ĠTechn ical
ĠCommission er
Ġsu icide
ar th
Ġf old
Ġf illed
ĠT un
Ġst ating
Ġso ap
Ġstop ped
ĠĠĠĠĠĠĠĠ ĠĠĠĠĠĠĠĠ
ĠCirc le
Å ¾
ĠB ert
ĠÃ ģ
ĠClin ton
. âĢĿ
d in
r int
Ġacc ompl
ĠArch bishop
ĠOut standing
Ġw itness
ry pt
com ing
gress ive
Ġh ip
ang le
Ġ188 5
ĠArch ive
ĠD est
ant ine
ĠChe ster
Ġsurv iving
z i
ĠA ctor
ĠD ata
ĠTh under
Ġ189 2
Ġvis ible
Ġtouch down
Ġe ighth
Ġwh y
Ġ18 40
Ġres emb
Ġemer gency
Ġexperiment al
ĠCelt ic
Ġt unnel
ĠL amb
ĠJ a
ĠY ale
Ġbut ter
Ġdom ain
Ġarrang ement
Ġv ow
az e
ĠMil an
ĠLeon ard
ĠESP N
c are
Ġc up
ĠB ear
ĠF if
Ġg rant
20 22
Ġvar iant
Ġinvol vement
ĠDel hi
Ġcontrovers ial
Ġf il
ĠT erm
Ġth ick
ĠY e
ĠInter view
aval ry
Ġdon ated
ĠRem ix
ĠBelf ast
Ġs ave
Ġn ucle
ĠN et
Ġy ield
Ġind igenous
Ju ly
b ie
Ġwhere as
Ġ189 4
Ġcontinu ous
Ġstrateg y
ĠFrid ay
Ġg iant
ĠTh or
Ġinj uries
Ġjun ction
onym ous
ĠTurk ish
F B
Ġc risis
Ġ5 7
vers e
ĠChristian ity
Ġin her
ĠS ah
ĠHe in
ric ane
Ġt ram
in ations
ĠC row
le ft
ĠB achelor
ok a
ĠAn im
Ġcompet itive
Ġmanufact ured
if ies
Ġ188 9
ĠSim ilar
ĠOl iver
ĠH ond
iv ation
ov ina
ok er
ex p
Ġbene fit
esign ated
i op
z es
ĠC ase
ĠL ion
ĠN C
Ġcon gress
Ġwood en
R L
ĠR AF
Ġl ock
ĠO pp
ĠIn v
ĠCr ime
J ohn
ĠP in
Ġaccompan ied
ĠT ogether
Ġm anner
ĠE vent
Ġnot hing
ĠBar n
Ġfem ales
Ġhonor ary
ĠP ic
ĠTr ump
ĠSocial ist
GB T
ĠH ope
ak ia
Ġsign s
Ġconsider able
â ĪĴ
and al
ĠRo om
Ġz ero
Ġbi ography
orig inal
A pril
o ons
u is
end ar
Ġass ign
Ġmon itor
Ġel der
Ġdecl ined
ĠCub an
at ra
ĠH av
ĠW alt
Ġdep uty
Ġten ure
ĠTax a
C ol
e als
Ġp ric
ĠF uture
id ency
ĠAr c
Ġsw itch
ĠAp ost
bu ild
b ody
ĠF ace
Ġg ather
Ġro ut
Ġtrans form
Ġprov inces
Ġsome one
au ge
ĠArch ae
Ġa head
ĠN ad
Ġthe rm
Ġm ales
Ġg ets
Ġdr ivers
Ġcritic ized
ĠIndust ry
Ġin struction
ĠT ib
ĠC ox
Ġre nt
ĠNor folk
Ġpred ecess
Ġcritic ism
Ġaffili ate
Ġincreasing ly
. :
ĠM ale
us ing
ĠAb raham
A s
E N
h ai
Ġd ress
os y
duc er
' ll
Ġp and
ĠW here
Ġart istic
A ugust
Ġw at
ĠH ann
Ġent ering
ĠDou ble
e or
as i
ĠM ath
ir ation
ot ion
her s
Ġdec line
Ġlast ed
Ġpreserv ed
a uthor
Ġb rig
ĠNew castle
ĠChrist ians
Ġbon us
Oct ober
ol ition
ĠF un
ĠScot ia
Ġstay ed
Ġ id
er ia
de f
Ġjud ges
ĠOrig inal
ĠWeb site
ĠWrit ers
ĠGuine a
ĠB ey
em pt
Ġab b
ĠZ e
vious ly
Ġtradition ally
Ġsurg ery
h aus
Ġg ene
Ġmod er
ĠPr inc
Ġhead s
ĠStud ent
Ġsent ence
ĠDire ct
ĠPun jab
Ġst able
ĠK il
Ġatt ributed
Ġstud ios
Ġind ex
Ġappro val
ĠGra ce
ĠGib son
ĠEnvironment al
ĠF ine
ul i
ub a
Ġapp ly
Ġ5 8
196 2
Ġwides pread
Ġed itions
Ġfr ame
4 00
Ġc attle
ĠR uth
ĠL ux
ier ra
ĠSw im
Ġpe oples
Ġin ner
ĠS uch
ĠT ed
Ġsh opping
ĠInd ians
ĠAss istant
ĠStat istics
Ġconnect ing
Ġt act
ĠR ing
ĠCon stant
ĠIs le
Ġlearn ed
Ġge omet
ĠLank a
Ġt as
Ġt ask
ĠS ic
ob by
Ġrel ief
Ġtrans c
Ġ189 7
ĠHel en
ĠGil bert
ĠCrim inal
ro ph
Ġ9 5
Ġ189 3
ĠAnt i
ĠAl tern
A nd
ĠT ou
Ġdis b
Ġoper ator
Ġtour ist
Ġcomput ers
ĠT ol
ĠM Ã©
Ġlow est
ĠEgypt ian
ĠMuslim s
ĠWeek ly
Ġw ire
Ġst ress
Ġex port
ring ton
ĠS eg
ĠI RA
and om
Ġ7 2
ĠGe off
Ġcol ony
ĠEp isode
ĠDomin ican
ĠHawai i
ĠB es
ĠL ie
ĠPer ry
Ġtre ated
ĠAdm iral
Ġhor ror
f ire
uss els
anc ell
Ġadop t
rep rene
Ġfest ivals
Ġg ymn
Ġ18 50
Ġab use
ĠMer it
Ġblock s
Ġparliament ary
s or
Ġc atch
ĠB ald
qu ir
Ġcharacter ized
Ġcr ash
ĠLu is
Ġlin ear
R T
f ers
Ġf ill
Ġn eck
ah l
Ġfrequ ent
Ġvir us
Ġconne ctions
Ġanth rop
ĠChall enge
. '
G erman
ĠC C
Ġim ag
Ġsong writer
isc opal
Ġtrad ed
Ġphen omen
k now
Ġt urb
ĠC red
ĠP oll
ĠF ly
Ġg ard
Ġcomm it
Ġind icated
born e
196 3
Ġcorrespond ing
ĠW ed
anc er
A t
r us
Ġt ests
is ch
Ġb es
ĠM ull
ur an
iv ia
oc c
Ġdeb ate
ĠP rag
ber ry
Ġass ets
Ġorigin ated
Ġstat ue
Ġdu o
Ġunivers e
ĠM ak
ĠY u
Ġvot ing
ĠOper ations
hol m
ĠLl oyd
er k
Ġs alt
ĠF oster
Ġch ance
Ġpart ial
ĠArt illery
Ġsol ar
Ġvari able
Ġmess age
b us
l ington
v ision
Ġpart ly
ĠPer th
Ġcustom ers
if fer
ĠTe en
ĠDel aware
ĠBou levard
ĠNash ville
olley ball
s is
Ġc odes
ĠS ak
ro oms
ĠC reat
ĠC atherine
ĠH ad
ot he
ĠRe form
Ġbroadcast s
Ġanal og
ĠP el
Ġdr um
Ġelect rical
Ġproduc ers
Ġphot ographs
Ġcontinu ing
os ph
195 8
osoph ical
Ġchall enge
Ġattra ctions
Ġbatt les
f eat
at on
Ġin se
il ty
am ics
Ġcon vert
Ġper fect
ĠBel arus
195 9
Ġimmig rants
ĠM ann
ĠB und
ĠBe h
Ġmanag ers
Ġspons ored
ĠProtest ant
ast s
Ġro se
Ġturn s
Ġrecip ient
d isc
f ree
st e
ĠS Ã£o
ĠN ext
ĠN uclear
ul u
Ġinter ested
ty pe
Ġtrad ing
ĠPet e
Ġphys ics
m o
ĠV lad
ĠLe o
olog ists
Ġform ations
ĠSe an
ĠTom my
Ġspe akers
ĠF iction
ĠAr nold
Ġsub mar
Ġshe ll
Ġb in
Ġele ven
Ġrep orter
Ġcolle ctions
196 1
str ong
ĠErn est
Ġwound ed
j u
w ers
Ġ ib
ov sky
Ġro ots
Ġdet ailed
Ġdepart ure
á »
ew here
Ġen roll
ĠArt ists
ir i
ĠCl are
Ġmov ies
ĠHigh land
Ġnomin ation
Ġvess els
ĠG T
ag s
ace ae
ĠQ ual
Ġrep utation
Ġaut onom
fect ure
Ġt ied
ĠS ad
ĠLe ader
ĠCan al
ĠMc L
Ġconf ig
ĠCur t
ĠFinn ish
D S
S eptember
Ġl ov
Ġcent ers
Ġstrong ly
Ġmar ine
E le
w au
ĠD in
Ġsign ing
Ġenc ounter
Ġappoint ment
x i
Ġo cean
ĠS uz
ĠF oot
ĠW ag
arm a
Ġre ally
ĠTh ai
uk a
b ut
ĠL GBT
ach ment
Ġpart ially
ĠAng lo
Ġcontrovers y
i ad
ĠF ras
ĠV eh
Ġun cle
ĠStan ford
ĠPen insula
ĠMond ay
P l
a uc
d ers
ĠF aith
any on
re cht
Ġp od
ĠT ype
ĠComm ons
ĠAd vanced
Ġequ ation
Ġaccess ible
Ġhelp ing
Ġathlet es
ĠHig her
Ġbound aries
Ġmechan ical
ĠW onder
ĠO wn
ĠEag les
Ġinaug ural
b oys
Ġchart s
Ġimplement ed
Ġdivers e
Ġs leep
op es
Ġrem ember
Ġph one
Ġstr uck
Ġgreat ly
ĠTod d
Ġcam era
u ber
op ened
Ġ6 3
Ġ6 9
ull ivan
Ġcommun ications
Ġparticip ation
ĠPolit ics
Ġbring ing
Ġs ort
ĠH D
amp a
Ġup grad
Ġ6 8
ĠAct ress
ĠPict ure
Ġvictim s
Ġlocomot ives
on i
ĠM idd
Ġl ap
Ġus age
au er
ĠGu ild
Un ited
Jan uary
ro se
Ġsaf e
ĠJeff erson
Ġrestaur ants
ĠL en
ĠK ay
ett a
ĠBy z
Ġinf antry
ĠSa udi
ĠAthlet es
Ġopportun ities
Ġrapid ly
Ġcancell ed
g arian
Ġc ash
ĠJ ava
Ġcompet ing
Ġphot o
c ase
ĠT ales
ĠE ston
Ġcomp ound
Ġtrans mit
udd en
Ġunus ual
wau kee
r ise
ĠB og
ĠK le
H E
ar is
ĠM ut
Ġcerem on
in yl
Ġe yes
Ġcon stitutional
ĠWar ri
ĠTe ch
ĠBudd h
Ġillust rated
ch y
th lete
Ġsh ore
Ġer ror
Ġgovern ments
Don ald
r ust
ic iency
Ġb id
ĠN athan
Ġg ay
if ted
Ġyoung est
% ),
Ġ rif
ĠCh an
Ġtrad itions
osp el
ĠMin or
t ains
ĠM asters
Ġ. ...
ĠPer u
Ã¶ n
Ġviol in
Ġpain ted
B O
u ations
ĠB ak
Ġco at
ĠComp lete
Ġexper iences
ĠMur phy
al ysis
ĠL em
Ġv ast
Ġorig ins
Ġcol ors
Th is
ĠChap el
d est
ed a
en os
Ġn it
Ġst rict
ĠIn sp
Ġch amber
Ġacc ord
Ġvis iting
A d
f am
f inals
ĠThe ory
ip ped
Ġmult ip
Ġphot ographer
ĠGreg ory
Ġw et
ĠB uch
writ ten
ĠTreat y
ĠNott ingham
Ġf ighter
ĠT ag
Ġex ceed
Ġag ents
ĠAn y
ipp ing
ĠSom ers
ĠMun ich
keep er
b r
ig s
Ġinv ented
ĠPlan et
an ion
ĠV illa
ĠV egas
ĠPro duction
Ġphot ography
ĠMad ison
ĠWell ington
ĠTas man
atche wan
f ilm
u its
re ction
ip per
Ġthem es
Ġident ify
Ġelement ary
ĠIsa ac
ĠW or
um i
ĠK os
Ġadminist rator
ĠGo i
ĠInt el
ĠRel ations
Ġalgor ithm
Ġpand emic
N P
ro d
ĠG olf
ĠW inn
Ġass emb
Ġprov ision
Ġdef ence
Ġindust ries
Ġphys ician
ĠEconom ics
Ġnob le
ĠR ab
Ġcon st
Ġcons ervation
ĠYou T
enc ing
p in
ic ist
ĠB ach
ĠCard inals
Ġimmedi ate
Ġvirt ual
om orph
ĠP ut
ĠP rest
um er
Ġra ise
Ġunder t
Ġco ached
Ġprodu ctions
ĠLith uan
g ames
Ġh uge
ĠL ic
id al
Ġst yles
iss ions
Ġinter change
ĠPark er
Ġ188 2
ĠMad rid
Ġbal ance
ĠFried rich
Ġm o
Ġar tery
ĠWild life
Ġexclus ively
Ġoccas ions
ĠRabb i
Ġeffect ively
Ġweek end
Ġconnect s
Ġrecomm ended
b el
Ġa qu
Ġw restling
ĠG ene
ĠV iol
ĠY am
ĠDes ert
Ġver te
ĠRon ald
log roup
Ġpenal ty
Ġs oul
Ġb rew
Ġd iam
ĠQu est
ĠAtt orney
Ġs ugar
ig ible
ĠSt age
ubl ished
Ġmat hematic
Ġgener ated
bre v
ĠP and
ĠW als
Ġ5 9
ĠSh akes
Ġbelong ed
ĠT ank
ĠM aced
Ġland scape
ĠH amb
Ġl ieutenant
ĠN ine
Ġ7 8
Ġgu ide
ĠEd wards
ĠPar ad
Ġscient ists
Ġthous and
ĠC ust
ĠM D
Ġh orn
ĠR ic
ĠF ra
Ġchar ity
ĠCol in
Ġamong st
Ġpra ised
Ġp ure
Ġh tt
ub s
Ġr ide
Ġ9 9
Ġacqu isition
Ġmeet ings
Ġalcoh ol
Ġd atabase
ĠM orning
ĠF lying
Ġbus es
Ġopin ion
ĠB A
Ġ186 7
ĠRh ode
Ġclos ure
ĠUnivers ities
ĠSask atchewan
g om
g iate
at us
ĠL ett
ri en
ab el
Ġ10 1
Ġdid n
ĠManag er
Ġprincip les
ĠKild are
Ġl es
Ġv ision
Ġcl ar
oun sel
com pass
bre ak
on na
Ġb acter
ent o
Ġth in
Ġint ellect
Ġ188 7
ĠWil helm
A ust
ĠR u
Ġcomp lic
ĠTra vel
' ve
ĠSh in
Ġdisc ip
ĠBr ussels
Ġfac ilit
Ġpat ron
ĠCons erv
Ġloss es
Ġwithd raw
ĠE U
Ġ7 7
Ġaltern ate
kin son
Ġchem istry
ĠOt to
O ne
W h
ĠT ong
ĠP eng
ĠV ern
Ġnovel ist
hib ition
Ġess ential
ĠCompet ition
E n
] )
Ġto ured
ĠArt ist
Ġqual ifying
ĠBul garian
ĠRay mond
Ġsched ule
Ġsamp les
ĠBened ict
Ġp seud
ue z
ib li
Ġad ults
pe are
ĠAg es
Ġcomment ary
ĠWet land
is p
ĠS yn
Ġcomp ounds
ĠTrans it
Ġlim its
Ġfind ing
ĠS eb
Ġd rop
Ġe asy
un es
Ġsh ift
ĠAl ger
ae us
Ġpart icles
Ġwind ow
Ġabs ence
Ġf urn
as ia
ĠW inners
Ġcomp rehensive
ĠAr sen
ev a
ĠSw an
ĠGro ve
Ġpri ests
Ġbi ological
Ġprinc iple
Ġt ie
ĠM S
ĠM ort
ĠO scar
ec a
ap se
Ġle af
ric ulum
Ġreg ulations
Ġsy mpt
Ġconvers ion
Nov ember
ĠPrad esh
) (
Ġ ),
Ġb orders
Ġd ream
ĠIn g
195 7
ĠLeg ion
Ġgradu ating
ĠR ica
ort ion
ell ion
Ġrest oration
Ġemploy ment
Ġ8 5
ĠMan uel
ele cted
Ġgen re
Ġclos ing
Ġsport ing
agon ist
Ġextens ively
Ġphr ase
av ia
ĠJo an
Ġden ied
Ġf antasy
Ġto ol
ĠB our
im ates
ra ve
ĠMar ines
Ġout standing
Ġmanufact urers
Ġmechan ism
Ġpan el
c ut
ĠR aid
id en
ĠW ald
ac o
ov en
Ġnickn ame
ol ia
ĠG ate
ĠE t
ark ed
ĠDe uts
Ġdec isions
Ġrev ised
Ġhistor ically
Ġpract ical
Ġmiss ed
Ġhard ware
Ġdiscover y
ĠRet rieved
ĠForm ation
Ġp ip
ra ge
ens ation
over y
Ġsequ el
it able
ur se
og an
Ġ6 2
Ġdist ingu
ĠArch ives
Ġtw in
ĠVar ious
ĠBright on
gom ery
if ican
ĠPl anning
Ġem pt
osp itals
Ġathlet ic
Ġcarri es
ĠArchitect ure
u j
Ġb attalion
Ġe at
Ġ6 00
ĠJun ction
Ġ186 3
ar ant
Ġwrit es
ĠLeg al
ĠPed ro
ĠS oph
Ġstud ying
Ġfl ights
Ġminor ity
ĠIndepend ence
ĠAdvent ures
it ure
Ġf ear
ĠC ork
Ġdrug s
Ġsuppl ies
M I
O r
Ġt anks
ĠT oy
ĠM end
amp les
Ġcan al
ĠMil waukee
Ġrelationship s
ĠHug hes
b es
Ġp ian
Ġcl ock
Ġdraw ing
ĠConc ert
Ġapprop riate
ifican ce
p ose
ĠM az
ĠL ess
ĠPro per
Ġ6 1
ĠFran Ã§
oss ible
ĠTre as
ĠChel sea
ĠShakes peare
S outh
h n
Ġ1 10
ĠK un
Ġ6 7
ĠFran z
Ġconstru ct
Ġ188 6
ĠPublic ations
ĠDel ta
Ġmass ive
Ġemer ged
ĠPrinc eton
ĠCo ach
Ġgen etic
Ġill ness
Ġdiss olved
Ġf ix
Ġm aps
ĠN at
ĠSt ill
Ġch lor
Ġen compass
Ġident ical
Ġbelong ing
ĠM ong
ĠP resent
Ġmet ropolitan
ĠRh odes
ĠOak land
i ations
Ġm eat
ĠI b
Ġal ph
ĠAd vis
ploy ment
Ġspe aking
ĠOtt awa
ĠG as
ĠO ber
oc es
Ġab olished
Ġra c
Ġsur rend
ĠEv angel
ol it
ce ived
ail ing
Ġunder w
sc ale
ĠMill s
Ġtheor em
Ġhabit at
ĠGon z
L E
Ġwh ilst
Ġ187 6
193 9
Ġconstitu encies
ĠSaf ety
ĠVers ion
re z
ĠWest minster
ĠBe aut
ĠQu arter
Ġprop osal
ĠMont gomery
Ġlog o
Ġhundred s
eg ovina
Ġext reme
Ġorgan ic
ĠDr um
Ġox ygen
L ondon
Ġt ries
st ance
Ġs essions
ĠK rist
ĠApp ro
Ġaccess ed
ĠVo iv
S w
ĠE ff
iz z
Ġgro ss
Ġ187 1
Ġhous ed
oir s
h igh
ĠL akes
ĠInd ex
Ġorgan ised
Ġcommun e
an ced
ĠC ities
ĠP ont
ĠJ oint
Ġdeb t
min ute
Ġjob s
C ent
d al
re ts
ĠB ears
ment ary
ĠCom edy
Ġpublic ly
Ġrefer ences
itar ian
Ġattra cted
ĠYugoslav ia
h l
Ġex cess
ĠHer ald
Ġsk ating
Ġ188 1
ĠAdd itional
ĠGard ens
Ġb anned
em a
work s
ĠSch ol
Ġsee k
Ġtrib ute
cel and
ĠOtt oman
Ġcompar ison
Ġtick et
ĠYouT ube
ĠNew ton
Ġem peror
ĠIndian apolis
Ġrepresent atives
Ġins urance
ĠNA SA
Ġremain der
Ġhydro gen
Ġhy per
he red
ĠS or
ich i
our se
Ġdomin ated
ĠEag le
Ġbenef its
Ġear n
aur us
Ġexpl ained
Ġfarm ing
Ġl oyal
Ġr andom
Ġind oor
rand ed
Ġany thing
195 5
b en
h m
n ew
Ġw ings
ĠA ch
ĠB att
os hi
Ġfl ower
Ġbas es
Ġext ent
com mon
Ġav iation
Ġqual ify
pir acy
ĠMaur ice
e er
Ġcon stra
Ġsub d
Ġ186 5
ĠPakistan i
ĠDev il
Ġc od
art et
elf are
iven ess
Ġrul ing
ĠWat son
ĠS old
ol en
Ã© l
g rim
Ġw aste
op rano
qu er
arg ed
Ġstat istics
Ġgrad ually
ateg ory
Ġparticip ants
Ġbo ats
Ġelim inated
ĠContin ental
Ġb rick
ĠT ree
Ġac know
ad ier
ĠAn imal
Ġ186 1
Ġdest ruction
ĠCamp aign
Ġvent ure
Ġcho ose
Ġcomed ian
Ġh al
ad ows
Ġ187 8
ux ili
ĠÅ ł
Ġhunt ing
g ame
s he
ĠC N
ĠB ent
Ġpro f
ens ions
ĠEngine ers
O L
Î ±
Ġsec ure
Ġatt ending
St ation
Ġrare ly
Ġpattern s
Ġcab inet
U C
k ov
Ġf at
ĠN an
Ġg one
ĠK id
ĠSh ang
Ø §
it us
Ġm all
ĠF olk
ap ped
ĠClass ical
m aking
ĠT ang
ĠT ake
ĠM ang
Ġn inth
end ers
sh aped
195 6
Ġarchitect ural
Ġgraph ics
Ġemig rants
qu arter
Ġr ub
Ġrem ove
Ġpass age
Ġ186 4
ĠArab ia
Ġdiscuss ed
Ġstep s
spe ed
ĠT iger
et ers
ag i
ĠK ash
Ġmov es
Ġmark s
ĠW orth
ĠPol y
Ġpat ient
ĠLouis ville
Ġelectric ity
ĠGram mar
Ġhousehold s
ĠHerz egovina
Ġdiscontin ued
G M
Ġ186 2
Ġ186 6
Ġtour ism
Ġtemper atures
Ġsuit able
ancell or
F ebruary
h al
on ly
ĠC H
ĠH az
ĠE in
Ġreg ime
Ġbeg un
ibr aries
Ġgard ens
' )
e a
il ia
el in
ĠI TV
ĠH at
ĠR idge
ĠGerman s
ĠSch w
Ġround s
ĠTor ah
Ġthreat ened
is che
ir teen
ft en
ĠSp encer
Ġ9 6
Ġgu ilty
Ġstri p
ĠNA S
Ġpione er
ĠR ut
ab ric
anth rop
Ġbeaut iful
ĠCurrent ly
ic as
ri er
Ġfl owers
apt ers
ĠMet al
ibl ical
ĠMean while
ĠM obile
Ġn ut
ĠAr ist
ĠRe ading
Ġsupport ers
f urt
Ġart ificial
Ġpost ed
ocr atic
Ġreported ly
uz z
ĠCorn wall
Ġchap el
W hat
ĠS ex
ĠK or
Ġro ot
ĠCal g
Ġsim pl
Ġprom pt
ĠCirc uit
Ġt ons
ĠC ec
ĠB ronze
ĠDou g
Ġdepart ments
h t
Ġ Ï
Ġw rong
ĠA aron
ĠH us
iv ic
ĠG ay
ĠAr ms
Ġpost er
ĠUl ster
E st
er ted
ok ed
Ġun incorporated
ĠSh ir
Ġunder stand
Ġann ounce
ĠMot ors
Ġess ay
ĠGabri el
Ġqu ad
Ġgl ac
ĠUnivers e
ĠJ ar
Ġch rom
ĠCar r
Ġfund amental
ĠBow ie
Ġcompris es
u ins
È Ļ
ing ly
ĠH i
ĠL ot
ag ar
Ġdesign ation
Ġmin i
Ġcamp s
Ġrest ricted
ĠHarv ey
ĠSoft ware
ĠA x
ĠC itiz
Ġm atters
Ġran ks
ounc ill
Ġapparent ly
19 50
Ġsp in
ush ing
Ġfund ed
Ġmuseum s
Ġpict ures
Ġrecomm end
ĠFil ip
Ġhappen ed
v et
ĠPeters burg
on ey
ĠS weet
Ġm or
ĠM ik
ĠL ar
Ġsp oke
form ing
ĠRepresent ative
Ġexc av
ĠSomers et
Ġdiam eter
e lect
Ġc inema
ĠH ap
im ir
ĠO g
att a
Ġtop ics
ĠAcc ount
ĠC ert
ĠH ob
ow ed
oot s
ĠAb u
unn y
mark s
ĠTest ament
Ġsust ain
ĠAber de
D R
ĠS ierra
Ġres olution
Ġact ed
Ġdist ribut
ĠNorth west
Ġno ise
Ġspecial ized
Ġpal ace
imens ional
Ġthe ories
ĠA w
ff ee
ull ah
194 0
Ġaim ed
Ġtele phone
Ġconvent ional
Ġsubstant ial
Ġdisb anded
Ġc rops
ĠS ang
ol ics
Ġor n
ĠAr med
ace ous
Ġfl ed
Ġconcern ing
ĠKenn eth
Ġvess el
Ġswit ched
Ġt ell
Ġkn ock
Ġview ed
Ġdiscuss ion
G C
Ġst yl
ĠIn stead
Ġsim ul
ĠSch m
ĠVir t
Ġcivil ian
Ġconcern ed
6 00
V A
Ġf ur
ch annel
ik ing
Ġ7 1
Ġvari ation
Ġgrand father
ĠLeban on
u ke
ĠR ams
ot yp
ĠG ael
ĠCh a
ĠV oice
ock et
Ġovers eas
ĠFras er
u able
ĠN as
ĠY ellow
ĠAll ied
ĠVal ent
osa urs
enh agen
Ġtack les
U P
ut ed
ĠTh ose
duc es
Ġunder st
Ġman if
Ġph arm
ĠRel igious
Ġvocal ist
ĠFem ale
Ġin fer
Ġto x
Ġ( '
em ed
Ġr it
abl ishment
Ġbeh alf
onn ie
Ġfram ework
P r
Ġb ishops
ĠS oci
le ction
el ia
ĠI celand
Ġcons ervative
ĠHar per
ĠGuard ian
Ġmach ines
Ġstrateg ic
ĠRena issance
ĠCalg ary
R E
en ia
ath on
Ġacc eler
Ġran ging
Ġpo le
Ġlab our
E ast
c ore
ĠS ons
Ġre venue
ra wn
Ġsc ores
Ġsub sc
Ġ8 8
ĠRailway s
Ġvot ers
" |
Ġt on
Ġm os
Ġsp ending
Ġdebut s
Ġwid er
Ġscreen writer
ĠNiger ia
ĠDoc ument
i ya
Ġs ulf
ĠM ol
ill es
ĠMon th
Ġsim ult
on so
ro id
Ġh ills
ins ky
Ġexp ect
ĠAm b
O T
Ġb one
ĠD y
ag ram
ous es
vel t
ij ing
spe aking
es is
ĠT alk
ch ild
ĠL ag
ire ct
ames e
ĠPhilipp ine
k g
t wo
á ¸
Ġs ung
ent le
Ġcomp iled
ĠLe ic
h all
ĠG erm
ĠAll an
ett i
ij i
ĠBrown s
Ġencoura ged
Ġfal se
I F
in ite
à ®
ĠB ond
Ġre duction
ĠL isa
ĠO st
ĠFer r
ĠVenezuel a
B est
ĠA N
ĠB irth
im o
Ġbe er
ĠTe acher
Ġresear chers
ic ing
Ġb orough
ĠC ret
Ġn erve
ĠD as
os lov
ane ously
sequ ently
ĠFour th
Ġhy brid
p ers
ent ry
Ġst ops
ĠSc outs
Ġran ges
ĠPal mer
Ġdisplay ed
ĠKr ish
Ġthe rapy
ct rine
Ġse es
Ġmeas ured
Ġautom atic
S M
ĠS ep
Ġn ep
Ġth irty
ag re
Ġcon greg
we ek
Ġdist inction
ĠThere fore
iet ies
Ġlo op
ĠPrag ue
V P
Ġb right
ce ster
19 18
Ġcl othing
Ġpar ishes
ĠThrough out
S F
Ġto uring
Ġd iver
Ġl ayer
Ġsh ops
umb ent
Ele ctoral
Ġv el
ov ich
ĠHe aven
ĠLe ft
ĠKing ston
ĠEx ped
ĠInt elligence
Ġexclus ive
count ry
Ġf ee
im on
Ġrecogn ised
Ġminist ers
ĠLu ke
e ffic
m usic
o j
Ġc ave
ĠD ig
ĠD anny
Ġev olved
Ġrece ives
ĠEn s
ĠSim pson
ĠOb serv
Ġupd ated
g rade
h aw
ĠA j
ĠG ust
Ġth rone
ĠK ate
ĠSt ef
Ġr ice
ep s
Ġinter face
Ġwrit ings
ĠLeg end
ĠIraq i
Ġarrang ements
Ġaggreg ate
v ol
st ed
ar an
ĠC raw
Ġbe ating
ĠK ur
ĠCh air
Ġab road
Ġman age
Ġret iring
Ġadv ice
Ġinterview s
Ġbankrupt cy
ĠG P
Ġk it
Ġart illery
194 2
odes hip
Ġturn ing
iff e
d s
f irst
h is
Ġg auge
Ġex ecution
ok u
ph is
Ġ7 6
Ġ188 3
Ġvo iced
Ġclin ical
it ol
ĠT at
Ġ( #
Ġh ur
Ġg al
ath y
Ġexp osure
Ġreport ing
Ġ186 8
ĠScient ific
Ġenjoy ed
ĠHamb urg
b one
o an
Ġh orses
Ġdise ases
l ik
Ĥ ¬
al m
ĠS isters
am er
Ġon going
Ġch ron
Ġout door
ĠCl if
Ġear ning
yl er
ĠMc M
Ġphot os
c ock
ĠIn str
ĠMar qu
act s
Ġpre st
Ġ7 3
Ġexpl o
rack s
ĠLabor atory
ĠHonor ary
Ġattend ance
Ġwear ing
ĠNap ole
Ġw orn
ĠS yl
Ġl ift
our g
Ġincre ases
rag on
ĠCamp us
m ir
Ð »
at ri
ent i
ant om
Ġint ention
Ġsign ificance
Ġrefer ring
Ġpresent er
Ġs ket
Ġc emetery
ĠS ter
am ine
ĠD ale
ĠHe at
Ġcl an
ann i
Ġsk aters
Ġant ib
ĠPop ulation
ĠRevolution ary
ĠA B
ĠB erm
ĠV ari
Ġfriend ly
Ġvert ical
I f
Ġs end
as ant
ol and
ĠY ang
ĠPre fecture
ĠNot re
l ength
Ġm asc
ch urch
ĠN ursing
19 30
Ġprogram mes
Ġdescrib ing
Ġ187 4
Ġeconom ics
Ġsuff ering
ĠBaron et
Ġmurder ed
bro ok
ĠEs sex
ĠVoiv odeship
Ġf rog
ĠB eth
Ġ- -
ans k
ĠAir craft
Ġscholars hip
Ġham let
Ġb oss
ĠC ome
Ġ8 2
ĠBar cel
Ġpromot ing
" :
B e
ĠP i
art en
Ġ8 00
Ġmart ial
Ġa thlete
Ġcon stitut
ĠK in
Ġexpl an
CA R
ĠBudd ha
ĠDur ham
ĠSax ony
Ġlat est
ĠAgric ulture
Ġib n
P M
n ik
ur ated
Ġestabl ishing
ĠInter state
Ġacadem y
ĠAlb any
Ġdescend ants
t z
Ġto t
om es
Ġl ose
ĠG amb
Ġdr iven
Ġinterpret ation
ĠJama ica
S D
U N
il ian
ĠF ro
Ġr ising
eth yl
Ġcap s
ĠSol omon
Ġhelic opter
I nt
he nt
nd ez
le e
ĠH arm
ĠR ange
ĠAbd ul
i u
ĠW ang
ens en
Ġlegisl ative
Ġmathematic ian
g ence
Ġw ars
Ġf a
est y
Ġhe nce
Ġeff icient
Ġtr uth
ĠCr us
ĠOw en
ĠN y
ĠW ings
ĠLe vel
Ġout er
ĠCo al
ĠAg nes
Ġinternational ly
Q u
o que
Ġb inary
ĠP or
ĠD w
ĠW ant
Ġun ions
Ġmin ute
Ġsee king
Ġcreat ive
Ġtim ber
ĠJam ie
Ġliber al
Ġexerc ise
Ġisol ated
h orn
z ym
ĠN eed
iz ard
ĠCl aud
ĠArsen al
c ott
ĠC ant
ent e
track s
Ġrul er
ĠS ullivan
Ġpl astic
ĠLe x
ren cy
Ġcent res
cy cle
Ġfun eral
ĠRh ine
ĠBenn ett
ĠS uff
Ġd angerous
ĠB ased
ĠI T
ĠH od
ĠR if
Ġth ing
ĠE yes
ass ic
Ġwork sh
Ġexp ensive
ĠAng els
ĠHen ri
Ġadj ust
Ġinterp re
j ord
Ġw ard
ĠS ikh
ĠA ur
Ġm amm
Ġh at
ĠG overn
um m
ry s
Ġafter wards
Ġ7 9
ĠDist inguished
ĠLa ura
ĠEll is
J apan
re f
al us
Ġb icy
ĠEd itor
Ġdr ink
Ġprote ins
ĠLoc ated
Ġelev ated
ĠM C
Ġposs ibility
Ġ187 9
ĠBeg inning
Ġprefer red
Ġm it
ĠM ade
ĠU g
ĠPro f
ose velt
the less
Ġtr uck
Ġkeep ing
ĠCy cl
Ġunc ertain
Ġdistinct ive
Ġcas ual
Ġoppon ent
Ġtransmit ter
i our
Ġen forcement
Ġcomm anded
ĠCl a
Ġanal yst
Ġpredecess or
ĠS ul
Ġcont ested
ĠSp art
Ġprom in
Ġpark ing
Ġabs ol
Ġpup ils
ĠAmaz on
sec ond
ĠInit ially
Ġsympt oms
ĠR ank
ĠD im
Ġrel ating
Ġel dest
ĠComb at
Ġs udden
ĠK ind
Ġun less
over ty
ĠMar io
195 4
Ġdev oted
Ġdisp ute
Ġcitiz en
b ank
st ract
es ar
Ġto urs
eng ers
Ġpower ed
Ġ187 5
195 3
Ġcirc le
ĠArm strong
Ġbelong s
ĠCru z
Ġunsuccess ful
ĠM alt
ĠF antasy
ant i
Ġ9 7
Ġnumber ed
Ġtechn ologies
Ġ187 7
Ġhol iday
ĠH aving
Ġsh r
ah o
Ġent reprene
ĠBe ijing
play ing
Ġspe aker
ĠIndones ian
ĠHend erson
B rien
s ince
am ation
ĠE sc
Ġunder graduate
Ġchar ter
Ġindepend ently
ĠBre ak
ĠBC E
Ġfall ing
Ġrecover ed
Ġvolunte ers
Ġproced ure
ĠBey ond
uxili ary
is en
Ġf iles
ĠP ent
Ġre aches
ĠH im
ĠL if
Ġg at
ĠIn stitut
oun s
ĠRo osevelt
Ġtal ent
ĠML B
ĠLear ning
Ġre organ
up t
ĠAn a
Ã± a
Ġsuburb s
Ġprepar ation
Ġresc ue
b in
ĠL ak
Ġen h
ĠPro duct
Ġinc idents
ĠCath olics
ĠNe igh
mon th
found er
8 00
W ill
c at
Ġb ars
Ġp ul
ĠA chie
ĠB ever
ran k
Ġab brev
ress ive
ĠMon ey
ĠMor oc
di ocese
n an
v i
ic ity
ing le
ang ered
Ġmanag ing
Ġsol utions
194 1
ĠMah ar
Ġlog ic
l ag
ro e
Ġg ate
ear ing
ĠCh ange
clud es
Ġj u
ĠSy ria
ĠRes p
Ġhel ps
ĠVen ice
ĠAdvent ure
ĠPhys ics
Ġstret ch
Ġsax ophone
) ||
P R
T rans
c os
ĠR ice
ir ts
ĠSp ect
ĠAnd rÃ©
Ġeduc ator
Ġdomin ant
ĠShort ly
ĠP aper
B N
ar u
ĠS ind
Ġto mb
ĠW inner
im en
ĠPal m
Ġbirth day
ĠLiber ty
Ġhyp othes
ĠNob el
Ġrom antic
ĠConfeder ate
H F
ab a
Ġra ising
Ġsett lers
ĠMal ay
194 3
193 8
Ġtourn aments
ĠPo etry
ĠCop enhagen
% ).
r ary
Ġc ul
ul atory
ath a
ĠBl ock
Ġend ings
Ġmain land
Ġadminist ered
Ġfunction al
Ġclos er
Ġcop per
Ġfoot age
ĠWed nes
n amed
ĠA ires
Ġst em
Ġ7 4
Ġ8 1
Ġrep air
Ġcharacter istic
Ġclaim ing
h in
l en
ir s
Ġres ort
ific ate
Ġann ounc
ĠHol mes
ĠWith out
writ ing
Ġrespect ive
ĠEp iscopal
Ġimmig ration
l ain
w yn
Ġp unk
ĠM ust
Ġany one
ĠTra in
ĠMid lands
Ġpartn ers
Ġf it
ĠC yr
Ġm ilk
et ary
iz ations
ten eg
uss ia
Ġfac ing
rim ination
Ġfocus es
ĠStand ards
Ġdivor ced
I L
Ġrem ote
Ġne uro
iers hip
Ġrecover y
ĠRoc he
ĠAberde en
Ġd rew
Ġre ct
ct uary
Ġal ter
Ġsc iences
ĠAlexand ria
k ar
ĠIn teg
Ġrele vant
Ġbl ues
ĠMan ufact
ĠGu itar
yl an
mon ton
Ġcou p
d ess
ĠC ros
ad ian
ĠN ortheast
im p
ish ments
ĠAl pha
Ġdis order
Ġ9 8
ĠMe chan
ĠParliament ary
Ġang le
Ġcircum stances
z ed
in ery
Ġin g
ĠC lear
ĠX V
ĠMo z
Ġopt ions
Ġinn ings
found ed
col m
ĠRoberts on
Ġpric es
Ġc hess
ĠS ett
ĠC od
Ġm orph
ul ner
Ġpro fit
Ġext ends
Ġpat rol
Ġrock s
Ġgra v
ĠN ancy
os exual
ĠAnd ers
Ġassist ed
ĠGram my
ĠExped ition
Ġt ight
Ġt ape
ĠR us
Ġst im
Ġprot ests
er als
ĠC rystal
Ġm al
ĠG az
av ian
up er
Ġfin ance
hem es
Ġstruct ural
A P
b as
ĠM ul
ĠP ick
ib ilities
Ġvari ables
ĠOffic ers
ĠArmen ia
H C
d es
ter bury
ook s
enn ium
Ġide al
Ġdocument ed
Ġtravel ed
ĠSus sex
ig ion
ĠN g
ab out
ern e
Ġdis aster
Ġpre gn
Ġ187 2
Ġcontrol s
ĠPlay Station
193 7
back s
Ġtre nd
Ġwind ows
Ġpredomin antly
Ġn am
ĠF ab
Ġgu arant
Ġ186 9
Ġconf used
ĠMont ana
n ov
ĠS ony
Ġexp osed
Ġegg s
l ive
st ock
ĠS oon
ĠAl ber
ĠAr rang
oy le
Ġne ither
Ġintern et
Ġel se
ĠGer ald
A b
r ish
ĠB ros
et o
19 14
Ġres ource
ĠRe ed
ĠHer o
b ird
l ights
Ġf ib
ĠS ent
ol io
ag ers
ine e
ie ve
Ġcons ent
Ġtri als
ĠBu enos
Ġinflu ences
Ġarg ument
rec ord
Ġsoci eties
M E
Ġb ay
ad ers
ĠR ural
ran ger
ah an
ĠCzech oslov
Ġkid n
ĠBarcel ona
f ast
f ootball
y ll
Ġb apt
ĠF ul
ĠJ ur
if ts
Ġen rolled
Ġexp and
Ġrep ro
Ġfif teen
Ġclear ly
Ġgraph ic
Ġarchae ological
ĠC inema
ĠW ells
ag ement
ĠK iss
Ġdes ert
ĠSc reen
ĠGl enn
ĠUr ugu
Ġcooper ation
ĠHit ler
Ġnep hew
] ,
c ity
m other
or ious
ĠE ld
Ġhe aring
Ġoper ators
row s
ĠDeath s
ĠJohann es
Ġaccommod ate
N orth
Ġs weet
om ed
Ġre ady
ĠF erg
ac co
Ġ9 3
ĠX X
Ġgall ery
is ons
Ġf ert
Ġp airs
ĠA way
Ġpro l
ĠCh i
ĠFor um
Ġcompet itors
Ġappro aches
bor o
193 6
Ġden omin
Ġel igible
ĠByz antine
Ġf lex
ĠN atal
19 20
Ġext inct
off icial
bor g
Ġhon ors
Ġvari ations
Ġmer chant
Ġdeliver y
g ener
n oon
o i
Ġ els
ĠA th
ick en
Ġair line
Ġanim ation
commun ications
Ġpian ist
g el
s m
Ġsh ield
af e
Ġmonth ly
Ġprop ag
ĠYank ees
an ing
end a
ater al
pr ises
ili ar
ĠMil ton
Ġprem iere
ĠJul ius
Ġgovern ing
D E
n Ã©e
v ar
Ġt ies
Ġv olleyball
Ġcom ics
if ier
ern ess
Ġdo ors
ĠHis pan
Ġevery thing
Ġsound s
ĠTre k
Ġrecip ients
W orld
Ġs a
Ġbe ars
Ġmain tains
Ġminist ry
ĠJul ian
ĠMorris on
Ġcart oon
Ġplayoff s
Ġkilomet ers
od ed
port ed
Ġsac rif
ĠEug ene
he ro
ĠR ib
ĠW atch
av ier
ast ics
Ġass um
Ġcampaign s
ĠCard iff
ĠStock holm
ĠTot al
ĠPow ell
ut o
ib an
ĠSc he
Ġav o
oe ing
Ġpick ed
ĠM ine
ĠI BM
ĠL enn
Ġhe ar
ĠPh D
Ã³ w
ato es
ĠJul ia
ĠJac ques
Ġdepend ent
itic us
f r
w ana
Ê ¼
ĠS aw
ĠC anyon
ĠH aven
ĠD ixon
ot ional
Ġenroll ment
Ġels ewhere
S he
p ost
om ber
ĠP ath
ĠH il
un al
Ġsp l
ric ks
ĠSh ield
Ã© r
ĠJun g
Ġacc um
Ġsign als
Ġext end
ĠGreat est
Ġbeaut y
ĠJenn ifer
p age
w orld
ĠC ly
ĠB rom
Ġsup plement
ĠBar nes
Ã¼ ck
Ġlo ad
Ġcoal ition
A D
v or
Ġ18 00
iss a
ĠSh ar
Ġ8 4
ĠTr ue
194 9
Ġopt ical
Ġtempor arily
ĠLett ers
Ã Ĺ
or um
ĠSc ar
ĠInd igenous
ĠShe p
Ġmain stream
ĠEd mund
ĠMon teneg
Ġport rait
ĠMal colm
194 4
195 2
g i
i ability
et ical
ĠR ah
ĠL ah
ĠN SW
Ġcon ven
ĠV eter
Ġpr ince
Ġhigh light
ĠDemocr ats
ĠForm ula
ĠFurther more
Ġt ested
al is
ĠS T
ĠA I
ĠR ever
ri ft
Ġv ector
Ġor chest
Ġper mitted
Ġ8 3
Ġown s
ĠTra ffic
ĠDay ton
Ġmus cle
Ġimpro vements
Ġs ang
Ġb otan
ĠD unc
Ġch oir
te am
Ġ187 3
Ġinit iated
ww w
cop y
quarter ed
O P
Ġre ducing
ri um
Ġplay wright
Ġ9 2
ple te
Ġder iv
Ġparticip ating
ĠWrit ing
Ġcert ified
ĠS ki
ess ed
Ġnot ice
Ġrel ay
ĠEd monton
Ġdep icted
193 3
Ġcross es
Ġconsum er
Ġstrugg le
ĠAgain st
en o
Ġw el
es ch
Ġfilm ing
Ġsub t
ĠEx cell
Ġposs ession
Ġpe er
g ae
t ic
Ġs isters
is an
ro le
ĠH ave
est one
ec ca
Ġpro x
ap pe
ov an
ick ing
sh ore
Ġpost hum
194 7
Ġaut obi
ĠFlor ence
ĠMat hematics
Ġatmosp here
Ġc ogn
ĠB ody
et ics
ĠD aw
Ġper mission
ĠCan terbury
ĠSac ram
ĠStart ing
i ott
st ory
ĠB ag
ĠThe odore
Ġl ie
Ġfor g
th rough
Ġall iance
Ġvar ieties
194 8
ĠAut o
ĠMem phis
Ġanch or
it ary
Ġs ight
ĠK as
Ġpl ain
Ġfre ight
Ġcult ures
194 6
ĠSl av
Ġmiss ile
Ġamount s
Ġearth qu
Ġrestrict ions
O W
d ire
ĠV II
Ġra b
Ġev ac
Ġexact ly
Ġans wer
ĠCamer on
ĠB rid
Ġcomm enced
Ġdes ire
k t
ĠSp ider
Ġfl ash
Ġam pl
Ġhor izon
ĠSalv ador
ĠFig ure
S L
ed o
ĠS ey
ĠT yp
19 25
ind a
leg raph
. ).
ĠT all
ac a
Ġv inyl
ak u
Ġab oard
ĠJohn ston
Ġexpl icit
ĠTer ror
ĠUs ing
E uro
er ie
Ġw edding
Ġc a
ĠB ark
ĠP ine
ĠW u
ĠPro cess
Ġint ent
Ġbre aking
Ġ185 9
ĠCommer ce
Ġimprison ment
Ġacknow led
it udes
ĠI P
Ġn a
ĠD unn
ĠD ylan
Ġcan on
Ġcons olid
ash a
ĠDav ies
Ġphys icist
Ġsurv ive
ĠJer emy
ĠMos es
ĠMarc us
ĠPear l
ent hes
ĠCh al
Ġch apters
ĠBl ake
ĠAir lines
ĠSing le
Ġsculpt or
Ġburn ed
z ing
ĠM om
ĠJ in
ax y
Ġconsist ent
Ġsusp ension
ĠBry an
ĠLud wig
Ġc osm
Ġf ulf
Ġb ull
ĠT rent
19 22
ĠAr d
Ġab ilities
Ġcr uc
Ġbroadcast er
Ġviol ent
ĠWood s
Ġord inary
ĠAgric ultural
Ġveter an
ĠPrest on
Ġalph abet
s ub
Ġt el
in ating
ĠCont est
Ġlab els
Ġattra ction
ĠMig uel
ĠSeb ast
w oman
ĠT roy
ĠC hess
ĠE C
Ġac res
iss ued
ĠMan it
Ġgu ests
Ġvers e
ID S
g ang
z ig
Ġor b
Ġk ings
Ġcr ashed
Ġstat istical
Ġpurs ue
Ġconce pts
Ġdemonst rated
Ã ½
Ġw orst
Ġsp ell
Ġun like
Ġsm ooth
Ġâ ĪĴ
Ġmarg in
ĠTib et
ĠGael ic
F O
Ġm ines
ĠW ick
ĠO F
Ġk m
oy age
Ġdis ch
Ġvis its
Ġpres ents
Ġbre eding
Ġ184 8
Ã¸ r
ĠKen ya
Ġpack age
Ġinstall ation
Ġneighbour ing
f our
ĠP s
ĠW ool
ul ator
ĠCh uck
Ġres umed
Ġ9 4
Ġph on
Ġbre ast
Ġâ Ĥ¬
ĠWals h
c or
u ros
Ġm ast
Ġh yd
ĠH ours
ĠL av
Ġal umin
Ġr iding
Ġtrans it
ourn als
Ġap artment
Ġconsum ption
M en
ĠM TV
Ġal ien
sp an
Ġmin eral
Bl ack
Ġemphas is
ĠKum ar
' d
el o
ĠR af
ĠJ en
Ġ18 30
Ġrun ners
ĠStev ens
ĠPir ates
j ection
ĠT ampa
ĠC eleb
le ase
ĠM oor
ĠL ac
19 19
Ġev il
Ġsub mitted
Ġleg s
Ġport ions
Ġcross ed
Ġtreat y
Ġlegisl ature
Ġadvent ure
b ase
Ġt y
er i
en ary
ĠC over
ĠU se
19 28
Ġsc atter
ĠSh oot
Ġ8 6
Ġne arest
ĠTr in
Ġarch ive
Ġprob ability
Ġstreng then
Ġwealth y
Ġunderw ent
g ment
ĠM is
Ġab und
ĠMe et
Ġinsp iration
Ġto ll
ĠP aint
ĠP owers
ĠR overs
ĠL odge
Ġim perial
Ġent ries
Ġmount ed
ĠHead quarters
ĠAz erb
found land
Ġmagn etic
Ġcarri er
ĠCret aceous
A f
i ens
m ail
al bum
ĠC ash
il ion
ĠW ord
Ġr ated
Ġann ex
ĠCor p
ĠGrand e
193 5
Ġsurv iv
ĠAntar ctic
Ġtheat rical
Ġp y
Ġby pass
ip her
ĠTh ames
ĠHer oes
ett es
hold ers
Ġfarm ers
ĠAzerb ai
w as
Ġ ).
ĠR ush
Ġart work
ĠCar roll
Ġanal y
Ġneighbor ing
v ik
Ġh app
ĠD oll
ri p
19 17
cl ip
Ġres id
Ġsl aves
ĠKer ala
ĠCrit ics
ÃŁ e
Ġresign ation
ĠGoi Ã¡s
g roup
s ur
Ġ urg
Ġhe m
ak k
Ġent ity
Ġmat hematical
P P
m ember
om ial
Ġn inet
ĠF at
ĠN ame
est rian
Ġsy mp
ĠAt ari
Ġview ers
Ġ185 7
Ġsem if
ĠAst ron
Ġwalk ing
ĠHous ing
Ġsynd rome
Ġexcell ent
ĠArrang ements
Ġs over
Ġf aces
ĠR aw
ĠL ok
ĠV e
ĠTh ings
ah u
Ġ9 1
ĠChar ter
Ġmag ic
Ġliter ally
ĠSud an
Ġiniti ative
osy stem
Aust ral
ĠAchie vement
ĠFerg us
) ])
G S
ĠL ink
Ġpro of
Ġvar iants
uck er
Ġtr ump
Ġgrand son
Ġpers pective
Ġsculpt ure
ĠCab inet
Ġwrest ler
d ays
h urst
ĠG ren
ĠRe ich
Ġsl ave
Ġexper iments
ĠTour ist
Ġrad ical
add y
ĠBat man
T o
Ġt ub
ĠD ol
ist ing
ĠK arn
ĠMar itime
Ġwork er
ars ity
ĠBas que
ĠLou ise
ĠWork ing
Ġmolec ular
ĠMidd les
! ,
B ig
T P
ic ia
ĠG rim
ĠW end
ack ed
ĠComp lex
Ġren owned
ĠTown s
Ġcomplet ing
Ġlif etime
D iw
l ane
Ġf ame
ĠW E
ĠNew foundland
Ġphil anthrop
bu ilt
Ġcompris ing
Ġc ook
Ġb arri
ĠD atabase
ond e
emb ourg
isc her
Ġfer ry
l ived
Ġh idden
om ical
ĠHe ights
ĠSh adow
Ġmat rix
Ġdet ect
ĠBoy d
ĠHind i
yg io
ĠHur ricane
ĠBav aria
ĠT act
ĠC ed
ĠB uc
um ps
Ġcon clusion
ĠK urt
up s
Ġag ree
Ã© g
ris on
Ġtown ship
ĠTw enty
Ġtravel s
l u
Ġo dd
ĠM aid
et e
im er
Ġcur riculum
Ġassoci ations
ĠAh mad
Ġquant um
ĠFact ory
i ology
Ġb achelor
om i
19 21
ĠAmer icas
Ġinter mediate
han ced
Ġrain fall
quir y
ĠBuddh ism
g un
ro us
ĠV ent
ĠEd gar
ĠFound ed
Ġess entially
Ġcoin c
Ġnam ely
e ff
is ers
ĠS elf
ĠH ern
em ies
th at
ĠIn side
ount ain
Ġtra ils
Ġsec ured
Ġ8 7
Ġlist ing
Ġspecial ist
Ġdest ination
Ġmix ture
Ġremov al
Ġperman ently
Ġsil ent
ĠPot ter
ĠEth iop
Ġdoll ars
ĠWednes day
Ġb ath
ĠC un
ĠW on
ĠEx amples
Ġair ports
ĠHar bor
Ġcirc ulation
hab ilit
Ġcal endar
ĠSpe aker
inem at
Ġsum m
Ġdismiss ed
ĠWag ner
l ia
ĠB ooth
ir ms
ĠG am
ĠBro ck
Ġgener a
ĠMot ion
Ġexhib it
Ġfast est
Ġprint ing
C onn
Ġc yl
ir ie
ul ates
19 29
ust rated
Ġsh orter
ĠInd ies
Ġvar ies
ĠMc D
ĠGh ana
Ġnickn amed
Ġw ants
Ġp ale
ĠP am
ĠSt range
ok o
Ġpr ayer
ha ust
Ġquarter back
Ġdiplom at
Ġdiplom atic
C o
M usic
Ġc ad
ĠB ene
Ġeff iciency
ĠRecord ed
ĠBrad ley
ĠBalt ic
Cl ass
Ġbatter y
ra k
ric a
Ġesc ort
ĠCy pr
Ġreleg ated
G u
ĠA A
ĠC M
ĠM iles
Ġte eth
ĠDes c
Ġceleb ration
Ġunivers al
Ġinteg ral
ĠDunc an
e apolis
n amese
ĠS H
ĠC ord
ĠC ann
Ġm arch
eg al
ash ire
isc ount
ĠWes ley
ed uc
ic he
ĠM oss
Ġl ights
ot ten
all ing
19 24
pr ing
Ġtribut ary
ĠGoth ic
T I
e ctions
Ġin stitute
Ġre ven
ĠG and
all ists
ess e
ĠArch diocese
Ġfavor ite
Ġ rib
ar r
Ġs we
Ġc anton
art s
Ġch ronic
ĠHar bour
ĠÃ ł
ĠJust in
ĠBrad ford
Ġneut ral
Ġ Âł
ou x
ol ve
ĠD ere
ĠE ye
ĠK ids
ph ib
ĠAm iga
Ġbel t
Ġhand le
Ġgold en
ĠNep enthes
J ew
n al
as p
ol in
ĠR achel
Ġkn ew
by ter
alt ies
ĠPaul o
Ġel abor
atin um
ĠJul ie
Ġcollabor ated
ĠHop kins
o il
Ġ ion
ĠS earch
ĠA in
ĠD Ã¡
ĠEm my
Ġjournal ism
onom ic
ĠLanc aster
Ù Ħ
Ġm oral
ig i
ok es
Ġloc ality
por ter
Ġattempt ing
Ġdisp ers
Ġment ions
G O
Î ¿
he ld
st able
Ġst ored
Ġac ids
Ġ8 9
Ġnational ly
Ġtem ples
Ch rist
Ġsoutheast ern
Ġrenov ation
R ep
on ne
on ica
ĠS amp
ĠT i
un ar
ac les
ĠY an
for ced
Ġen zym
Ġbank ing
ĠTri ple
Ġcat hedral
Ġrenov ated
ĠShang hai
L ove
al am
Ġl iv
ish a
Ġus ual
ĠMar tha
Ġland ed
ĠGl ass
ĠAg re
Ġsit uations
195 1
Ġdoes n
ĠBank s
ĠPan ama
ĠSur rey
clus ive
appe ared
b et
Ġc argo
Ġf itted
Ġm emor
il ogy
ĠM ater
orn e
itte es
Ġbomb ing
Ġseg ments
Ġaccomp any
spec ies
Ġdies el
Ġdef ine
wh ite
ĠFre eman
Ġsen ators
Ġdispl ays
Ġst ake
ac iÃ³n
qu est
ĠPl ate
Ġstat ements
Ġdram atic
Ġens emble
j oin
ed ed
ĠI N
ĠD ob
Ġr um
ten ham
ĠPhil harm
Ġinf ection
Ġboard s
Ġsymb ols
ĠGener ation
ĠH erm
ra h
Ġst eep
19 27
Ġper m
Ġacc redited
Ġrequ ested
Ġ185 6
Ġindic ating
ĠConf ederation
ĠSac red
ĠLanc ashire
Ġlocomot ive
a qu
ĠT ext
Ġd ogs
ist ent
Ġbu ff
Ġthere after
Ġsing ers
lic ation
ĠCong o
Ġsuppl ied
ĠFull er
l iga
an as
en ess
Ġb aby
ĠM ob
el i
Ġrev ival
ĠEm ily
ĠBel le
Ġinhab ited
Ġflu id
Ġtas ks
W hen
c olle
Å Ľ
in as
Ġs av
Ġf asc
ol ith
Ġth rill
ac ional
Ġdis k
Ġent ers
ĠProv idence
Ġcoll apse
Ġprogress ive
Ġvolunte er
ĠFilip ino
D o
ĠD id
ot ing
ay ers
che l
Ġqu een
ster ious
ĠCap itol
ĠRed s
ĠPat ric
ij a
193 2
ĠWind sor
umber land
Ġlaws uit
ĠDor othy
Ġreform s
f in
Ġf aster
ĠM ats
ĠP ep
ĠG row
19 23
ĠAb original
ĠRichard son
Ġobject ive
Ġrad iation
Ġinteg ration
SC O
Ġinsc ription
enti eth
d imensional
t es
ĠH alf
ĠL arge
ĠG C
ĠK re
Ġag es
ĠAm bassador
Ġhead quartered
ĠRes erv
Ġtransl ator
ĠMur der
ĠCamb odia
ĠRaj a
ĠLiter ary
Ġchalleng es
ĠStrateg ic
ĠCypr us
Ġh ope
ĠH off
ĠD ud
ip eg
Ġdep ict
pro duced
Ġbatt ing
ĠPhys ical
stad t
Ġt un
at ible
ĠS leep
Ġd iet
ĠB ran
ĠH IV
Ġon wards
Ġg rey
Ġhe ct
Ġcl ient
Ġinter action
Ġrece ption
Ã¤ r
ĠIndust ries
Ġcounter part
ĠCP U
Ã ī
ad al
ĠE ve
ĠK ang
Ġch orus
let te
Ġpriv ately
ĠChile an
Ġski ing
ĠSerge ant
ĠImm ig
ĠEvent ually
ĠCurt is
Ġsimult aneously
Ã ¯
at ics
ĠG ates
Ġal k
19 12
io x
Ġass ists
Ġcur ve
ĠRock y
ĠLind a
Ġdecor ated
at ine
ĠC B
ĠF an
ĠBra ves
ĠBer k
ĠPop ular
f old
ar in
ĠR up
ĠG ospel
ut a
Ġr id
Ġdef unct
Ġ15 00
ĠInn ov
o qu
Ġb io
ĠB irds
Ġn est
id ance
Ġde emed
ĠNew port
ĠChem istry
ĠFern ando
fam ily
A ng
ĠL iv
oc ity
ĠK C
19 26
ĠSc ots
ĠGu ang
Ġpo ison
Ġvict ories
ĠStr at
Ġslow ly
Ġdoub les
Ġconj unction
f ra
m ade
Ġp orts
ĠC rist
ĠC osm
ĠM IT
ur as
ĠL ords
ĠO pt
Ġsh aring
ang ular
amp ire
arm s
Ġwid th
ĠJo el
Ġcolon ies
Diw ygio
or ge
Ġs ie
ĠS pl
ĠP od
Ġfor th
ĠIn stitution
Ġse eds
ĠAm ateur
Ã¡ ndez
ĠInt roduction
ĠWars aw
ĠBurn s
Ġexam ination
ĠIss ue
ĠNAS CAR
Ġunderst ood
h ra
an im
Ġb ell
Ġreg ulation
amb ers
193 4
ĠDire ctors
Ġimprison ed
ĠPerson al
he e
Ġd ancer
ĠV ision
Ġsp an
Ġcomp act
ath am
Ġbas in
ĠFer din
Ġdiffic ulty
ĠLes lie
Ġwithd rew
ĠGi ov
ĠVlad imir
C ont
f ront
Ġt orn
Ġs oc
Ġre actions
ĠW aters
ish i
og ram
Ġ7 00
ĠFran co
Ġcor ruption
ĠVol unte
ĠFin ally
ĠMinn eapolis
ĠViet namese
Ġaim s
Ġmaintain ing
Ġproced ures
m ud
Ġf abric
ĠT unnel
Ġh ospitals
ĠTr uth
Ġdet ail
ĠCommer cial
ĠLux embourg
E L
ĠC ore
ĠC ao
ard i
uch y
ĠPl aza
ĠBe ing
Ġevery one
ĠApp eals
Ġrat ings
ĠBron x
Ġfoss il
Ġcongress ional
Ġabb ey
ĠManit oba
ĠM ast
ĠB order
et ric
Ġg rid
Ġ10 5
ĠEd ge
ĠRec ording
Ġinher ited
ed e
Ġf isher
Ġp overty
ĠS of
Ġg ift
ĠJ ak
ĠJ ourney
ag ne
Ġcon son
Ġpl acing
Ġman ip
Ġlater al
ĠEd win
Ġperform s
reg ular
Ġhand ling
193 1
ĠBur ials
ĠPe ak
Ġ185 8
ĠMax im
Ġpil ots
Ġben ch
ĠPract ice
feat uring
Ġn atur
Ġinter cept
Ġcons cious
ĠBl u
ĠAm y
yl on
itor ium
ĠSchol ars
Est ablishment
football er
ĠS z
ĠC ock
ĠD h
ĠF oss
ĠG ott
ist le
oc hem
ĠCh in
Ġ3 60
Ġcl oud
ĠMar x
Ġj ury
Ġsy mm
ator ies
rup ted
intend ent
Ġempt y
G N
he rent
Ġo w
al an
ic us
ad ia
ĠGl obe
Ġtour ists
Ġobserv ation
Ġver b
Ġgovern ed
ĠLuther an
u w
Ġs le
Ġc ass
Ġp ist
ĠC av
ell ers
Ġest imate
ĠBl air
Ġref ere
Ġpat ent
ĠElect ronic
ĠSouth west
ĠFl ash
Ġsimilar ly
Ġbox ing
utt le
ĠL ect
ig el
und a
Ġlist en
ĠEm ir
Ġcond em
Ġread ers
enz ie
ĠLi u
ĠChang es
. -
t r
Ġt enth
or ient
al om
ĠR out
Ġex it
ĠSh ore
ĠInd ivid
Ġdifficult ies
ĠId aho
Ġpet ition
Ġgeomet ry
ĠD eg
ĠL on
ĠV ed
ĠV oc
end ments
Ġph osph
rid or
Ġhost ing
Ġdi oces
Ġcoll aps
Ġwild life
ĠParad ise
c z
om atic
Ġre opened
Ġpop ulated
Ġpresent ation
Ġbelie ves
Ġlabor atory
Ġintellect ual
Ġc ounsel
ro ve
ri ka
ĠK eep
Ġor bit
ĠMar l
Ġpre f
Ġent hus
Ġob lig
Ġelect ro
app a
Ġdra in
Ġcollect ive
ĠPrincip al
Ġrecru ited
Ġ >
ĠP iano
ĠK w
ĠMon ument
ĠFl oyd
ĠPar am
ĠBer ry
ĠLuc as
Ġreserv es
Ġfra ud
ĠP orts
ag ara
os er
19 00
ost ic
man uel
arg es
Ġbass ist
Ġnar rative
Ġdial ects
Ġneighbour hood
Ġtrav elled
Ġabsor bed
a que
c ul
l ift
Ġb er
ĠL az
ab e
Ġj ournals
Ã© d
Ġrecon struction
ĠRoll ing
ĠGeoff rey
Ġdistingu ish
p iece
is le
es p
od ium
ass is
Ġtrans formation
Ġrun way
ĠProv isions
ĠDire cted
ĠGriff in
ĠLeic ester
P L
b eat
Ġpart icle
Ġrec urring
Ġdo ctrine
Ġcivil ians
ĠAtl as
ĠNA TO
ĠEnter prise
ĠChem ical
Ġlas er
b oth
ĠA ub
ĠC F
ĠD ise
Ġv acc
od s
ĠSt ark
enn e
pr ising
Ġret reat
Ġsit com
Ġprot agonist
Ġprec ip
l isted
ers hire
Ġr ig
Ġrece iver
ĠRel igion
Ġpit ched
Ġmoder ate
j ud
as se
Ġl ib
Ġsp end
az i
ĠAd rian
Ġ185 4
ĠEll iott
Ġupgrad ed
ĠWarri ors
D I
Ġo ct
al og
le z
ĠB un
ĠH ir
ĠR ican
ĠE state
ver ted
ĠK aren
ap ing
ĠAd olf
Ġbas eman
Ġtri ple
off s
Ġhistor ians
Ġsee ing
ĠSund ays
Ġlook s
ĠColon ial
B rit
ĠS ou
ĠA ce
Ġd eter
ĠP ly
ĠH oll
us a
ĠW ander
ĠK i
Ġpro sp
Ġper ceived
Ġfew er
ĠLev iticus
D ay
Ġb old
ĠC IA
ĠM old
ĠB il
ĠW A
Ġar ray
ĠComp ut
Ġalleged ly
ĠWinn ipeg
L et
Ġa uction
re a
ĠC ay
Ġd iversity
ĠL iga
ut ory
un ted
Ġst roke
19 16
ĠAl pine
ĠAr ctic
Ġrem ark
ĠUnd erg
Ġpros ecut
ĠFranÃ§ ois
p ublished
Ġ ~
Ġt one
ĠS v
ĠT HE
ĠN ak
Ġv e
Ġen act
Ġbl og
Ġrequ iring
ĠPres byter
Ġinaug urated
Ġsubmar ine
an ch
ĠL omb
ess a
te chn
Ġend ors
Ġsk ull
ĠFellows hip
Ġemp ire
Ġadvoc ate
Ġsimul cast
at ar
Ġb orrow
ĠP all
ĠH its
ill on
if ax
Ġinter im
ĠMan ila
Ġstr ings
ĠEngine er
put ed
ĠDev on
Ġsequ ences
ĠGre ens
Ġdepart ed
Ġfle w
Ġconduct ing
Ġnegot iations
ĠInsp ector
. ;
Ġin hib
Ġb le
Ġm ail
ĠP orter
ĠD iana
um ph
ĠCh ase
Ġar bit
Ġdevelop ments
ĠMinist ers
ĠFrank furt
Ġemploy ee
Ġboard ing
Ġcreat or
ĠHaw ks
ĠLyn n
Ġoppon ents
Euro pe
Ġs aved
ĠG av
ĠCh amp
ang o
pt on
Ġend emic
ĠUS SR
Ġdr inking
Ġpres erve
Ġfair ly
Ġsynthes is
Ġpron ounced
ĠCla ude
g ie
à ¥
ĠSt ad
19 15
Ġ183 9
ĠMid land
Ġmer c
Ġcitizens hip
ĠPalest ine
Ġconfer ences
s outh
s burg
Ġc raft
Ġf Ã¼r
ĠD und
ĠN orton
Ġg r
Ġex haust
Ġun ve
ĠPl us
Ġdown load
Ġimm un
Ġcomment ator
ĠCher ry
Ġinstru ctions
clip se
Ġthe olog
Ġs itting
ĠN u
ĠN in
Ġsh ock
Ġam bassador
iff s
mark et
ĠFront ier
H ung
P ar
Ġs oph
ĠO z
Ġcom fort
ĠEuro vision
ĠBas in
ĠSur v
at z
ar ians
ĠC R
ĠC ul
ĠB ord
Ġg ear
Ġst olen
ĠK end
Ġde als
Ġman ual
ĠBl oom
velop ed
Ġsum mit
ĠProgram me
Ġut ility
Ġwa iting
Ġpun ishment
ĠHeavy weight
Ġaware ness
Ġconfig uration
u ador
al in
ĠC ave
id i
19 13
ĠTh urs
pl ane
Ġout break
Ġvar ied
ĠDavid son
Ġinvol ve
Ġser ver
Ġtax a
Ġpers u
ĠEle ction
ĠBed ford
w ind
as hes
ĠP on
Ġl ig
iv o
Ġth irteen
ĠSt ore
ip el
Ġcont ribute
Ġmin im
ĠAct s
ĠKingdom s
Ġcontribut ing
Ġcust omer
Ġmission ary
ĠProper ty
ĠExcell ence
C ar
h art
h uman
i ago
ra pped
Ġan terior
ri pp
Ġsc r
ĠGu ards
Ġext ending
ĠChurch ill
ĠOther s
nold s
f ive
r h
s ized
s elling
ĠC anton
ĠD arl
Ġst ere
ĠK om
ĠK em
Ġor al
ĠMc Donald
Ġcor poration
ĠMy th
arch y
Ġimpro vement
Ġjud icial
ĠColle ges
ĠCard inal
ĠFerdin and
ĠA G
ĠB ot
ĠL A
aw s
Ġfin ite
unt ary
Ġ185 5
ĠTw in
Ġwind s
ĠJess e
intend o
Ġs ke
Ġre de
ow ing
um en
Ġte a
ev en
Ġdec k
ĠApp l
viron ments
ĠAp art
ĠDemocr at
Ġopt im
oca ust
G en
T e
c ano
w he
w ill
Ġa w
Ġnomin ations
Ġrequire ment
cles iast
ĠFight ing
Ġmanusc ript
re ated
ĠC u
ĠM ake
Ġth inking
Ġor th
Ġr is
20 23
ĠSc heme
Ġfl our
Ġdep ression
ĠMc N
Ġsouth western
Ġ185 1
Ġox id
Ġbelief s
f iction
ĠF ut
os als
Ġv ein
Ġcom ments
ĠCh urches
ĠV iscount
Ġj ew
ind e
Ġcons piracy
Ġam alg
ĠRe ad
ĠâĢ ¢
Ġjoin s
ym ph
ĠCommun ication
ĠCong reg
ĠKaz akh
role um
g reen
Ã °
Ġc ow
ĠP apers
Ġserv ant
Ġsub stitute
Ġtrans p
Ġprov isions
ĠSouth ampton
ĠVict ory
ĠMalays ian
Ġdelay ed
Å Ļ
Ġt ube
Ġw aves
le igh
ĠR A
im mer
Ġal ive
Ġtrans formed
Ġdef ended
ĠHam mond
ĠBut ter
enz o
Ġnation wide
Ġcoin s
Ġmyth ology
Ġprest igious
ĠBerm uda
Ġinterpre ted
p ath
as ium
Ġbe am
oc ent
ĠAn alysis
ĠZ imb
air y
Ġhon ored
Ġalleg ations
ĠBes ides
ĠRaid ers
Ġentreprene ur
ĠTrin idad
x x
el ong
ab we
Ġen emies
sh ine
ĠBr as
ĠDem ocracy
Ġsepar ation
âĢĿ ,
Ġfocus ing
Ġcomment ed
Ġnortheast ern
y ers
Ġc iting
per t
Ġreg iments
Ġshe ep
Ġend angered
Ġsign ature
ĠRe id
g rand
Ġc ouncill
ĠT in
ĠF ant
ĠW H
Ġcon fess
Ġspec ified
ĠCol ony
ble m
ĠSen ators
Ġ185 2
lim inary
ĠJeff rey
Ġroll ing
Ġvo ices
Ġvary ing
Ġf inger
ĠM I
Ġvers us
Ġpract iced
Ġjournal ists
ĠMP s
ĠAqu atic
Ð ²
Ġ ic
Ġc oc
es a
ĠT ir
ĠM ile
ch ief
ĠHe ath
ĠCor por
Ġsk ill
ĠBas il
ĠBra h
ĠBre nd
unc iation
Ġbehav iour
Ġearthqu ake
C H
l ist
ol an
ir us
Ġr ational
ik er
ĠPh antom
ĠInter ior
Ġ185 3
Ġ184 7
Ġachie vements
book s
Ġdial ogue
ĠCour se
Ġinvent or
L U
ĠT ate
ĠD um
ĠD uff
ell ar
land o
ual a
orm al
Ġline up
c al
er ts
ad h
Ġra cial
Ġdef ender
Ġproport ion
P al
Ñ ĥ
Ġm emb
Ġto wers
ĠF ast
ĠE g
Ġv ulner
Ġcl ergy
ĠAr n
enn a
ĠSing er
ĠOver all
ĠJud a
ĠCorn ell
ĠTal iban
Ġtal ks
Ġreleg ation
S e
l ay
m akers
Ñ ı
Ġo v
ĠC ool
il o
ĠP ret
ĠL inn
ĠW ik
ĠE is
th ree
ĠK ol
art e
ĠTh an
Ġsc andal
ĠPro gressive
ĠGu j
yl ogen
isc ell
build ing
Ġremember ed
ĠCraw ford
T R
on aut
ĠF eder
ĠN intendo
ĠSh aron
ĠLiber ation
Ġlin er
Ġaddress ed
ĠAh med
ĠSacram ento
S ch
S ec
ĠC ott
om o
ia z
Ġr h
ĠWeb b
ĠPres idents
ĠKer ry
ĠWol ver
Ġdub bed
ĠBrun o
Ġt ier
ed ge
en heim
ap ur
ish n
over ed
Ġafter noon
ĠTr unk
Ġaccount ing
Ġautom atically
Ġalt itude
Ġenh ance
ĠDere k
ĠGiov anni
b ours
d em
Ä Ľ
Ġb ord
ĠW is
ĠK olk
Ġform ats
ĠRoad s
Ġbrand s
Ġautom obile
Ġstream s
J HL
i em
Ġin duct
Ġor ange
che m
Ġlight ing
Ġliter acy
ĠRecord ings
uls ion
ĠHug o
Ġrespond ed
Ġveget ation
ĠHond a
m ount
an ie
Ġw arri
ĠC it
ĠB le
ĠB end
ĠB ridges
ĠH ost
ĠW ire
Ġas ks
ĠPro s
Ã© m
Ġdevelop er
Ġengine ers
ĠBur ton
ĠRos en
In ter
ĠSol ar
Ġbox er
ĠNep al
ĠChron icle
Jew ish
c ond
g eme
on al
ĠS ap
ĠD uc
Ġkn ee
Ġexpl ains
ĠBul let
ĠBelg rade
rac use
a very
Ġp or
ĠC ult
ĠM aking
ch ron
ĠG M
ĠG ut
ay ette
ĠMar ion
Ġra pper
ĠJohn s
Ġrev ol
Ġrev ived
Ġprot otype
ĠBur ke
âĢĿ .
Ġtouchdown s
M on
k u
ĠB j
ĠP ors
ĠI L
iv ities
ĠD awn
ĠE rik
Ġst ones
act or
ram er
ll er
uk u
Ġacqu ire
Ġmar ry
Ġrad ar
Ġsac red
ĠFergus on
ĠTact ical
Ġhect ares
Ġt et
Ġb ag
Ġd ict
ĠH ack
ĠG em
Ġg host
ia o
ĠAl leg
Ġper mit
Ġover t
ĠCon stitutional
my n
Ġdram at
Ġmer ch
ĠHal ifax
ĠRey nolds
iffer ent
Ġposter ior
c in
m and
ĠR ac
Ġth r
ĠAugust ine
Ġpat ri
Ġgrad uation
Ġsw ord
Ġ184 6
Ġprison er
Ġpay ment
Ġcolumn s
Ġrefuge es
Ġsurf aces
ic z
ĠK ot
Ġrec alled
ĠPro file
ĠCl ara
Ġco effic
Ġpol ar
ĠWh y
Ġcre ates
ĠPer iod
ĠSports people
ĠPubl ished
Ġoccas ional
w ord
ĠR ise
ĠG raph
ĠG ymn
em pl
end um
Ġab stract
Ġdem ands
attal ions
ĠLet ter
ansk rit
ĠZimb abwe
n ut
ĠF BI
ĠG ur
Ġpre v
ĠInd o
ten se
Ġmet ab
Ġrock et
Ġdeal ing
Ġgra ve
Ġmolec ules
ĠUlt imate
ĠPly mouth
Ġa ster
Ġc ryst
ro gen
ac ular
art z
ant an
ĠX I
ipl oma
Ġesc aped
ĠSpring field
Ġcomposition s
it ative
Ġfor ty
im ony
19 10
Ġper former
Ġcan cel
sh a
Ġcontin ental
ĠSant iago
Ġaccur ate
ĠMerc ury
b at
c ap
t age
v ideo
Ġs in
Ġs ending
ĠT yler
ier i
abl o
Ġdep ends
Ġcut ting
ĠNorw ich
ĠCa uc
Ġreserv oir
Ġmig ration
ĠEc uador
Ġterror ist
A pp
G o
R eg
U SA
w y
Ġt um
Ġt ables
ĠT able
ĠB rent
ct ica
et own
Ġsp ots
ĠAn s
ĠAn at
Ġref lected
Ġsix teen
ĠPet erson
Ġoccur ring
Ġer rors
ĠLog an
ĠHein rich
ĠMonteneg ro
ĠAgre ement
ar ra
it ory
Ġn aming
ĠL ey
ĠL ook
ĠSh ane
ev e
Ġco ffee
Ġest imates
ĠPer forming
Ġcrit eria
berg er
ĠTo o
ĠIm port
Ġpsych ology
Ġlegend ary
I tal
p it
ĠC and
ĠC lement
am as
ĠH ood
Ġth anks
ow itz
Ġst ick
Ġat oms
ard e
19 11
Ġwhe els
Ġsub species
ĠWar wick
ĠReg ist
Ġhigh ways
ĠCo hen
ĠEm ma
ĠPresident ial
ĠAre as
Ġachie vement
Ġtravel ing
Ġwithd rawn
Ġphenomen on
ĠRoche ster
ĠPresbyter ian
N ational
Ġp ill
ad os
ĠW eather
ill er
ong s
Ġsm oking
Ġgener ate
Ġwid ow
H ost
] .
c ially
ar ium
Ġf ru
ĠV ery
Ġ18 12
Ġspec imen
ĠMon roe
Ġceleb rate
Ġfail ing
pur pose
ĠHous es
P art
s l
ĠB ott
ĠR oma
ĠLe op
Ġout fielder
Ġinc umbent
ĠAugust us
ĠBar oque
ĠBe a
Ġmin imal
Ġauthor ized
Ġ183 7
Ġpred ict
Ġconcent rated
d ist
ĠB ots
Ġen able
Ġpsych ological
Ġkind s
Ġpoll ution
Ġanth ology
Ġsust ained
ĠKolk ata
ĠC os
Ġd ust
am en
ĠH appy
ĠD ian
Ġle ase
ĠNew sp
Ġj et
Ġprov e
Ġdec ides
ĠLegisl ature
ĠBah Ã¡
ĠDisc overy
ĠShip s
B aron
R ed
he art
Ġb ats
ĠG Ã¶
Ġg aining
od ing
Ġy ard
ens ed
Ġsub urban
Ġcol ours
Ġval uable
Ġfre estyle
Ġpract ition
Ġcat cher
Ġrevers e
Ġgram mar
Ġrif le
ĠNapole on
m us
s eries
ĠM ons
ĠI gn
Ġpre t
yl um
ĠRich ards
Ġtri o
ĠHam mer
Ġterrit orial
Ġlook ed
Ġpil grim
Ġess ays
Ġspect rum
sch ild
ĠCour ts
Ġprofession als
Will iam
M Hz
u um
u ctor
er as
ĠW ake
ib us
ĠFl ag
Ġdem ocracy
Ġter rain
ĠRod rig
ĠDrag ons
Ne ill
Ġtherm al
2 50
7 00
z burg
Ġc avalry
ĠD ong
Ġst aged
Ġr uins
au f
Ġorgan isms
ĠTri p
ĠChief s
ĠGen eva
add le
ĠKenn y
ĠLuc y
Ġmagn itude
Ġsail ing
atern ity
r s
Ġs ick
Ġc ir
ĠS M
ĠC risis
ĠB enson
el ly
ĠH ull
Ġl ibraries
ĠSup erman
Ġperform ers
Ġsepar ately
ĠFin als
Ġsen ator
ĠWolf e
ĠNob le
ĠTrack s
Ġrot ation
ĠGor chy
ĠGriff ith
ĠUC LA
ĠFif th
ĠTasman ia
ĠRever end
ĠGorchy myn
L D
R ev
ĠM umb
Ġl iver
Ġcommun ist
Ġsuccess ion
ĠSk ating
Ġclos est
ĠMarsh al
uis ine
Ġautonom ous
st ore
Ġc otton
Ġm ild
ĠD ock
ĠF as
Ġat omic
se at
ĠCon cer
Ġsy ll
Ġrele asing
Ġbl ind
Ġstation ed
ĠSy racuse
play er
ĠTim othy
ĠBet ty
Ġtarg ets
ĠPhilharm onic
C ap
g eneral
en stein
ar re
ĠT ab
ĠC ut
ĠC oc
Ġ( â
ce ased
ith ms
ĠOr lando
Ġ12 5
ai ro
ser ver
h anded
re ation
Ġs its
Ġb oot
ing o
Ġl ux
Ġsh arp
ĠPro ceed
Ġfam iliar
ĠRe in
Ġdel iber
ĠCarol ine
Ġbi ology
ĠElect ron
ĠCa esar
ĠVis ual
iat ric
Ġrevolution ary
ĠCred it
ĠS ib
ĠC yn
Ġh ier
ch ar
ĠG ir
ĠV at
Ġch assis
The re
Ġair field
Ġdr ives
Ġpriv ile
ĠEll en
ĠHay es
Ġconfl icts
Ġdig it
ĠGrad uate
ĠSimilar ly
Ġabsol ute
Ġnatur ally
h ad
on ing
ĠR id
Ġth orough
od or
Ġun em
Ġen vironments
ĠTe h
Ġgu idance
Ġref urb
flu ence
Ġder ives
in f
in os
Ġthe sis
Ġp ump
ĠF res
Ġsec ular
ĠGl ou
Ġcontract s
Ġcut s
Ġop ens
ighth ouse
Ġdecre ase
Ġbrig ade
O D
l ore
Ġw ore
ĠSt eph
ĠCh oir
rit z
Ġsc ar
oph on
iment al
ĠEv il
Ġtheor etical
Ġconsult ant
Ġassess ment
ĠEvangel ical
K A
Ġp ub
qu et
ib a
Ġpre val
ĠInd oor
Ġmed ian
Ġappro ached
ĠHol ocaust
Ġz ones
Ġarr iving
Ġpot entially
Ġfort ress
Ġadvert is
Ġcoordin ates
ĠTransl ated
Ġrecre ational
ro ft
ĠI st
Ġl anes
ĠF ri
ĠG at
Ġex ile
Ġcl ients
olog ically
Ġfriend ship
ĠSqu ad
Ġqual ification
Ġmilit ia
ĠTun is
t ail
Ġt ip
ĠL ap
Ġqu oted
Ġdec ide
Ġreb ellion
ĠCow boys
Ġdiscip line
ĠProduct s
al ong
Ġp ap
ĠT itan
Ġto ler
ĠP om
Ġn erv
ie v
Ġret ain
Ġdecl ar
Ġlic ence
ĠAltern ative
Ġposthum ously
is iÃ³n
om eter
ĠG DP
ĠTh ing
enc ia
ĠTour ism
ĠJosh ua
ĠKrish na
k ers
l ined
m ons
r ina
Î ½
am y
ĠP ool
ĠG an
Ġsm allest
Ġtax es
Ġencoura ge
Ġmanusc ripts
ĠHispan ic
k el
at em
ĠP omer
ĠW N
ment ed
Ġse ating
ust ers
Ġcons ort
Ġcur rency
Ġequ ations
epend ent
ĠField s
Ġpull ed
ĠT ell
Ġm a
ĠG iant
ĠK ane
ĠCom mentary
Ġ10 3
Ġthere by
Ġsk iers
Ġactiv ists
atter y
ĠEv olution
Ġ184 1
ĠLy on
ĠNord ic
ĠHum ph
habilit ation
Ġin formed
ĠT ow
ĠH ear
ĠO S
op ing
ĠPr ide
Ġexpl ain
ĠÃ ĵ
Ġobserv ations
ĠWin ston
ĠLyn ch
Ġ <
am med
Ġfound ers
Ġrel atives
Ġfour teen
Ġair ing
Ġlong time
ĠMed ieval
yn es
Ġbar rel
Ġemer ging
Ġtrav elling
v y
Ġin clusion
ĠB ates
ĠB oeing
ĠW C
ĠU A
Ġch ore
ĠMar ÃŃa
Ġcap abilities
int ers
Ġgrow s
Ġhom osexual
Ġmess ages
ĠNik ol
Ġinfer ior
H ow
r ators
art a
ĠAd ult
Ġdef ines
Ġdef ending
umb ers
Ġfarm s
ĠStr ong
Ġbreak s
Ġprep are
ĠAntar ctica
ĠBots wana
S o
st op
Ġw ish
ĠI A
ĠW id
ĠMar ian
ĠRec ent
15 0
ĠBas ic
Ġreview ed
Ġeth n
ĠEmer gency
ĠBund es
clesiast ical
f ight
Ġc ere
Ġh az
ĠP ole
ĠR C
Ġl aps
os c
uch i
Ġco ord
Ġsub stance
ĠRo le
lin ary
Ġwar fare
ĠIm age
ĠTrib une
Ġspok es
rell a
haus en
ĠDocument ary
Ġsie ge
d ig
Ġb its
ĠS uk
ch air
aj i
Ġdist urb
Ġfl ute
Ġread s
190 5
ĠChap man
ĠLi bert
P er
r ath
Ġ q
it ely
ĠS it
ĠG ross
im ity
Ġcon g
ĠZ en
ĠPar ade
ĠBel ow
igg ins
ĠBrig adier
Ġcompris ed
ĠP ars
ĠL angu
ast on
Ġspec imens
ĠEx tra
Ġvers es
ĠSer ie
Ġ184 4
ĠAlb ion
Ġpen insula
Ġcomput ing
ĠStaff ord
F I
g s
z el
ĠS ail
ĠM Ã¼
ĠD re
Ġ10 4
Ġacc idents
elf th
ĠEl is
Ġmark ing
Ġsk ater
ĠPo ems
Ġmotor cycle
ĠId ent
Ġsn ake
ĠErn st
Ġinse cts
j ust
Ġ ur
om as
ct ive
ĠAl g
old s
ĠUS S
ĠEn c
Ġconsid ering
ĠCas ey
vo iced
Ġannounce ment
b ot
ĠS ed
ĠH ass
Ġal pine
Ġex chang
isc al
ĠEast er
ĠEm il
Ġaff air
Ġtri angle
ĠBo hem
Ġpage ant
ĠBol ton
Ġdepos its
al en
is i
ĠA L
Ġh ole
ĠF ear
ard ed
ub ble
Ġse ized
Ġsh ifted
Ġro ok
Ġback up
Ġel ite
ĠBu ilt
Ġaud iences
Ġlay out
Ġsquad rons
Ġassass ination
ĠStre ets
Ġmonitor ing
ĠAzerbai jan
E nd
b ian
e i
m el
al ks
Ġp ushed
ĠT ru
ĠA us
Ġd rag
ĠM Äģ
ĠIn ver
ĠNew man
pl asm
ert iary
Ġtr im
omet own
Ġfar mer
ĠMax well
Ġthrill er
c ourt
k an
s ay
ĠA FB
ĠR ough
Ġhe ir
cl iffe
iz a
Ġmon ks
Ġimp ossible
mun ition
imens ions
G E
S N
r il
Ġc ens
ĠM eyer
ĠR andy
Ġn as
ĠF ow
her d
ber y
ĠMon ster
Ġlist ings
omm ission
Ġec osystem
Ġsole ly
ĠNever theless
Ġflo ors
d istance
m ath
Â ²
ĠW er
Ġg rain
un i
ard ment
ant le
Ġrem n
Ġcar n
Ġleg acy
Ġgener ations
ĠMy stery
Ġcommer cially
Ġ184 5
Ġspect ators
ĠLad ies
ĠImmig ration
F rench
R ock
e u
ĠS ource
ĠS utton
ĠM atch
ĠI g
ĠL il
ĠV ale
cl air
Ġfilm maker
Ġdisc rimination
Ġsk y
ĠTre vor
ĠRav ens
ĠEns emble
Ġbicy cle
Ġt ru
Ġc hest
ĠB uk
ur ities
Ġth read
and in
and ro
Ġst ability
art on
Ġcor on
ĠHeart s
Ġsusp ected
Ġmut ual
Ġchalleng ed
ĠUnderg round
Ġt issue
he y
st age
Ġp ond
le ston
oc ate
ĠV ocal
qu al
sh ot
Ġactiv ated
Ġfall en
Ġgirl friend
Ġconsequ ences
Ġenl isted
ĠPatric ia
orient ed
Ġa est
ĠC yp
Ġh ub
ĠI SO
ĠL ines
ĠW ine
ĠSt ruct
Ġdis appeared
ne um
Ġwe igh
cast er
ument al
Ġexpl oration
Ġeconom ist
Ġsurv ival
ĠCub s
ĠAdvis ory
Ġcasual ties
E SCO
m ay
Ġa mp
Ġs ure
Ġc rack
ĠM ight
ĠM ixed
ĠR ex
Ġl obby
ĠL LC
og o
ep pe
ĠSh annon
olog ne
Ġact ively
ev o
Ġhand ed
Ġtro uble
Ġspe aks
Ġexhib itions
Ġreve als
ĠSem inary
ĠAud io
ĠDream s
Ġarc ade
ĠOcc up
exp ected
f a
Ġ1 18
ĠD ow
ĠL ob
Ġfor b
ĠJ ake
ap est
Ġtop ic
Ġpres ervation
Ġbre ad
Ġ183 6
ĠDar win
Ġwarn ing
pent er
re present
Ġw elfare
ĠS ugar
ĠG ul
Ġ10 2
ĠAt hen
let cher
Ġep ic
Ġdem o
rest rial
ĠJack ie
Ġmid fielder
ĠAnn ie
lim ited
Ġfif ty
Ġarg ues
d orf
Ġto ile
Ġl ung
Ġn ights
ĠL ip
ĠW it
ĠJ i
Ġind irect
Ġshe et
ina e
ĠRh y
Ġconsist ently
190 8
ĠHard y
Ġcalc ulated
Ġbul k
ĠIns urance
ĠThurs day
Ġp ointed
Ġl ac
Ġcons erv
Ġ13 0
fl ies
ĠKn ox
Ġstrong er
Ġdyn amic
raf ts
ĠBrew ing
Ġrenew ed
ĠArist ot
Ġing red
ipel ago
O ld
l as
Ġf atal
Ġh itting
ad ors
ut ical
ĠK L
ĠChrist ie
Ġimp osed
Ġaut o
Ġorient ation
ĠSuff olk
h op
h of
p y
Ġst abil
Ġhe ating
ĠCh oice
Ġsp elling
Ġteam mate
arg est
Ġtrad em
ĠRev ival
Ġpres c
Ġaut umn
Ġ184 9
Ġcompos ers
Ġtrib al
Ġeditor ial
ĠEst abl
ĠSpeed way
Ġelectron ics
Ġrepeated ly
ĠKle in
ĠStef an
Ġautobi ography
Ġhorizon tal
Ä ĵ
Ġt ag
Ġt ill
Ġb ore
ĠM anning
ĠB ally
ĠB alk
ĠE RA
Ġexp anding
Ġsever ely
stru cted
Ġaff ord
Ġap ost
Ġgod dess
ĠBald win
ĠDw ight
D r
Ġo m
Ġs aint
Ġc rypt
Ġre ass
ĠH ew
ĠH ague
ĠL ists
ir its
Ġas king
ĠV il
ug a
Ġr ivals
ie u
Ġcl ay
eg ie
act ivated
ĠSh op
Ġqu e
ĠWill ie
rew s
ĠTenn is
Ġunc lear
ĠWy oming
ĠOri ental
Ġprohib ited
ĠJoy ce
Ġdin osaurs
Ġfil ter
Ġw ick
ĠS tern
Ġto b
Ġl os
ĠK ad
ĠV augh
Ġsh ipping
io let
Ġsc out
Ġen abled
Ġman ages
ĠAnn iversary
Ġmy sterious
190 9
Ġmeasure ment
Ġrob ot
Ġvirt ually
Ġapart ments
E very
t or
t ons
Ġd ish
am on
ap a
Ġte lev
ĠCon rad
ĠRe formed
ĠSe oul
Ġeng age
Ġnorth western
ĠSpec ies
hold er
Ġabs ent
ĠBad en
Ġbacter ia
ĠC ort
ĠP asc
ĠD ul
im an
Ġv ital
Ġhe ter
ph ant
pen se
sc reen
Ġdest ro
Ġten or
Ġagre ements
Ġgoal keeper
Ġeas ier
Ġcatal og
Ġceremon ies
ĠKash mir
ĠGerm plasm
Brit ish
N FL
z an
Ġf ran
il ight
ĠH our
oc he
ĠY a
ĠGu er
osp ace
Ġbur ial
Ġsus pect
Ġfe ud
Ġcycl ing
ĠBerg en
ocol ate
Ġdivor ce
Ġnav igation
ĠGust av
C E
P aul
ĠS ara
ĠC ars
ĠR oland
Ġg rants
ĠCon vers
ĠEx hibition
Ġinvestig ate
ĠRom ance
ĠVo ices
ĠNic ol
ĠZh ang
Ġbond s
Ġtort ure
ĠAlger ia
Ġmos que
Ġexplan ation
ĠManufact uring
Ġunve iled
C omp
W ar
h as
á Ģ
at aka
ĠS SE
ĠS anskrit
ĠM iy
ord inary
man s
hed ron
Ġ16 0
Ġfind ings
Ġreserv ed
ĠSum mit
Ġflood ing
Ġresear cher
ĠLead ership
Ġfurn iture
c ot
he nd
ĠD ial
ĠL ives
ĠN acional
ph al
let ter
Ġclass room
Ġshould er
ĠCarl o
Ġcou pl
Ġmer ely
Ġrebu ild
Ġadvis or
ĠFeat ure
B r
P F
g ent
Ġthe ology
re ens
Ġb are
ĠC ry
ĠP end
ĠF ork
ĠE du
ĠK ok
Ġapp rec
Ġinter vention
ĠSp y
amb a
Ġsw ing
Ġfem in
Ġregard less
ĠSlov enia
Ġwaters hed
Ph il
ĠTon ight
h ou
p resident
ĠA ster
Ġst eal
Ġse ctors
abl ing
pr int
ĠEd en
orm s
Ġleg it
head s
ĠRos a
Ġge ographical
ĠTrad itional
Ġancest ry
Ġkilomet res
ĠCly de
ĠJuda ism
U T
j iang
m al
ĠA yr
Ġd iamond
em por
ĠSt ring
ain es
Ġsh aped
Ġele ctor
Ġart if
Ġdo ctors
Ġcolle ctor
Ġevent ual
Ġimpro ving
Ġdraw s
Ġregist ration
ĠStra it
ĠNi agara
ĠSid ney
ĠCreat ive
ĠCros by
iscell aneous
F rance
R ail
n as
Ġt ut
un ter
ĠCh ancellor
Ġdep icts
fl ow
Ġsl ot
ĠPre viously
Ġflag ship
idel ines
Ġprox imity
ĠMumb ai
ĠT ale
ĠB ibli
ĠH ast
her ic
Ġcomp anion
Ġreg ister
que z
ĠAg ent
Ġkill s
ĠAlb anian
Ġhol es
Ġdim in
is eries
ĠD ew
ĠG y
ort ic
Ġpl ural
ĠSh u
ĠZ ero
Ġfollow ers
ĠChrist church
Ã¡ r
na issance
Ġdem ocratic
ĠPri est
ĠLeg acy
Ġ184 3
wa it
Ġshel ter
Ġadopt ion
Ġrit ual
d ec
Ġp ig
ĠC ell
ĠF est
ik es
Ġcons ensus
Ġprov ider
ĠPar agu
ellig ent
ĠOm aha
Ġax is
Ġconqu est
ĠMoroc co
n ian
s up
at oon
ĠB ug
ĠH ick
Ġal tered
ĠV it
Ġcontin ent
Ġmeas uring
ĠGen esis
ĠOrig in
ĠRom ans
ĠColomb ian
ĠCov entry
ĠPatt erson
h alf
r ights
ĠA id
ri fic
og l
erm ark
13 0
ÃŃ s
udd in
Ġless er
Ġmarket ed
Ġcirc ular
Ġdecre ased
Ġbutter fly
Ġf ires
Ġh iking
ĠB io
ow der
Ġbe aring
ul ous
os ely
Ġit em
Ġ3 50
ond o
oy a
ern er
Ġed ges
ĠPr ussia
Ġob l
ĠSher man
ĠAndre a
ĠMichel le
Ġcommit ment
ĠLah ore
ĠAppl ied
I R
s im
t itled
at as
Ġb rings
ĠP os
ĠP ere
ĠR ule
Ġl ar
ĠD ry
Ġdis orders
yd d
Ġproper ly
lo o
Ġput ting
Ġ183 5
Ġinterview ed
Ġdiss olution
cha ft
ĠPra irie
ĠBron cos
ĠRoth schild
Ġnav ig
ĠHerman n
Ġaccord ance
Ġhtt p
ĠBahÃ¡ Ê¼
Ġh ometown
ĠB otan
et z
ĠG ol
Ġan ten
ĠK och
nt on
Ġra id
ev es
ĠMan or
ĠSy rian
Ġpass ion
ray ed
ĠHon our
ĠHaw k
Ġthreat s
ĠHart ford
hist oric
Ġcopy right
power ed
O h
Ġc ub
ĠS O
ĠM Ã¼n
ĠB oss
ĠD rew
ĠV III
Ġpl ates
Ġsp elled
Ġsh ots
ĠJan et
Ġaut hent
ĠTor res
ĠSuper ior
ĠBul ld
ĠImp ro
Ġfeel ings
ĠWhe el
ĠCec il
R oman
d ong
ĠH utch
ĠR as
ag le
op ol
ich ael
Ġdes ired
ĠAn imated
Ġ12 8
Ġclass rooms
board s
Ġrecogn ize
ĠAv engers
Ġfle e
Ġly ric
Ġcollect ing
ba um
ĠPeng uin
Japan ese
ĠDud ley
N S
g overnment
Ġc it
Ġc uisine
ĠA S
ĠB onn
ĠP itt
ĠF alk
Ġpol yn
Ġdisc ipl
Ġtr ucks
Ġpost s
ĠProv ision
Ġident ification
Ġscreen play
Ġexhib ited
Ar t
ĠAtt ack
ĠSupport ing
T L
m ile
á º
ĠF rem
ĠG O
ĠG uru
ace utical
ĠShe ll
Ġland mark
Ġarr ive
ĠKar achi
Ġillust rator
Ġlay ers
Ġaccompl ished
ĠWander ers
h im
om plete
ĠP iet
ĠI F
ĠH ild
ch ing
Ġn an
ag ger
ber ra
if iers
Ġfound ations
Ġsup porter
ros se
erg arten
eck er
Ġconsider ably
ĠCarn egie
ĠTransl ation
L ive
Ġc ant
Ġd iox
Ġre ward
ĠL ay
um ped
ĠK ab
up e
ĠV id
ph an
Ġall ocated
Ġgod s
Ġhap logroup
ĠAssoci ated
ĠDyn asty
Ġgat hered
Ġtob acco
K ing
en za
Ġc ord
as ures
ĠA ra
Ġd well
ers h
ut on
ect ors
erv ille
ĠGeor ges
the l
Ġrefer endum
Ġrest ore
Ġant icip
ĠAngel a
ĠConc ord
ĠWhit ney
Ġir regular
ĠTreas ury
Ġvel ocity
Ġsacrif ice
ĠProceed ings
H ar
b red
at ial
Ġf irms
ĠM uk
ĠD ip
ĠL ed
est o
Ġapp rent
ph alia
ĠTe legraph
ĠGu atem
Ġcolle agues
ĠQu artet
Ġhuman ity
ĠOb ama
Ġconsequ ence
t ar
Ġt allest
at to
Ġd ancing
ĠH M
ĠL ars
Ġwas n
od yn
ev ille
ĠAt kinson
10 1
ĠEle ctions
ĠMir anda
hard t
olith ic
l ink
n ai
p olit
y cl
Ġl ad
ĠL Ã¼
ĠJ ob
est ation
ĠUn incorporated
Ġfl av
war f
Ġin tense
ic ious
ĠI z
Ġfor ec
ĠN um
Ġ10 6
Ġent ities
ĠMon ica
Ġexper ts
ĠHand book
Ġconstant ly
Ġhypothes is
d esignated
f olio
Ġ 00
ĠC ologne
Ġd Ã©
ĠR ising
ĠD olph
ĠF o
ist ence
ĠE k
ov es
Ġex terior
Ġres ides
Ġind eed
Ġpol o
itt ers
Ġball ot
ĠSix th
ĠPap ua
Ġcru ise
Ġtack le
ĠGaz ette
ĠPorts mouth
O H
g io
i ade
n umber
re v
Ġf iring
ĠS uccess
ĠP ain
ĠD j
iz ers
Ġro ster
ĠMar ri
ĠAnd hra
Ġstri king
Ġmechan ics
Ġbeat en
Ġjoint ly
Ġvow el
ĠPors che
P ort
n ership
or ian
ĠM illion
ĠI ps
ĠH ip
ĠD ana
ce pts
ip zig
Ġle ather
Ġper pet
Ġinter actions
Ġdire ctions
omet ime
Ġattack ing
Ġgen es
ĠGo es
Ġtransl ations
Ġfight ers
Ġnecess arily
ĠMem ory
ĠBeng ali
ĠLan tern
ĠSof ia
st roke
Ġp ine
ĠS N
ĠS ometimes
ro b
ur ai
ĠL al
ĠF letcher
Ġr ings
eg an
ĠNorth western
Ġmet ro
ĠQu in
Ġphot ograph
Ġcomplex ity
ĠBi ology
Ġcust ody
Ġspeed s
edd ed
ĠAssoci ate
ĠFel ix
ĠApost olic
m our
ĠS ag
ĠS ue
Ġ18 20
Ġrec ruit
Ġra w
Ġmon uments
ĠRud olf
ĠSwim ming
- -
C ity
l op
z ier
ar as
ĠM ist
om ers
ĠI de
ĠH ollow
ill i
Ġse al
og ene
Ġext ant
Ġleg ally
ĠNot es
Ġinterest ing
igg s
ĠUN ESCO
ĠEss ays
Ġalgebra ic
C O
D T
Ġn ode
ĠD oor
ĠJ agu
av is
ĠCh ip
Ġem otional
Ã§ a
Ġswim mer
Ġpurs ued
Ġreun ited
Ġnucle us
ĠVeh icles
ĠCitiz ens
B ar
C P
M D
M al
in ks
ĠS ister
ĠP ale
ir ical
ĠG ian
av el
ĠV iv
Ġun con
Ġen cl
ins k
Ġsy mph
ĠCan berra
Ġ10 7
ĠNov els
ĠGu adal
ĠBe ast
ĠRep orts
Ġob sc
ĠLaw s
atin ate
Ġ183 4
Ġexhib its
Ġspons or
Ġspons orship
Ġlect urer
Ġmort ality
Ġsubd iv
G P
d aughter
v as
Ġs id
ĠT uc
ĠB ast
ĠE ra
est e
Ġun anim
Ġqu iet
Ġprop ri
Ġbre ed
Ġcritic ised
ĠCam den
Ġdraw ings
ĠWel ch
Ġdro ve
Ġprevent ed
Ġastron omer
Ġcrown ed
ĠVern on
elect ric
child ren
Ġmasc ot
ĠLangu ages
F OR
ĠB oot
ĠL af
id ian
ĠN ass
ĠG A
Ġch ains
Ġcomp ensation
so le
ok en
Ġtra ct
Ġcent ered
Ġdo zen
Ġsl opes
Ġstand ings
Ġrailway s
ĠClass ics
Ġphil osophical
Ġappl ies
Ġmic ros
ÅĤ aw
Ġserious ly
ĠRan ch
Ġalign ment
Ġpreced ing
M e
Q ue
ĠC ivic
ĠB ard
ĠH ang
Ġas k
ĠK aw
av id
ĠV a
ĠUS C
ĠPart ners
ket t
unn ers
Ġ183 8
bo at
Ġastron aut
ĠJess ica
Ġdiagn osed
nd on
ĠA IDS
ĠC BC
Ġ( âĢ
ĠI S
ĠW i
ĠW ave
ens ing
ĠMar in
ĠMar co
ĠPro ducer
Ġatt ribut
ĠRec reation
Ġreal ized
Ġpros per
Ġinnov ative
ĠMaced onia
A ss
J ust
ĠM am
Ġfor cing
ap or
Ġch ips
ell ation
ry n
Ġmanufact ure
Ġbrand ed
ĠBrand on
ĠDod gers
ĠLithuan ia
Ï Ĥ
Ġb inding
Ġd anger
ĠM ing
ĠR iv
ĠF resh
os ion
ĠSt yle
ast ed
Ġdis puted
ĠZ oo
ĠBl ind
ott a
ĠBar rett
Ġcor ps
ĠMer chant
Ġrelig ions
Ġtransport ed
Ġbound ed
Ġarm oured
agon al
ĠBah rain
Ġstrateg ies
ĠPhill ip
mill an
Ġc ock
iv orous
ĠL it
ĠL ights
ĠF ram
ĠW itch
Ġas h
les h
ook er
Ġcount s
ĠNov el
ĠBe er
ĠEl s
omin ated
Ġconsid ers
ĠBas el
ĠApp eal
Ġmy stery
Ġpast or
Ġcateg or
'' '
ĠQuarter ly
l ies
ĠS as
ĠC avalry
il ib
ĠThe ological
ew ise
ĠV og
Ġph ylogen
ĠCal ed
Ġeng agement
Ġcust oms
Ġpoor ly
Ġpan els
ĠArchae ological
p ress
x imately
Ġt ale
ĠP oints
ant ed
og ie
ann ah
Ġsm oke
Ġarr ives
ĠLin ux
Ġemig rated
ĠEston ian
M ad
g art
n ell
ov i
ure ate
te ger
Ġunder lying
Ġtrans m
mber g
ĠCal c
Ġ14 0
Ġdep ictions
ĠSm art
Ġprocess or
unn els
ĠBo at
ĠBal och
Ġmechan isms
ĠDiv isiÃ³n
ĠSlov akia
ĠTou ch
ĠSebast ian
c ur
y ch
Ġt uber
an che
Ġc af
ro at
le ted
ol ine
ĠH ank
und ers
Ġab ortion
ĠSc andin
ĠMay o
ĠPart nership
urg ical
Ġtr ig
Ġdet ention
Ġkill er
pro v
190 7
Ġmur ders
Ġillust rations
ĠHan over
Ġhour ly
ĠFu j
Ġaer ial
Ġrecre ation
fr ame
Conn or
m ag
Ġo g
Ġb rass
ĠM ail
ĠP ione
ĠL ing
ĠL och
ĠSt ations
ĠCl iff
Ġed itors
Ġ183 2
189 0
Ġarg uments
ĠOs lo
ĠRaj ast
ĠSab ha
ĠFal con
Ġpod cast
H P
s ix
in ced
Ġp in
ĠC T
Ġm ansion
ou rag
ĠM og
ĠH ak
ĠH undred
ĠE lev
ĠLe af
Ġpubl ishes
uro p
Ġback ed
Ġep it
Ġconf usion
ĠHon ey
ĠGar cia
ĠDet ective
Ġbene ath
ĠSil va
ĠNad u
Ġphilanthrop ist
n is
s mith
ĠI D
ĠD art
ĠW ords
ĠK ais
ĠSt op
ĠSt akes
mer e
Ġcl im
Ġed iting
Ġdist ant
ĠAd ri
ĠRe leased
ĠLa ur
ĠQu int
ĠPat rol
ĠHistor ically
Ġarchitect s
Ġplant ed
ĠBow ling
Ġmass acre
ĠSand y
bass adors
Ġdim ension
Ġsurrend er
t ers
È Ľ
is ure
Ġb eds
Ġd uration
th is
ri ans
op l
Ġres on
ĠCount ies
ve ill
Ġdevelop ers
Ġext ract
Ġwill ing
ĠThom son
ĠÃ ĸ
bour g
190 6
Ġstre ak
Ġhum id
Ã± o
aly mp
ĠJacob s
Ġpra ise
Ġdoctor ate
ĠEston ia
ĠAlber to
d ing
le en
ĠP up
ĠG iven
ĠW B
Ġg amb
ĠJ ah
um ble
Ġv it
ĠAng ola
Ġant hem
pro ducer
ĠEle ctoral
ĠAlf onso
Ġhabit ats
Ġsuggest ing
Ġsynd icated
C al
M U
Ġs or
ĠM t
Ġre join
ĠI X
Ġl i
ĠD oyle
od on
av as
Ġall ies
Ġnew er
rib e
Ġpre y
ins ki
Ġest ates
ĠNe o
Ġcontinu ously
Un iversity
ĠÄ Į
ĠCole man
ĠCed ar
L ittle
er oy
Ġb attalions
ĠM k
Ġh ung
ĠP ist
ĠD iet
Ġac claimed
Ġam mon
ĠRe qu
ator ial
Ġne ur
Ġcar b
ĠRes ults
ĠCommun ities
ĠFact or
Ġrival ry
ĠPalest inian
P G
d an
l antic
Î ¹
ĠB Ã©
her ty
ĠK oh
ĠK yle
ĠK uala
Ġher b
back ground
Ġbo ost
iÄ į
Ġstep ped
ĠLat via
ĠEver ton
ĠSic ily
Ġencounter ed
Ġtheolog ian
ĠConcer to
ĉ Ċ
or ah
Ġs ou
Ġf ees
Ġb alls
ĠT ues
Ġd ors
om al
ĠF eel
im s
em ption
ge ons
ĠY uk
ĠPro gress
ĠĠĠĠ ĠĠĠ
Ġhand led
Ġprot ocol
Ġmot to
back er
Ġmar sh
Ġcell o
ĠDar ren
ĠRef uge
arth y
ĠTol edo
Ġtox ic
Ġninet eenth
C ount
N E
ĠC rom
ĠD ust
ĠL Ã©
Ġth rew
ail ability
Ġman or
Ġpresent ing
Ġstory line
Ġhon ours
Ġcost ume
Ġprem ises
Ġremov ing
ĠAnth rop
Ġharm ony
ĠAdv ance
ĠCoal ition
U R
ã Ģ
Ġp ush
Ġm as
Ġn urs
est ock
ath i
ĠSc enic
Ġkn ight
Ġmod es
Ġant iqu
ĠDen is
189 9
Ġaffili ation
Ġburn ing
Ġassemb led
Europe an
b ing
k ill
Ä ĩ
Ġt ent
ĠC I
ĠN othing
ĠJ al
Ġv ine
ep p
ĠCom ic
Ġinter act
ex cept
Ġsing ular
Ġgu ided
ĠSal em
Ġconf ront
Ġmiss iles
onn ell
Ġhum or
Ġconsider ation
Ġassign ment
Ġcongreg ation
A c
O ut
b eck
as is
ĠS E
ĠB attery
ĠU tt
Ġdis abled
Ġpr incess
ne z
ĠComp ar
com es
Ġadm ission
Ġalgor ithms
ĠDeuts che
veill ance
c ats
ar ag
Ġs ailed
Ġbe aches
ĠSt ream
ia e
ich te
rit ic
ĠGe ography
fess or
Ġdet ain
ĠFlor a
ĠBur ma
Ġarg ue
Ġwa it
Ġlect ures
ĠWor cester
Ġcollaps ed
Ġpref ix
Ð ´
it Ã©
Ġb rack
ĠT ask
ĠP M
Ġre issued
Ġis ot
ĠCl oud
Ġsl avery
Ġsuccess ive
Ġdirect ing
ĠCarl ton
ĠRain bow
ĠRif le
V I
g rave
á ĥ
Ġa us
Ġthe aters
as ma
ĠL iz
id t
em on
ĠV T
ess ment
Ġj ail
ĠFor bes
ĠCor on
Ġdet ective
Ġprop osals
Ã¨ s
Ġfeel ing
Ġclimb ing
Ġgather ing
Ġworksh ops
ĠDise ase
c ane
ar ity
it uary
Ġs ew
Ġc ooking
ĠM ini
ĠB ee
ĠP S
ĠP DF
ĠD E
ĠE b
ĠV ick
Ġpl aque
ĠSh an
ĠWest on
Ġinc omplete
Ġsur prise
Ġcre am
ĠSch l
Ġfrequ encies
Ġconv ey
Ġrul ers
Ġpen et
onom y
Ġtarget ed
Ġrob ust
Ġgradu ates
atern al
Ġcogn itive
F S
G od
Ġc ater
Ġm oon
ĠP red
ad ic
ĠR NA
ĠD owntown
ut z
ec onomic
ĠMar cel
ĠZ amb
ĠĠ ĠĊ
Ġunder go
ĠAnt ig
co le
Ġless ons
ĠSub sequently
Ġdiscuss ions
Ġbul let
ĠMap le
mod ern
Ġfold ed
ĠTerm inal
Ġt elling
st ring
ĠC andid
ĠP ill
ĠH els
ver age
Ġover w
Ġed s
ash tra
Ġacc us
Ġgu er
Ġdisc overs
ĠPort rait
unt ing
Ġtro ubl
190 1
ĠMid west
Ġrad ius
ĠStat istical
Bl ue
ĠSey mour
F ran
M G
b est
or rect
ĠB oh
Ġg ap
Ġ" [
ak ov
cl ub
form s
Ġsculpt ures
Ġkid ney
ĠSind h
ĠCzechoslov akia
Ġrook ie
ed in
Ġc ig
et ically
us ually
Ġcomp atible
te ch
Ġout come
Ġev angel
Ġsur geon
Ġimp ressive
Ġpres idency
ĠInter active
ĠGra f
ĠAuthor ities
ĠClay ton
ĠAnim als
Ġundert aken
Ġfacilit ate
L S
l ass
r ar
Ġp ir
Ġp neum
Ġm arri
ĠM und
ĠN iss
ĠN ico
ĠJ orge
are l
Ġcons ec
Ġprior ity
Ġgovern ors
ĠMore over
ĠHamp ton
ĠImp act
ĠNap les
Ġexplos ion
ĠInnov ation
Â ½
Ġf usion
ĠB ren
ĠB iblical
act ers
Ġmedal ist
ĠGeorg ian
Ġshall ow
ĠDub ai
ĠMick ey
Ġencompass es
ĠObserv atory
a ic
g ans
v ara
Ġb od
Ġp enn
ĠT arg
Ġd ense
am us
ĠJ ub
ore g
Ġ18 15
ool s
Ġind ie
Ġcap ability
ĠX box
Ġpar ad
Ġpo ets
ĠSch war
ĠRober to
Ã¶ m
ĠRou ge
Ġconv inced
ĠUnivers iade
ĠFer ry
Ġcampus es
amm ad
Ġproceed ings
ĠEven ing
ĠAmaz ing
ĠStri ke
ĠVeh icle
H igh
R ussian
st en
Ġc aves
ĠW ilm
Ġpubl ish
Ġdist ances
ĠPl ain
Ġart ic
ĠPar alymp
189 5
ĠVen et
ĠRen Ã©
ogen ic
ĠFace book
Ġmamm als
d el
ar ly
ĠR onnie
ast ered
ant es
ĠNew ark
Ġprov en
sh op
Ġdec ommission
Ġmed allists
ĠDr ug
ĠDem on
Ġtro phy
Ġreb randed
Ġpay ing
Ġinnov ation
otyp es
Ġcir cles
ĠVat ican
L ou
f ried
ĠA AA
ĠB am
ĠP emb
ĠR ook
Ġnot ation
to ok
Ġra ck
Ġsett ings
Ġdi agram
ĠLand marks
Ġ184 2
ĠSoph ie
Ġsket ch
Ġacknowled ged
Ġrefere e
V C
Ġ Ø
ĠB ant
ers e
us k
ra its
Ġg ast
em i
Ġst int
ate ver
eb e
ile e
rad or
Ġstar ter
189 2
ĠTrib unal
Ġtalk ing
ĠRajast han
b ol
y re
ar c
ĠS ally
op y
ip ur
az ar
Ġmet als
Ġtr ilogy
Ġintro duce
Ġexpl orer
ĠWe i
Ġreb els
Ġhar vest
miss ions
ĠGw yn
Ġvic inity
ĠBeaut y
ĠIndivid ual
ĠElis abeth
N G
u en
Ġt urt
at u
it ational
Ġf ung
Ġm es
ent on
ĠH omer
ĠN J
ĠN igel
th al
ĠV ij
ĠHe y
so ver
Ġcomm ittees
inn ed
ĠAb s
stra ÃŁe
Ġins ert
Ġopt ional
sk ins
Ġfeed ing
ĠPsych ology
Ġbat ted
ĠConstant in
F E
M B
S an
a un
Ġp ink
Ġd ying
ĠM ilit
ĠN iel
im i
ĠAl c
ond a
ĠDe al
ĠZ ion
Ġdec ay
Ġam munition
ĠMon ter
anc a
Ġhon ey
head ed
190 3
ĠFore ver
ĠReb ecca
ĠB S
ĠL ig
ĠJ ets
Ġat om
Ġor ch
ĠV in
ĠV all
Ġr ises
Ġar sen
Ġad equ
Ġen hanced
Ġair s
Ġpar ody
arn a
Ġequ ally
Ġdem anded
Ġmar ble
Ġche ese
Ġovers ee
ĠLaure nce
ĠRot ten
Ġcoordin ator
ĠVirt ual
whe el
ĠRhy thm
s ka
Ġa rose
et hel
ĠK ras
ber n
ew ater
og ical
Ġ3 000
ĠEx c
Ġrev ision
van ces
ĠBel t
ĠDou b
ĠTim eline
190 2
Ġtick ets
Ġcontroll ing
ĠFow ler
Ġt rick
ĠA W
ĠF ictional
Ġun p
ĠSh am
Ġcount ed
ĠCal vin
Ġsm art
Ġep id
ĠTra cy
ÃŃ o
ius eppe
Ġtri ps
Ġhot els
Ġcorrespond ence
zh ou
Ġsurviv ors
Ġtrump et
ĠDÃ¡ il
Ġconscious ness
1 20
U p
s ites
Ġ {
Ġp av
ĠS ens
Ġm ad
ĠB rett
am ination
ĠP ius
ĠN urse
oc ide
ĠK ann
ew ood
ĠLe ipzig
Ġsc en
ĠSc hed
Ġup grade
che z
Ġcar ved
ĠTra v
ĠMac millan
Ġdev ast
Ġrespons ibilities
Ġ183 3
188 9
ĠDec lar
ĠCrit ical
ĠNiger ian
ĠCatal an
ĠOpp osition
m u
p ark
Ġw ww
is chen
ĠA ug
ĠC aus
Ġm ud
ĠM are
ist e
ĠV ista
ĠY ah
act ic
Ġpre liminary
Ġsup ers
Ġdef ault
ĠChrist ine
Ġshort ened
Ġmult ipl
Ġopp osing
Ġmodel ing
ĠBre ton
Ġcert ification
ibl ings
abul ary
Ġmo ist
j in
Ġt ens
Ġs odium
Ġp ounds
ĠP GA
Ġg ray
rom agn
ec o
Ġj ur
Ġpromot ional
ĠOut side
ĠSun shine
ĠSol o
Ġsuper hero
Ġchem ist
Ġmem oir
Ġarm ies
Ġsal ary
S te
k ind
Ġw are
ĠT ropical
ĠC ran
Ġd imensions
ĠH ors
ĠV est
ov Ã¡
Ġj ack
ĠCount ess
ull a
ĠBe au
Ġphys ically
ĠOrgan isation
Ġlif estyle
ĠSant os
ĠJose f
Ġvulner able
h ig
Ġc reek
ĠH BO
ch in
et erm
ĠD ram
ĠD ais
all a
Ġun w
ĠDe e
Ġup coming
erm o
ĠComm odore
ĠRec on
Ġperson ally
ĠChar acters
Ġsol ve
ged y
Ġhealth care
Ġachie ving
189 4
Ġnar rator
ĠSev enth
iot ic
ienn e
Ġprofession ally
ĠNeg ro
ĠToy ota
ĠUrugu ay
N I
he ed
Ġb ones
Ġp aved
ĠM B
Ġh o
ĠB ound
ĠN un
ĠG us
ĠY et
ĠCon stitu
ros pective
Ġ9 00
ĠPr int
Ġpar ade
Ġgener ic
Ġcult iv
Ġsuff ix
ĠMcC l
ĠMid night
Ġord ained
ĠHu ang
Ġcle ared
Ġhtt ps
Ġdiox ide
S eries
r ays
on ent
ĠT rial
ĠM ell
ĠP Ã©
ĠW ade
all ow
Ġcomp rom
ĠSh ot
Ġtra ces
anc ers
af ia
ĠEl m
Ġmet eor
ĠChar acter
Ġcouncil s
Ġpaper back
Ġmotor way
Ġhar bour
Ġroll er
ĠDiv ine
Ġbow ling
ĠLeban ese
Ġfavour ite
ĠFoss il
w itz
ĠL ump
ĠN em
Ġr amp
Ġcl othes
Ġdis agre
son ian
ĠCan on
air d
ĠAm ar
ats u
Ġintro ducing
Ġcontribut or
Ġge ographic
ĠEconom y
Ġhar ass
ĠBeat les
Ġhop es
esc ope
ĠBM W
Ġwat ts
Ġwire less
ĠEin stein
Austral ian
ĠKarn ataka
ĠLeop old
F irst
H a
N ot
S H
Ï ģ
ĠF ur
ay e
im ation
est ion
ĠY uan
own er
pl us
Ġterm inated
Ġpar as
Ġsent ences
Ġz oo
Ġprevent ing
Ġimpl ies
Ġdin osaur
Ġkit chen
l v
o ine
r ud
ĠH ale
ĠN amed
ĠW ins
ak o
Ġar ter
aw k
inn ess
Ġinst ances
ĠÃ ħ
ĠCons ult
Ġcommer ce
Ġreve al
ĠUt recht
ĠFle ming
uls ory
iat us
ĠSin clair
Ġlingu istic
Ġmemb rane
b illion
i ating
an us
en i
ion ed
ĠC res
ĠM ys
ĠB ing
Ġl ob
os o
ĠK ul
ant is
Ġch ip
oy e
ĠSh ire
Ġprom ised
cent ral
ĠRed skins
Ġtw entieth
ĠWe in
Ġstri ker
part y
Ġfood s
Ġaccept ance
Ġpeak s
ĠExpress way
ĠTeacher s
Ġcul min
it one
Ġs hed
ĠS aid
ĠH ed
ĠD over
im edia
âĢ ¦
ĠCh rys
ary n
og g
Ġsp ur
ood y
ĠCl aire
its u
Ġdesc ended
Ġmin iseries
Ġeng ra
ĠQu ad
Ã¶ l
ĠMcC art
Ġpal m
ĠDark ness
can ic
Ġstrugg led
ĠKu wait
iad uct
Ġrub ber
Ġexplicit ly
ilib rium
T T
Ġin land
Ġp ic
ing ers
ĠC otton
ĠB R
ĠP erm
ĠN er
ĠCal d
Ġterm ed
ĠPer cy
ped o
ĠBra in
Ġcrit ically
Ġmot if
Ġplan es
ĠMic he
Ġnews cast
188 8
ropol is
ĠMoh ammed
Ġteach ings
ĠShir ley
ĠMonth ly
ĠAristot le
F l
w alk
ĠS ard
ĠB rem
ĠR ider
ĠL und
ist on
Ġg am
um ann
ue b
te acher
Ġres ur
ĠPh arm
Ġcompet es
ĠDist ricts
ĠIm ag
189 6
ĠBor is
ĠBet ter
AA F
ĠSant o
Ġmill ions
ĠGard ner
Ġprepar ing
Ġscatter ed
ĠEstabl ished
C om
an ions
ar ine
ĠH arri
ĠF iji
ĠU P
art ime
uc ci
ĠTe aching
ĠBur k
asc ular
ĠMat hematical
Ġtrain er
ĠBol ivia
ĠAndre as
ĠTob ago
Ġeval uation
Ġstrict ly
E G
S pec
d ep
p ret
Ġs izes
ĠC hes
ĠC ategory
Ġh ind
ĠR ox
ĠF uk
Ġbe ings
ri que
Ġde an
ĠCl imate
ident ial
Ġ10 9
anc o
Ġvol tage
189 8
Ġreflect s
ĠHold ings
ĠMalt a
ĠBever ly
record ed
A nt
v ir
st ones
Ġs ued
Ġc rop
ĠT ucker
ĠM ikh
ĠP eel
th ird
Ġcont ents
pe z
Ġ11 1
alth ough
Ġorigin ating
ĠCap t
ĠDep ression
field s
Ġsocial ist
Ġmeasure ments
ĠChron icles
Ġalumin ium
R P
i oc
it he
is ive
Ġc um
Ġf iber
Ġb ike
us ement
ĠN om
Ġst amp
orn is
Ġwhe at
ĠLe in
Ġfl own
ĠCar penter
Ġvill ain
Ġdet ection
ĠBal let
ĠGal way
Ġcolon el
Ġenter prise
Ġsynthes izer
Ġcatal ogue
Ġreact or
Ġconqu ered
ubb ard
Ġcool ing
Can adian
Ġabbrev iated
ĠRaf ael
Ġcass ette
b age
n ational
Ġh appy
Ġl ying
Ġn ose
ĠL ingu
ĠE van
av i
Ġinter red
att y
sh an
Ġdec omp
ĠCol ts
Ġlim estone
Ġlo ans
heim er
ĠSher iff
ĠHann ah
ĠHap logroup
Ġsustain able
ĠBullet in
ĠIps wich
, âĢĿ
E m
M r
b ul
c ourse
w id
ar row
Ġin ception
ĠA V
Ġl ip
Ġe ating
ĠF ors
id ays
ĠV ampire
uc a
Ġher ald
Ġed it
ĠPl ains
Ġam phib
Ġexp elled
Ġimport ed
Ġconc urrent
ĠChe shire
ĠRob ot
Ġeth ics
ĠLithuan ian
Ġwithdraw al
Ġ(â ĨĴ
R es
is o
ĠC able
ĠH ert
Ġan at
av ers
ip edia
ĠCh ung
ĠV i
Ġsp ans
Ġnot ing
Ġgame play
Ġcamp ing
Ġdifferent ial
ĠBy r
Ġexpl ored
Ġcoin ed
ĠSport ing
ĠAle ks
Ġmom ents
ĠTit ans
Ġdescend ant
Ġdepict ing
Ġdiscipl ines
) ",
K O
p ot
an an
ro duced
Ġd ock
el ic
ĠP BS
Ġre duces
ĠG AA
ay ana
Ġtra ce
tern ational
ĠPr ayer
Ġgen res
ĠIr ving
ĠBuck ingham
Ġclar inet
Ġgrav ity
; "
c ard
ĠM E
ĠM ental
ĠThe me
ad en
ĠD uck
ĠL C
ĠK ramer
pl ays
ĠTe ams
ĠRes c
Ġgl ob
Ġcreat ures
Ġceleb rity
Ġlink ing
Ġhol y
Ġsens itive
ĠPatri arch
Ð¾Ð ²
ĠPul itzer
ĠBeaut iful
Ġelabor ate
Ġfru its
v ian
Ġ u
ĠA FC
ĠC S
am ous
Ġ2 20
ĠD uchy
ow ay
ĠMon k
Ġcompet itor
Ġimp ression
arn ation
ger ald
Ġread er
ĠIll ustrated
ĠTw elve
ĠGre ene
ĠÎ ±
ĠPhill ies
spec ific
ĠKnow ledge
ĠMes a
ĠEmir ates
c ies
Ã ®
it as
ĠR aven
ĠG iuseppe
Ġpro claimed
ip linary
Ġcl oth
ĠAr min
eg u
Ġam ino
Ġdevelop s
ĠAll ison
Ġdet ected
ĠQu ant
ĠCatholic ism
Ġconf irm
ĠStar r
Ġ183 1
ĠGer ard
Ġimmig rant
á¹ ĩ
Ġrend ered
z ens
ĠT ul
ĠB ishops
ĠH ydro
ĠW R
ĠJ enny
and ra
ĠO kin
Ġhe x
aw i
ung en
me aning
ĠKh al
Ġsem in
ĠTri o
ĠAlb ania
Ġinvestig ations
ĠAdminist rative
orig inally
Ġinform al
Ġflo ating
Ġmir ror
uzz le
ĠClif ford
G old
Ġs acks
ĠR ide
od us
ĠV y
ĠLe Ã³n
ĠNational s
ĠWill is
com m
Ġinf ant
Ġmar itime
190 4
Ġcommission er
yt ic
Ġsudden ly
e ur
ĠH arl
th on
ĠRe ference
Ġdep ot
ĠWe ap
ĠMill ennium
ĠCast ro
pect ives
cest ershire
aren ce
Ġparam eters
ĠValent ine
ĠLex ington
educ ational
ĠHast ings
H er
f jord
r ug
in ia
Ġf ate
Ġd inner
ĠB arri
ĠB oul
am oto
ĠI CC
ĠD A
ĠN ames
ĠE ur
ĠCh ak
ĠV on
ib ald
Ġinv ention
ĠSe lect
ĠMark s
ĠHel ena
189 1
Ġtrust ees
Ġceremon ial
he ng
ĠH ul
ĠH uss
ac cess
ĠIn st
ast ing
Ġcomp ression
Ġnot ion
Ġafter math
ze k
Ġmet all
ĠLand s
189 3
ĠMir ror
Ġconce ived
ĠChand ler
Ġcontroll er
O ff
l ich
s chool
Ġt ertiary
er ry
Ġs iblings
Ġf ier
ĠT D
ĠM ining
ĠL ans
ĠAl ph
amp h
Ġ10 8
Ġnumber ing
ĠMer ced
Ġemploy er
Ġprem iership
ĠUr s
ĠPhilip pe
ĠLind say
iling ual
Ġastron omy
Ġinstru ctor
Ġdemonstr ate
ĠFrances co
Ġtradem ark
D NA
K B
a eda
h ouses
ĠH imal
Ġfor ested
ĠG one
Ġg ates
ag ogue
ĠAl most
Ġun ited
Ġun expected
ĠSh opping
Ġinter active
ier re
Ġrep airs
ĠComp anion
ĠHol iday
ĠBlack burn
Ġhold er
asc ar
ĠLim a
ĠGr ass
ĠFitz gerald
Ġveter ans
Ġderiv ative
ethel ess
) -
: #
? )
al one
Ġp el
ĠA ston
ĠH ok
ĠR iley
ĠL atter
ĠN est
ĠG ilm
ra il
Ġ" ...
Ġv oyage
land ers
ĠTh ous
for th
Ġsc hemes
ĠAn ch
ĠCon way
Ġseason al
ĠAm anda
Ã¨ res
Ġdestroy er
ĠSand ers
Ġprec urs
Ġcommemor ate
ĠCun ning
Ġsoc io
ĠTues day
m ain
Ġp ace
Ġp ipe
ĠS hen
ou st
ĠP az
ĠR are
ĠL SU
ĠF avor
od el
ec hes
Ġab olition
Ġsur pass
row ing
int osh
ĠMcC arthy
Ġarm or
ĠTerrit ories
Ġvalley s
Ġdeploy ment
Ñģ Ðº
ĠVik ing
ĠVik ings
Ġproport ional
b ins
ĠP erman
ov ed
cl amation
Ġplace ment
ĠChar ity
ĠÃ ĺ
ĠMart yr
ĠOb ject
Ġblock ed
Ġbox es
onom ous
ĠLow e
Ġquant ities
Ġdoub t
Ġlect ure
ĠDra ke
Ġpseud onym
Ġconstra ints
ĠSett lement
Ġdeter ior
A g
h ow
l argest
ä ¸
Ġb il
ĠS unn
ĠG os
oc o
Ġv ib
Ġte aches
Ġbro w
Ġterm in
Ġfre ed
Ġgrand mother
Ġsal v
ĠRun ner
Ġseem ed
ĠPil ot
Ġprompt ed
lik ely
Ġcruc ial
Ġaccompany ing
ĠVoc als
B el
I rish
f re
n ab
n ie
w rote
Ġw ake
Ġf ron
as an
ĠP u
ur ally
Ġn urse
ĠL ug
ĠN Z
ĠN umbers
ul ative
ĠY ok
ĠAr bor
Ġbl ank
Ġmet aph
Ġep onymous
ĠDep uties
ĠMart y
arent s
ĠLab rador
ĠVer lag
ĠUs ed
Ġbal let
Ġconsum ers
ĠBomb ay
ĠPant hers
Ġdemonst ration
ĠBark er
ĠMiddles ex
Ġlux ury
ĠBulld ogs
f ig
h ampton
Ï Ħ
Ġt une
ed itor
Ġf itness
ĠT ram
ou ch
ĠB it
am ar
ĠP ER
Ġsp rint
Ġun released
Ġout lets
Ġreg ulated
Ġdif fers
Ġexpl ore
Ġenc ourag
189 7
Ġobject ives
ĠSu ite
ĠMcG u
Ġhop ed
Ġsemif inals
Ġartif acts
9 00
g ood
o ire
Ġm aker
ĠH ubbard
ĠR CA
ĠN ixon
ĠW ere
Ġex cer
Ġr ally
ĠMar athon
ĠAd vert
Ġinc orrect
ĠCar men
ĠSe lected
Ġcame o
be k
Ġinvestig ated
ĠJackson ville
duct ive
ĠCarn ival
Ġdrain age
k ir
or ical
ing don
Ġd ella
ĠM aps
Ġl ens
ĠO uter
op us
Ġdis establ
ll i
Ġem issions
Ġfinal e
ĠVal ue
ĠLeg ends
ĠHead s
Th at
Ġdon ations
ĠCorn er
ĠCharl ton
Ġalt ar
ĠPatri ots
ĠEsp a
ĠGonz Ã¡
ĠSold ier
Ġmetab ol
Ġoverw hel
B P
h or
l is
Ġt aste
Ġo ak
ĠC Ã³
Ġd ances
Ġsp r
ack ing
Ġdes k
ĠZ ach
sh aw
ĠPr ussian
sp ace
Ġhead ing
ĠOl iv
Ġvir al
ye ong
ĠÅ ½
east ern
Ġille g
ĠCob b
Ġannounc er
S mith
g ars
v at
Ġin mates
ĠT omb
ĠC W
Ġd orm
ĠB old
Ġre formed
Ġl unar
ĠN H
ĠN ou
ist ically
ut ter
ĠK ens
ong ue
so on
ĠCom ing
ons on
ould er
att i
ĠPl atform
Ġchar itable
ĠEm ployment
oid al
ĠBeh ind
ĠDaw son
L L
p res
Ġa uxiliary
Ġf are
Ġb is
ĠT aj
ĠC ounter
ĠH MS
ĠR ust
ow l
Ġan arch
ĠK atherine
ure mberg
ĠTh ur
ind ers
Ġinter f
ev iÄĩ
Ġsub stitut
Ġfin anc
writ ers
Ġlearn s
Ġemb edded
ĠHy de
ĠMoh ammad
Ġinsc riptions
ĠCN N
ĠAur ora
Ġpromin ence
ĠVeter ans
Ġsover eign
E arly
T M
w eb
Ġin teger
ĠS ale
Ġd iving
ol ves
ol ving
el ius
ĠD ifferent
ĠG entle
ag han
Ġv end
Ġ4 50
Ġatt itude
Ġnum er
ring e
Ġsl ope
ĠChar leston
ĠQu inn
Ġsee ks
Ġmater nal
Ġspace craft
ĠArab ian
ĠColle ctions
ĠCop a
Ġcab in
Ġcompar able
Ġproceed s
Ġdiagn osis
Ġrecept or
Ġelder ly
Ġnit rogen
Ġunem ployment
R NA
v oice
Ù ħ
il is
ĠM s
Ġh ull
ĠP BA
ĠR w
ĠK amp
ian ces
Ġen orm
ĠWorld s
ĠBrit t
ĠPart s
Ġcomb ining
St ate
ĠHy per
ĠAC T
ĠTot tenham
ĠInvest ment
Ġsuperv ision
ĠSter ling
Ġdeclar ation
n ick
v ine
Ġ @
Ġ umb
ĠC i
ĠP ond
ĠH ub
et al
ĠF ritz
ĠU FO
ĠSt ones
rit ion
Ġac ute
Ġac claim
Ġsc orer
ĠX avier
int age
ĠAcadem ics
Ġhealth y
ĠJer ome
Ġceleb rations
Ġcontest ants
ĠBerg er
Ġancest ors
m or
w ords
Ġc ort
Ġf action
Ġ( $
ĠR AM
ĠG ong
ĠJ ump
ov ic
ĠY ard
ĠTh irty
Ġrel iable
ĠFl at
be it
ĠTechn ologies
ĠHon ours
ĠEv idence
188 7
ĠConf uc
ĠBry ant
cop ic
Ġscholar ly
Ġamb ig
Ġmonarch y
ĠMoz art
R ec
b ands
o ids
t ailed
on ge
ar ound
ĠS abb
Ġm aid
ĠN ed
ĠG le
ĠTh ink
Ġsc reens
we ed
ah i
ĠSp rint
Ġob st
Ġtr igg
.. ."
Ġgener ating
Ġpur ple
ĠTw ins
Ġpick s
uls a
ĠAlexand ra
ĠResp ons
E AR
Ġf iscal
ĠR ip
ĠCh ick
Ġsp anning
ĠTh ir
Ġall ied
ind ed
ĠSh im
ĠSh ap
Ġkn ows
Ġev ident
ĠMe adow
ĠAct ive
ĠAg u
Ġpres idents
ĠWe ber
ĠChe v
Ġcirc a
Ġec clesiastical
Ġquant ity
Ġconvent ions
ĠJama ican
Ġwatch ing
ĠEld er
Ġenact ed
ĠGonzÃ¡ lez
D M
V ol
r ÃŃ
Ġf ights
Ġb enz
ĠS ites
ĠT ac
ĠI k
ad ays
Ġn avy
eb urg
Ġtrans mitted
Ġfl ank
Ġadd s
ĠMon astery
Ġinvest ors
rif ied
Ġfavor able
uv ian
ĠOri oles
ĠEthiop ia
Ġliv estock
ĠGuatem ala
F P
N R
f em
o ise
w rights
Ġf ro
Ġto m
ĠM oy
ri o
ĠLe igh
Ġen closed
ĠIs ab
Ġspec ification
ĠSan ctuary
ĠMy ers
Ġpot tery
ĠJournal ism
ĠCare er
run ning
Ġresemb les
Ġtact ical
Ġcomplic ations
ĠParagu ay
ĠLein ster
f al
o at
s son
ĠM ate
ĠB ram
ly ss
Ġas ide
ĠJ as
ĠO vers
ĠV HS
Ġr idge
ĠHe ather
ĠReg ular
ĠAss y
ĠMed ic
Ġmin erals
Ġline age
uff s
ĠCur ling
Ġstri kes
188 5
ĠVen us
Ġconcent rations
ĠRap id
ĠInvest ig
Ġt ap
is or
Ġb ills
ĠThe ology
ĠR ag
ĠR amb
ĠW ong
Ġv ig
ie g
Ġar ist
ik k
ee le
ĠAss istance
ĠBro ken
ĠSw ord
Ġcare ers
Ġequ ality
Ġcountry side
ĠLim erick
Ġdisp utes
Ġcolumn ist
Ġattract ive
Ġiniti atives
occ up
ĠJen kins
Ġprecip itation
ĠKazakh stan
Ġs oprano
Ġl ith
ĠD uk
ĠL iang
ĠW are
Ġas pir
ĠE vel
Ġsh rine
ĠAust ro
Ġmat ure
sc apes
Ġport folio
Ġant ip
Ġfact ories
Ġmission aries
ĠId ol
Ġcontest ant
ĠSlov ak
Ġaccommod ation
ĠAnim ation
ĠIb n
Ġbapt ism
ĠJur assic
h orse
s an
w on
Ê Ķ
ar am
Ġp ent
Ġm elt
ĠM enn
et ter
ĠG ore
Ġth rown
Ġst range
ĠCh ambers
Ġmed ial
Ġbus h
ĠWilliam son
ĠGar c
utt gart
Ġaddress es
Ġhar sh
Ġgall eries
Ġcomplic ated
ĠPoly techn
ĠBirth day
ĠWik ipedia
Ġ ump
is bury
Ġn ursing
um per
ab s
ven ile
ĠArt icles
Ġpres um
Ġaver aged
ĠJud y
Ġpen alties
Ġsynt hetic
ĠRang er
Ġcert ificate
Ġupd ate
ĠSign al
Ġpron unciation
ĠTit le
Ġfrag ments
cut ta
ĠPasc al
F rom
b ors
h ot
al ore
it ated
ĠP aw
Ġl ighter
id an
ak is
ĠIs les
ĠMay a
eng ine
ĠGo ing
Ġcommercial s
ĠFam ous
Ġprotect ing
ĠWolf gang
Ġton nes
Ġdioces es
ĠGuj arat
P resident
l iter
Ê »
Ù Ī
Ġin ning
ĠS ales
Ġd up
Ġd ens
ĠF ischer
Ġg ig
ell es
Ġad vances
Ġyear ly
Ġcomm ands
ple x
ung a
Ġlast ing
Ġauthor ed
Ġconf idence
ij k
Ġkey s
Ġrespons es
ĠAut om
ĠWrit ten
Ġtele communications
Ġcam eras
ĠAbd ullah
ĠAssoci ates
Ġancest or
Ġsubstant ially
ĠLis bon
ĠGovern ors
ĠLif etime
Ġris ks
Ġcancel ed
Ġelector ate
N or
S al
k ok
å ¤
on ents
as ian
ent in
ĠR B
ĠN W
Ġde er
Ġch ord
Ġam ended
Ġgu ards
Ġcre st
Ġline backer
ĠTom orrow
ĠScot Rail
str Ã¶m
ĠTw ilight
ortun ately
Ġchemical s
ĠFa ust
ĠLank an
Ġisol ation
Ġbatter ies
L I
T ime
f red
Ġ uran
Ġt ends
Ġb omber
od ic
ort ed
Ġch a
se in
ĠCal der
Ġnational ist
Ġsl alom
Ġav ailability
Ġpri zes
Ġdiv ine
Ġins pe
ĠVer de
ĠWeb ster
ĠOpen ing
Ġdeep ly
ĠFle m
Ġox ide
Ġrecon naissance
Ġfram es
Ġexerc ises
Ġvow els
ĠBatt les
D ec
H ol
u ity
or ie
ĠT ah
ĠH yp
ĠD ogs
ĠL ance
ĠJ ag
op f
Ġprov iders
Ġmed ic
ĠGl ory
Ġtrack ing
aff e
Ġvol untary
Ġadv ised
ĠInter est
Ġlo osely
ĠJo ey
Ġcontra cted
ĠMult i
ĠExper ience
Ġpharm ac
geme inde
n ormal
Ġt unnels
Ġthe ological
Ġf ract
Ġto pped
ĠB agh
ĠH iggins
ĠN uremberg
ort e
Ġde alt
Ġres ided
pl an
ĠCl arence
inist er
Ġrep ublic
arm ed
Ġany where
ĠHer r
Ġweb sites
pro duction
ĠSmith sonian
Ġpred icted
Ġfra ction
Ġpromin ently
Ġhapp ens
ĠElectron ics
ĠDeclar ation
C he
Ġw artime
ĠT ran
ĠT urb
le w
Ġh iatus
ĠD up
ra pe
ĠK O
ĠK abul
ĠV ald
Ġreg ulatory
ograph ies
ĠTra vis
Ġpost p
Ġtw elfth
ĠGal axy
ĠJes uit
Ġhang ing
ĠInstr uments
ĠCongreg ation
ĠMÄģ ori
G ood
H ead
T H
s u
ol fer
ig raph
ĠG ov
ĠIn iti
ab i
ĠV era
ĠPh ase
Ġam id
Ġph ases
10 5
ĠSy nd
ĠVol vo
ĠSam oa
ĠEmp ress
Ġexecut ives
ĠLat ino
Ġbr ut
Ġunsuccess fully
ĠFly ers
ĠKos ovo
Ġendors ed
Ġamalg am
ĠMikh ail
P ol
ĠT il
ĠC ull
Ġd ys
Ġh alls
ĠB ac
ĠI B
Ġl over
ĠN E
ĠG unn
ĠUn cle
ack er
ough ton
Ġqu ot
ĠNo el
Ġorgan ize
Ġinst ant
ĠMe h
ĠAct ivities
ĠSch ne
Ġadv ocated
road s
ĠHel m
ĠJud ith
oura ge
place ment
Ġquestion ed
Ġsan ction
ĠQual ity
Ġpregn ant
ĠShep herd
Ġtelev ised
e aux
f i
m atic
z on
an or
ĠM O
ĠP ag
ĠH ers
ĠN R
ot ive
op a
od i
ĠSt anding
ich t
Ġsp here
ĠAn ita
ĠBl ade
Ġtrans action
by e
ĠCar son
Ġsl ide
Ġcomb ine
ĠSal isbury
play ed
Ġhard cover
ĠSol id
ĠColle giate
Ġcorrespond ent
ĠSoutheast ern
ĠCamer oon
ĠBud apest
W ho
g ren
is se
ĠT ap
ĠH enn
ĠL uck
ĠF ry
ĠN O
ĠG esch
ver n
ac io
Ġv arsity
Ġra pe
cy l
ĠTe a
Ġint act
Ġbas al
ĠFranc isc
Ġbomb s
ĠCirc us
Ġpartn ered
ĠÅ Į
ĠÎ ²
ĠHy der
Ġspons ors
Ġce ase
Ġpitch ing
Ġaccur acy
ĠParam ount
S y
y ar
ĠS D
ĠC ats
il ization
ĠJ et
ĠAl to
Ġcl erk
ĠAr r
ĠSc ript
ĠCl aus
ĠCo ch
uff icient
ĠPer fect
Ġarch bishop
ele st
Ġevery day
ĠLight ning
omot ive
Ġir rig
Sp anish
ĠBart on
ĠTan z
ĠPear son
Ġnom inee
EE E
ĠFas o
ĠTeh ran
Ġdisestabl ishments
' "
ĠS ept
ĠM ud
ĠF ashion
ĠG ru
ĠE MI
os ity
ast eries
Ġ18 21
ember g
ĠSh ak
Ġloc als
Ġinter ference
Ġmon k
Ġdesign ers
vent h
ĠAnd alus
ink i
ĠBy ron
Ġship ped
ĠUr du
Ġsum mar
ĠAsh ley
Ar ch
Ġpath s
urd ays
ĠSav age
ĠWin chester
Ġdisapp oint
Ġfoss ils
m ant
s ometimes
v iol
Ġs aving
Ġm ouse
ĠH itch
ĠD Ã©
ay ing
ul ators
ĠK and
ong o
ĠTh orn
ĠAr row
pl ant
ram id
Ġtra ced
ĠPark way
ĠGl ac
Ġsk illed
tain ing
Ġinf ections
Ġsuff er
Ġjud gment
ĠHaw kins
ĠRepublican s
ĠBos nian
Ġcarri ers
yt es
AN U
ĠEvery thing
ĠRick y
Ġinduct ees
ĠOkin awa
+ +
R ich
f ts
x ico
or ers
Ġm eter
ĠP ash
ĠR um
ĠG n
ĠJ ill
ĠO le
Ġcon stitute
ĠY as
ĠSp ot
Ġrel uct
ĠAf rika
Ġdem olition
Ġinf inite
ĠTur in
ĠSa unders
Ġwood land
ĠArm oured
raf ted
Ġchlor ide
ĠMeet ing
ĠPomer anian
Ġs ends
ĠS op
ĠT et
ĠA uxiliary
Ġh orm
Ġg entle
em ia
Ġcomm uter
ĠSh arp
Ġmod ifications
Ġint ensity
Ġcor p
Ġprim itive
ĠRh in
Ġeight een
ĠEnter prises
ĠSand ra
ĠCra zy
uther land
Ġcycl ist
ĠPant her
Ġaffect ing
Ġabund ant
? ,
Ù Ĭ
er os
Ġs ometime
ol om
ĠL uz
Ġcon sole
Ġde ceased
ug ged
Ġex ports
ĠAr lington
ĠSc ulpt
ĠCar bon
ĠHigh lands
Ġequ ity
Ġview ing
ĠHow e
ĠCongress ional
ĠLat vian
ĠJane iro
Ġcorpor ations
Ġpractition ers
C ategory
L ife
at an
ar f
Ġc rafts
ĠS W
ĠR over
ĠW yn
Ġcon fluence
Ġv est
ment ation
ust ain
ĠUn ions
Ġr ides
ĠY osh
Ġcont ing
Ġsc ales
Ġqu arters
ĠBe an
ĠTra ins
ĠVol ks
ĠMuseum s
Ġvir uses
Ġdeterm ining
Ġrat ified
ĠWell es
Ġflow ing
Ġcompl aints
Ġdoll ar
Ġdisapp ear
ĠCitiz en
ĠVaugh an
ĠPerman ent
s pring
w ara
Ġ ×
Ġc rystal
ĠC ors
le ading
Ġd ining
ĠM eat
ĠM ouse
ĠD ir
ĠL oth
ir ling
ĠV and
Ġr iders
Ġres olved
red itation
ĠSh i
Ġ17 76
Ġinv aded
Ġmon ster
ĠHer c
ĠEm ploy
ym e
Ġcult ivation
ĠBu zz
Ġlif ted
ĠEnt ry
author ed
N Y
f est
Å Ł
Ġw reck
ĠT ian
ĠC rew
ĠM ets
ĠM orm
Ġre ly
ut ers
ĠE rie
Ġcon dom
ĠV ig
Ġen abling
ann ers
18 80
ĠAm bassadors
ĠRe ader
ĠCal cutta
Ġprom ise
Ġpost al
Ġfre ely
Ġsimilar ities
Ġfact s
ĠGod s
188 2
ĠWat kins
ĠNic arag
Ġsand stone
ĠVolunte er
ĠLump ur
R adio
T U
c ence
g ender
t re
y u
it ism
ĠS G
ĠS erg
Ġm apping
ĠB odies
ĠP ip
ĠL oss
ĠF rog
Ġst ead
ĠK ern
Ġsp rings
Ġun ity
Ġpart ition
ult on
ĠJoh an
ily n
ĠGe ographic
ĠAss essment
Ġdr unk
ote chn
ĠStev enson
Ġscreen ing
ograp hed
Ġreason able
ordin ate
Le ague
Ġaccident ally
ĠÄ Ĳ
Ġprol ific
1 10
b irds
c ience
ar ie
Ġs unk
Ġb ind
Ġp orn
Ġp owder
ĠC ot
ĠM ih
ĠP ig
ĠH os
Ġch aired
rit e
clud e
ĠSh o
ĠCl ose
Ġcur ves
com ed
ari at
ĠGeorg etown
Ġreb el
ĠSat urdays
ouri er
Ġpurs uit
enh ower
Ġchalleng ing
Ġparam eter
isp here
Ġdors al
F F
b ahn
d or
s i
Ġc ement
ĠS essions
ĠC umberland
Ġm m
el man
ĠR M
ĠR enn
ĠD ag
ĠIn ner
ĠK ob
ine es
rit t
Ġtra ff
ĠEd it
ĠEd ited
Ġ11 5
Ã¡ l
Ġlaw yers
lo aded
oura ble
ĠHu bert
ĠAud i
Ġjurisd ictions
ĠArchae ology
ĠByr ne
ĠGarc ÃŃa
B R
C amb
L O
M er
P I
d ad
ĠI ber
Ġl ord
ĠF ury
ĠW an
ĠW ak
ĠE z
uc ed
Ġle ased
Ġun official
Ġqu artet
Ġmod ule
Ġgu idelines
ĠEuro pa
Ġdesc riptions
Ġob vious
ĠX en
Ch ief
Ġaud itorium
Ġcy cles
ĠSat urn
Ġscreen plays
ĠEp ic
Ġmig rated
ĠRhe in
Ġnarrow ly
Ñģ ÑĤ
Ġadvis ory
Ġlov ed
Ġuncertain ty
wid th
ĠCunning ham
Ġuran ium
w ear
er land
ĠP ablo
ĠH ipp
ĠW o
Ġg ains
un ion
are z
ĠCon ne
ll a
Ġass ume
ĠWar hol
ĠAm endments
ĠEd itions
Ġbus y
ĠBel ize
Ġspecial ty
Ġdest inations
ĠBur lington
Ġreb ounds
Ġpay ments
bre aking
ĠBelarus ian
Ġsubmar ines
Ġrecommend ations
Ġcondem ned
ĠPER FOR
à ¯
he ars
Ġc ov
Ġc ott
ĠA ar
Ġto uc
ĠB ess
Ġre ef
ĠR BI
Ġg ly
ĠO v
ĠO val
ĠV A
ĠV ince
Ġ18 14
Ġcl uster
te b
ĠDe er
urn ed
ĠZ ap
ys ics
ĠAnt iqu
Ġport al
Ġfund ra
mar ine
Ġden otes
ĠHuman ities
ĠPers ons
ĠWat ts
met re
Le od
Ġadvent ures
Ġtact ics
ĠClif ton
Ġpropag anda
Ġbord ered
E p
W ith
j as
m eter
w en
Ġf u
ĠS ach
ĠP R
ĠI ch
ĠD ru
ĠF CC
ĠN ut
ĠW att
oc us
ĠU z
ĠSt alin
iz ards
ck er
Ġunder water
Ġsup ern
ĠWh itt
ys c
ĠBar th
ĠDes mond
Ġcomb ines
Ġins urg
Ġsex ually
Ġexcept ions
Ã¨ ne
ĠDev ils
ĠBudd y
ĠCas ino
olec ular
ĠBox ing
ĠGran ada
Ġveget ables
Ġsed iment
Ġbarri er
Ġremn ants
B ra
G e
J ack
P D
k l
m ov
nd er
Ġd il
ĠM W
ĠP eg
ĠD iss
ĠD ancing
ĠL ik
ĠO ften
ĠK A
ress ing
Ġinter ven
Ġover th
ĠCan cer
Ġmod est
ĠIntern al
omb e
Ġarch ives
Ġemploy s
ĠMad h
ĠPe er
sy stem
Ġge ography
188 3
Ġconvers ation
Ġwat ched
ĠMÃ© xico
Ġremark able
ĠMight y
V O
b ons
c ery
i ator
Ã ²
Ġt u
an mar
ĠT ina
ĠT usc
ĠC ove
le ctions
ĠM orton
ĠM VP
im ar
un til
ĠE gg
ter dam
ew ide
Ġrec ount
ĠCl ar
Ġpubl ishers
inn ings
Ġsub str
Ġsup ermark
sh ort
ĠPl at
Ġam endment
Ġ16 00
ĠFl ower
Ġcor rel
Ġred ist
Ġdeal er
Ġcompos ite
ĠArchitect s
ĠComb ined
ĠInvest igation
ĠCarm el
ĠTibet an
Ġreven ge
M c
M art
Ð ¼
Ġb iblical
ou g
ĠH ands
ĠG ert
ill in
ĠY i
ĠY ak
Ġk ids
Ġapp lying
eb ack
Ġrel ax
Ġdec ree
ĠRe agan
Ġsim ulation
Ġlist ening
Ġdeg rad
Ġconv iction
Ġsuper intendent
Ġlength s
ĠAut umn
ĠRome o
Ġbad ly
ĠPur ple
Ġgar rison
Ġverte bra
Ġdwell ings
ĠKais er
M a
l ate
y ards
Ð ¹
ar se
Ġin quiry
es ian
ĠR i
ĠR IC
ĠD iplom
ĠN ue
ĠG ould
Ġan k
ĠUn known
ric anes
fl ower
ple ments
Ġequ ilibrium
ĠFre ed
ĠJo aqu
ĠEll iot
ĠHor ror
ĠNic olas
Ġkingdom s
Ġsupposed ly
Ġsulf ur
ĠProvision al
R ober
a ft
Ġa ka
ing wood
ĠT eng
ĠB ax
ĠP ike
Ġun t
Ġcomm anding
rict ion
ĠBrown e
ĠWater loo
Ġce iling
ĠMans field
Ġatmosp heric
ĠCred its
ĠLot us
Ġsumm ary
Ġske leton
M ER
c amp
Ġt ension
ĠM use
ĠM ald
ch s
ĠR ath
im m
qu is
ick er
Ġpolit ically
ĠTrans itional
ĠMy anmar
be ing
udd y
Ġweek day
ĠCle m
ĠAnth ology
bl ack
ĠNaz is
Ġneighborhood s
ĠTel ugu
Ġpione ering
Ġinstall ations
Ġped estrian
ĠSwan sea
Ġbotan ist
Ġconsolid ated
S ee
f und
n ance
r pm
v ae
Ġs olic
ic iary
ir able
os i
ĠY emen
ĠAl ien
ĠSh ank
ĠNo ah
Ġinv ested
Ġinv itation
ĠAm os
ĠEx eter
osition s
ĠEm bass
Ġanal ys
ĠJud icial
Ġorganiz ing
Ġphenomen a
ĠCert ificate
Ġdecommission ed
c s
er ation
on ies
Ġb ip
ab al
Ġag gressive
Ġim aging
ĠSh ark
Ġup ris
ĠReg ina
ĠAng us
Ġnon profit
ym met
Ġlo ose
ĠBo one
ĠRet ail
ĠDun edin
Ġsu ite
ĠRivers ide
omorph ic
ĠAub urn
H ist
d ou
ĠH T
us er
Ġst ems
ĠV ul
rit ies
Ġsh irt
Ġun rest
Ġun likely
Ġoff shore
ĠAt omic
ĠAb ram
ĠRes ource
Ġsk ate
ÃŃ k
Ġeffect iveness
Ġrock y
ĠEv ents
ĠBab ylon
Ġstop ping
ĠReb ellion
ĠCart oon
Ġmist aken
ĠMagn us
Ġgymn astics
Ġautonom y
Ġannex ed
ĠDund ee
Ġnas al
D own
P O
ĠS ega
ĠL ub
ce ans
ay as
Ġg ifts
ĠSt ap
Ġor gans
Ġres emble
Ġbu ying
Ġrefer enced
ĠVal encia
ĠTom atoes
ĠArm agh
Ġcell ular
Ġmach inery
ĠKer r
ĠCommand ers
Ġprec ise
Ġdeleg ates
ĠDrum mond
ĠEis enhower
ĠDian e
C oll
L ate
N O
P ac
S m
l ide
t ec
in ance
Ġc av
Ġm aj
Ġd ign
Ġre per
ĠD ion
ĠF ate
ĠN ie
Ġ18 25
Ġcr ust
Ġant is
Ġcirc uits
ĠPre par
Ġtro op
ĠFort une
Ġrom ance
ĠResc ue
D el
f ax
n ote
at ile
ĠC airo
el en
ĠR T
ĠN aw
Ġg arn
od ied
ĠSt uttgart
Ġper ception
Ġass ert
Ġtrans actions
Ġoper as
ĠEurope ans
rop y
com be
Ã¡ d
aul ts
rol ogy
Ġgener als
Ġmag ical
Ġvol canic
ĠRob bie
ĠOper ator
Ġtre as
Ġqual ities
In ternational
ĠElect rical
lit re
ĠLaure nt
ĠMarket ing
ĠSteel ers
ĠIv y
trans l
ĠFro st
Ġtru ly
ĠMcCart ney
) ".
A S
A ir
I reland
L and
g reat
ĠS ut
Ġh ide
Ġre pt
ĠR ally
ĠF en
ul er
ul ance
ill ary
ess ing
end ra
ĠAl am
Ġcont rad
ress es
ĠPro ced
Ġhigh lights
Ġfin ishes
ĠPer uvian
omet ry
ĠWal ton
ĠProgram ming
ĠTal mud
ĠTal bot
ĠCare y
Ġproceed ed
commun ication
Ġexplos ive
Ġrepr inted
ĠAppro ximately
music ian
T wo
a q
g rass
t hem
Ġb out
ĠT ulsa
ĠA val
ĠM uss
ĠP iper
Ġe ase
ĠE arn
aw ks
Ġsub stances
ĠMan ual
ĠPart icip
ĠAnt rim
Ġstat ues
Ġbre ath
ĠBill s
ĠCons ort
Ġread ily
Ġsoft ball
Ġstadium s
Ġinstitut ional
Ġdro pping
Ġflag s
ĠHans en
Ġfolk lore
Can ada
pat rick
Ġbes ide
ĠNiss an
B ook
c roft
h ole
s ize
Ñ Į
Ġd rops
Ġn i
ĠD irty
Ġe clipse
ul ing
ĠCh o
ĠCh atham
ong a
end on
ant o
Ġr ider
Ġcl ause
ach ute
iss ues
ĠSc ene
ĠQ ing
Ġtr unk
ĠPhil osophical
Ġident ifying
ĠOl ive
ĠPrem iership
lyn n
Ġsurrend ered
ĠSabb ath
ĠEmbass y
T r
h p
u o
he res
it ian
ĠS utherland
Ġd ressed
ĠM ugh
ĠH ag
ĠG ue
ĠW imb
ĠK urd
ĠSt amp
end orf
Ġex cluded
Ġex pense
se ction
Ġ18 19
ĠCon vent
Ġsub way
10 2
Ġlocal ities
Ġreal m
Ġaccount ed
ĠGar rett
ĠJul iet
Ġdiscuss es
Ġadj oin
Ġsucceed ing
Ġhero es
keep ing
Ġspot ted
ĠPack ers
chang ed
Ġdestro ying
c ross
Ø ±
Ġw ishes
Ġin equ
is ans
es que
ĠS ounds
le ague
ĠM its
ĠP K
ĠH C
ĠR az
ĠF ris
res hold
Ġde ity
ĠAl one
ĠAn aly
Ġbro ader
ott i
ĠGl oria
ĠLand mark
ĠCarl isle
Ġimpro v
Ġche f
ĠWild erness
ĠBh ut
utt ing
Ġmagn et
ĠPriv y
Ġlisten ers
P ierre
f rey
s igned
ï ½
an z
it ate
Ġto w
ĠM GM
ĠB ury
ĠI R
ĠR Ã©
id y
ĠW ide
ĠO u
ud s
Ġse greg
og h
ĠUn f
ob ic
Ġra ids
Ġrem ake
ĠMon key
Ġob s
com b
ĠSch les
Ġval ve
ĠCont ract
Ġinf ected
ĠGo als
ĠUSA F
ĠJac qu
ĠBrad y
Ġcorrespond s
Ġsyn onym
Ġavo ided
Ġdisch arge
Ġswe ep
ĠDolph ins
c us
c urrent
Î »
it ively
Ġw alks
Ġb und
Ġp m
Ġd ent
ĠD aughter
ĠD odge
ĠW elfare
ĠE asy
ĠV ia
Ġle x
Ġres ist
18 70
Ġass et
Ġ17 0
ĠPl ans
Ġdif f
fess ional
ĠHar lem
ĠAnt ony
Ġviol ation
Ġdocument ation
Ġeth ical
188 4
ĠLev y
ĠDerby shire
ĠRub y
Ġenl arged
Ø§ ÙĦ
atri ates
Ġfrog s
ĠReserv oir
c ie
e ig
es on
Ġp our
ĠS oprano
Ġm ock
ĠB ash
ĠD res
ĠL amp
ĠL oh
ĠN WA
ow ell
ip ment
ĠAr ama
ib ia
Ġtra p
ĠPro duced
ex pl
ĠCon fl
rib le
Ġrel ie
omet ric
ĠKn own
ĠTer race
ĠMil k
oper ative
Ã¤ t
Ġplant ation
Ġimm une
bra him
Ġstream ing
Ġreflect ing
Ġinfl ation
Ġincorpor ates
ĠSie ge
Ġconstra int
Ġpolyn omial
ĠHels inki
C R
F ar
Ġ ions
er d
at hetic
Ġf ever
Ġto y
Ġd os
om ach
ĠH ut
ly s
ĠW ey
ul in
ac ritic
ab har
Ġsp o
ok i
Ġen erg
Ġdef ining
ĠFl ood
ĠRec urring
ĠPar a
Ġcolle giate
ĠMark ets
aken ing
ĠTer esa
Ġec ological
ĠOd ys
ĠRap ids
Ġrevers ed
ĠBenedict ine
ĠHern Ã¡ndez
ĠPars ons
ĠNass au
Ù İ
Ġc ran
ĠM oll
ĠB rief
ĠP ension
ĠH ogan
ĠR ash
ĠN L
and an
ĠCh ola
Ġpl ague
Ġsp irits
ĠY ong
ĠMar ilyn
ung s
ĠApp lic
Ġdecl ining
Ġtax i
Ġdefeat s
188 1
Ġcard inal
ĠBorn eo
Ġbig ger
Ġliber ation
Ġvac uum
Ġsan ctuary
Ġmarg inal
Ġpossess ed
ĠLib ya
erne ath
ĠSlav ic
Ġtub es
Ġnerv ous
ĠTuc son
H D
O rig
R em
f its
Ġb anner
Ġm alls
ĠM iz
ĠR ous
ĠR uther
ĠF ind
ĠG ob
ĠK ub
ĠK idd
Ġ18 16
sh i
Ġcomple ment
ĠEl ite
ĠMy st
Ġaud ition
Ġball oon
AR T
ĠWrit er
Ġfort une
Ġrecon c
Ġaband on
Ġlicens ing
Ġrenov ations
U M
ĠC el
ĠD ix
ĠF on
ig l
Ġg olfer
ĠSt ur
ap ter
end ale
Ġsh apes
Ġplay wrights
to ire
Ġ17 75
Ġarch ipelago
ĠMad ras
Ġfe els
Ġautom otive
Ġult imate
ĠTy rone
ĠKl aus
ĠBrand enburg
ĠRand all
ĠRand olph
ĠBeck er
Ġaqu atic
ĠHod g
Ġdenomin ations
Ġorchest ral
Ġsoph istic
S up
W ork
in isc
Ġw or
Ġc ry
ĠM ord
ĠH es
ĠR iding
ĠL oy
ĠL akers
ĠW ex
ĠE h
ud ed
end e
ĠSh awn
Ġret riev
eth oven
Ġbl ow
Ġbl ast
Ġcap ac
Ġfin est
Ġ0 1
Ġprocess ors
Ġpromot es
Ġbank er
Ġmax im
ĠBah amas
ĠLaure n
Ġmand ate
Ġjump ing
D O
O x
c io
t w
Ã ¬
Î µ
Ġt ang
he id
an ol
st a
Ġm eth
Ġd ental
Ġl ion
op ia
ort al
Ġr ic
Ġsh oes
iz able
ĠX II
ĠBr ass
Ġimp ressed
Ġfinal ist
Ġcor ridor
Ġcult ivated
Ġgen ome
ographer s
ĠTrib e
je ctions
West phalia
Ġadvoc acy
Ġmart yr
ĠPrison ers
Ġdispl aced
ĠDeuts ch
ĠUg anda
gener ation
eli hood
antan amo
Ġenorm ous
w al
Ġ à¤
ĠB oll
ĠR oh
ĠD Ã¼
im eter
Ġst air
ĠO ra
Ġ18 27
ach im
oth ic
ĠAd a
ford shire
ĠSw ift
Ġgovernment al
Ġnorth bound
Ġelect rons
Ġpe aking
Ġplan ets
ĠSpe ech
cont rolled
ĠRen ew
Ġdefin itions
ĠFal cons
ĠBomb ardment
ĠPas o
Ġlimit ations
ĠKill er
Ġswitch ing
ĠInteg rated
dire ctor
ĠGand hi
ĠPolytechn ic
eig nt
B re
M od
h aul
h tt
l ook
p rop
s by
z ar
Ù Ĩ
Ġt ales
on ite
st ick
es pecially
Ġb ic
Ġp ix
Ġre habilitation
ĠH esse
ĠD ad
ĠO R
ĠK ro
ĠSt ro
Ġpl asma
ĠMar ina
ace y
Ġteam mates
Ġsur veillance
ĠBar r
ĠGu est
ĠGu antanamo
Ġter restrial
ĠCons umer
Ġoccup ies
Ġwood s
ĠCoast al
Ġkeep s
Ġ180 3
ĠSil ent
ĠPass ion
col or
Ġrout ine
Ġexcess ive
Ġingred ients
ĠBahÃ¡Ê¼ ÃŃ
ĠConstantin ople
romagn etic
h ang
n ear
Ġo wing
Ġc ivic
ic ism
ĠT ud
ĠB land
ĠH och
ur able
ĠD O
ĠD raw
ĠE y
ul ine
Ġ18 24
ĠLe one
ĠZ a
Ġday time
ĠMusic ians
ĠDon na
Ġbirth place
ĠHa iti
Ġhol idays
Ġuniform s
ĠSold iers
Ġpregn ancy
d f
l ance
he ts
as aki
ĠS ears
ro tt
ĠH ole
Ġfor um
Ġg aming
th ia
res c
Ġsp ite
ĠAl ps
18 75
18 78
Ġinv as
Ġne o
ĠAir ways
ĠTrans fer
Ġ/ /
ĠKn ock
ĠMer cy
ĠAp ache
Ġcreat ure
ĠColl ingwood
188 6
Ġdiscuss ing
ĠAut onomous
Ġap olog
Ġimpact s
Ġfresh water
ĠSpirit ual
Ġobtain ing
Ġorb ital
Ġcryst all
ĠUtt ar
ĠMerced es
eignt y
m g
Î ¼
Ġp aired
Ġm osa
ĠP ure
Ġn oun
ĠF eb
ot al
ĠJ iang
th y
all i
Ġ18 29
ound ing
ĠCl ock
ĠQ uran
Ġmon asteries
Ġref uses
Ġaddition s
Ġvol cano
unt a
ĠCr ash
Ar thur
ĠShip ping
Ġax i
Ġworksh op
ĠPione er
B ack
Ġs acked
ic ond
ĠS aul
ĠM ant
ĠG el
ĠW ife
ec raft
ard ing
ĠUn ity
ep age
ost a
ĠDe velop
ied er
ĠCon sequently
ener ation
ĠPh oto
Ġshow c
ĠSw ing
ĠSy mb
Ġresp ected
Ġmark er
tt emberg
St ud
Ġemploy ers
Ġcivil ization
Ġtreat ments
Ġput s
Ġsum mon
Ġdro wn
oz o
Ġsubs et
Ġpros ecution
Ġmel ody
Ġterror ism
Ġevolution ary
Ġhur ricane
ĠRout ledge
I m
b ee
at ore
ĠC ertain
ĠB ri
ĠI rene
ĠI EEE
Ġal pha
ain ted
ĠV ert
18 68
ĠInd y
Ġqu it
Ġfin ancing
ĠRep orter
Ġ11 3
ĠMc P
ĠWe iss
min ton
Ġpersonal ities
ĠPers ia
Ġbomb ers
ĠAbb ott
Ġpet roleum
Ġpeace ful
Ġseem ingly
Ġhighlight ed
ĠBrem en
ĠBurk ina
M ac
u ya
it ance
Ġw ears
ĠS onic
ĠB in
ow o
ĠE sk
ĠK ins
ry l
Ġ18 28
Ġ5 000
Ġfl ora
Ġdo zens
Ġann ot
ĠSch olar
Ġrequ ests
Ġdown stream
Ġproject ed
ĠKir by
ĠGree ks
ĠOri ent
ĠAer ospace
Ġutil ized
Ġbutter flies
ĠSchm idt
cul osis
ĠLaf ayette
ĠAntig ua
F ees
N et
b rough
à ¦
Ġt rom
or an
or io
re cted
Ġs ings
Ġf ed
ĠS iber
Ġto ugh
Ġre struct
Ġl oud
ĠF eather
ĠN ero
ĠG es
um ont
Ġal ly
ĠK od
Ġor e
ount ers
Ġinter rupted
Ġatt ained
ĠAm ber
ĠBar ber
Ġ11 2
Ġstat ewide
Ġthough ts
Äģ n
rael i
ĠSom ething
ĠTy ne
ĠTerrit orial
Ġconsult ing
Ġreact ors
Ġtas ked
ĠFerr ari
Ġaster oid
M iss
d eg
o ften
Ġ ul
ĠC L
ĠC umm
ĠP ueb
Ġl unch
ul ent
ag ascar
ĠIn to
ric ular
Ġim per
18 65
ĠCount ries
Ġexp ired
led on
Ġsl ogan
Ġcolle ctors
Ġsouth bound
ĠSl am
och ond
ĠPre c
ĠAv iv
ĠEv a
Ġviol ations
ĠGood man
Ġmem ories
Ġarm our
Ġgovern ance
ĠBh ar
ĠTreat ment
Ġgran ite
Ġcollect ively
Ġcalc ium
ĠTrib ute
Ġlaunch ing
Ġelim inate
ĠRest oration
Ġrein forced
ĠVenezuel an
Ġincorpor ate
ĠÃģ lv
ĠKun st
Ġorn ith
ĠBerk shire
Ġattribut es
f ar
g t
n one
Ġt ar
ĠC aval
ĠN ights
ĠW K
ĠE A
ĠE uc
Ġbe ats
ul ia
od ont
ĠY EAR
Ġ18 18
ah ar
aj o
ĠFor g
ĠAugust a
ble ms
Ġpass ive
ĠHer b
ĠAct ors
ĠGl ad
Ġhold ers
Ġbrand ing
Ġmer ge
ĠKey nes
Ġexam ined
ĠScient ology
Ġfresh man
harm a
Ġinse ct
ĠWarri or
Ġeat en
ĠMahar ashtra
ĠPlate au
Ġarbit rary
Ġjew el
Ġammon ia
i aries
l ord
s w
or b
Ġs ear
ĠS ew
ĠT ort
Ġh ook
ĠB I
Ġl ymph
ĠD ors
ĠW ish
ĠCh orus
Ġro d
ah r
ĠSh adows
Ġup set
Ġmon key
Ġexp atriates
ĠAll ah
ĠGreen land
Ġfire arms
ĠInc re
ĠBang kok
Ġportray al
ĠLor enzo
ĠTele communications
Ġpoly mer
Ġdeleg ation
Ġlov es
xi ety
Ġloyal ty
Ġnut ri
ĠIceland ic
ĠVari ety
ĠNiel sen
ĠCÃ³ rd
X X
h ak
j ack
Ġ å
Ġt rem
at um
ĠB ian
ĠB anner
ĠB enny
ĠH are
ad as
et us
Ġsp aw
Ġover come
Ġund ef
Ġmed ication
Ġem ail
fl oor
Ġspecial izing
Ġpriv at
ĠDi ary
ĠSat an
Ġche er
Ġscreen ed
ĠStr ath
Ġemer gence
Ã¼r ttemberg
Ġsevent een
ĠOrd ers
Ġtor pedo
Ġteen age
Ġreun ion
Ġtribut aries
Col umb
Ġrecommend ation
Ġcoord ination
ĠEdu ardo
ĠRook ie
ĠHyder abad
G et
c oll
Ġt s
ic os
ĠS au
ĠS ector
ĠA u
Ġto oth
ĠM ersey
Ġh atch
ĠH ence
ig ma
Ġth y
ul as
ert ation
Ġdisc ount
Ġtechn ological
ĠGreen wich
Ġenc ounters
Ġagre es
Amer ica
ĠTim or
Ġfe ast
Ġemb arked
ĠPass enger
Ġrank ings
ĠWhe at
ĠSi oux
Ġexpert ise
Ġconstitut ed
Ġenzym e
Ġconson ant
ĠDuc hess
ĠHumph rey
ĠHerc ules
M ed
f unction
t rad
Ġ icon
Ġf ilt
le af
ĠP oor
ĠW ich
ay ed
ow ment
Ġit al
Ġsp y
Ġcl ade
any a
ĠSh iva
ĠZ immer
oun ge
Ġind ef
Ġint ra
Ġsystem atic
Ġdesign ing
Ġsm ugg
ĠTr uck
Ġhand ful
ĠMart ine
ĠBet a
Ġadapt ations
Ġdoub led
He art
roc od
Ġadequ ate
Ġprecurs or
ĠMorm on
p olis
Ġt ongue
an za
Ġf ault
Ġb iod
Ġb rill
ĠA ve
ĠC ain
ĠC annon
Ġst ance
Ġ" (
Ġcon cess
ĠTh ought
Ġj oy
Ġman eu
Ġwhere by
Ġcr ude
Ġassoci ates
ĠFre ud
Ġexpress ions
Ġlog ical
Ġcollabor ative
Ġpack aging
ĠLincoln shire
ĠMult iple
ĠMatthew s
ĠPay ne
ĠHawai ian
Ġresc ued
ĠKap oor
ĠWW E
ĠRah man
ĠRodrig uez
ĠIniti ative
B ob
a a
l ude
s ome
Ġ ?
Ġ ell
Ġf rig
Ġb ark
Ġp aternal
ing a
ĠS V
ĠS aga
Ġm ath
Ġd airy
ĠD ate
Ġe y
ĠN es
18 79
18 71
Ġbet a
Ġspec ially
ĠEd g
Ġcommun icate
ĠSup ply
ĠPort o
Ġoffer ings
Ġbar racks
Ġceleb rities
Ġlik es
Ġsymb olic
ĠReb el
ĠClin ical
Ġmolec ule
ĠLam bert
Ġoverl ooking
Ġabsor ption
Ġpreced ed
Ġcyl inder
C S
S ome
c ost
in qu
an u
al ine
Ġf o
ĠB one
ĠR oots
ĠK ell
ĠSt ores
Ġ18 23
eg er
Ġbut ton
Ġcons umed
Ġret aining
Ġpat ch
Ġmy st
ĠRos em
Ġdom ains
ĠOrig ins
Ġlack ed
agon ists
ĠLead ers
ĠKra k
ĠDest roy
Ġflower ing
m are
Ä Ļ
st orm
ĠT ick
ĠC um
ĠC opp
Ġm ills
ĠP oul
et to
ĠR und
ĠR ita
Ġl od
ĠL up
ĠF eld
ĠN ish
ĠO ral
ĠU HF
ĠCh ow
ob ia
Ġwork force
Ġkn ife
ĠCl an
Ġrel ates
Ġair lines
ĠPark ing
ĠAct ing
Ġreport ers
Ġfact o
year s
ĠPeter borough
Ġins ign
ĠFre estyle
ĠMos que
ĠTro op
Ġarm ored
Ġconstitu ent
ĠDomin ic
Ġment or
ĠPhot ography
Ġbrew ery
ĠGav in
cyl inder
D avid
G reen
m l
v re
Ġf ox
Ġp H
Ġd ivid
ĠM M
ĠH ep
ur ian
ĠD ies
ce ae
ĠSt oke
Ġcont empor
Ġres olve
Ġso ils
Ġgroup ed
ĠAll Music
Ġopen ly
ĠMon sters
ĠMed ium
urg y
Ġadv ancing
Ġround ed
ĠInter mediate
Ġtransl ates
ĠDef eated
Ġball ad
Ġdyn amics
bro ther
enes is
ĠDick inson
Ġcompl iance
ĠOm ega
Ġvac ant
ithm etic
B as
G I
S ax
e ous
h om
h ydro
j et
ĠC oin
ĠH umb
ot ions
ĠG oss
ĠK ass
if a
ib i
pl ate
Ġen ables
Ġout comes
18 74
ĠFor rest
ĠRe formation
ĠEd ith
ox ide
ĠBe ethoven
ĠFl int
ĠRoy als
ĠMag dal
ĠChe ng
Ġsecret ly
Ġautom ated
Ġemb ry
ĠRod ney
ĠLor raine
Ġbow l
hr er
pre viously
Ġthrow ing
ĠTunis ia
ĠMÃ¼ ller
rape ut
abhar ata
1 14
E F
G rand
M ax
N U
W here
i Ã¨re
Ġc inemat
Ġf ellows
Ġm eg
ĠP ensions
ĠD mit
ĠF ishing
ĠF eed
ĠW ent
ge b
Ġsp atial
Ġra cer
Ġunder took
Ġret rospective
Ġ17 90
Ġmet re
Ġref lection
ĠEm manuel
ĠGroup s
ĠFred eric
Ġexcept ional
Ġbreak down
ĠCorn ish
ĠFar mer
ĠPres idency
Ġfail s
Ġsyn chron
Ġbott le
Ġcricket ers
ĠTaiwan ese
ĠWol ves
Ġtransc ription
Wh ite
Ġenthus iast
Ġanten na
ĠEvel yn
M us
N Z
W R
t em
Ġin ches
Ġs ad
ion es
ĠT ut
Ġ1 200
ĠI M
ur ia
ĠL ill
ĠL una
ĠJ ules
um ption
ri z
ec ute
Ġle v
Ġcomp ulsory
18 76
oun ces
uss y
Ġint elligent
ĠAll ies
ĠBar row
Ġran ch
fl ight
Ġmet ric
ĠMac K
ĠMac Donald
Ġhuman itarian
str umental
Ġprem ium
ĠGood s
ĠAbb ot
ĠEth ics
ĠKy iv
Ġfa una
ĠDayton a
Ġwel comed
avel ength
otechn ology
on te
ar lem
Ġp oker
Ġd ancers
ĠB iz
ĠB ones
ĠP ied
Ġre issue
ĠH udd
ĠR aff
Ġn odes
ĠL ucky
ĠG ap
ĠG und
ĠG Ã¼
ĠG rig
ĠW oll
ĠSt a
aw ar
ĠSc r
Ġover head
Ġpre ference
ash ing
ĠRes istance
Ġhost ile
Ġtri angular
ĠPres ervation
Ġlack ing
amm u
Ãº n
ĠDomin ion
zz o
Ġrecon structed
ĠEqu ipment
Ġgar age
ĠMi ocene
Ġapprop ri
ĠBav arian
Ġrecept ions
ĠBuch arest
agre b
Ġconsec rated
L atin
p ol
u ating
in ator
ar ov
ĠC Ã©
Ġd warf
ĠG ale
ĠK B
ĠUn ified
ep er
Ġj ockey
ott ing
ĠGu ill
Ġ11 7
12 5
ĠCor respond
Ġcol ored
Ġaff ects
ibr arian
ĠMad agascar
Ġstrong est
wer p
Ġlabel ed
ĠCO N
ĠBurn ett
ĠHor izon
ĠFood s
IN G
West ern
Ð½ Ð¸
ĠBull s
ĠScout ing
ĠCald well
Ġpresum ably
ĠPERFOR MER
ĠCÃ³rd oba
E lect
d ated
p al
Ġo val
en ko
Ġw ool
ĠT rom
ĠT ant
Ġm ood
Ġ1 19
ĠB eech
ĠP urs
Ġl ady
ĠL anding
ĠF arn
ra ul
Ġwh olly
Ġwork place
ĠCon v
18 77
Ġteam ed
ĠPh i
ĠCanad ians
Ġident ifies
Ġcast ing
Ġcertain ly
ĠPres ents
ĠNetwork s
Sc ott
Ġ180 1
Ãº s
ĠSte am
ĠChen ey
Ġteen ager
Ġconst ellation
Ġverte b
Ġkidn apped
ĠNatal ie
ĠVog el
T er
ĠM ines
ĠP itch
ĠH of
ĠF ife
ĠF landers
Ġst ip
od h
art ed
ud er
ip a
ĠAl s
Ġun common
Ġcl ad
Ġres ide
oll a
ĠZ ur
ĠZ hu
18 67
ĠAd j
ĠCar rier
ĠAss am
ai res
ĠEd mond
ĠMc Int
ĠAc ad
ĠX III
Ġorigin ates
ĠQu Ã©
Ġtri umph
ots dam
Ġinvest ments
ĠTour ing
Ġstri ps
ĠRel ief
Ġinvestig ating
Ġchart ed
ĠProt ocol
ĠUl tra
Ã¢ nia
ĠRest aur
Ġappeal ed
Ã« l
ĠHav ana
Ġanthrop ology
ĠNeigh bor
Ġpilgrim age
Ġlar vae
ĠWimb ledon
Q aeda
Ġa ug
Ġa ided
at isf
Ġw ards
Ġs inus
ĠD ear
ĠW en
ĠW ir
Ġst er
os ome
ĠK ilm
ĠK ai
end en
Ġun ified
Ġapp eals
ik u
vel ation
Ġsc rapped
Ġpre vention
rop ri
Ġnational s
ĠSec rets
Ġleg ends
Ġfem inist
Ġbar rist
Ġpit ches
ĠEle anor
ĠDaniel s
ĠBarb ados
Ġcontra ctor
ĠGer ry
ĠDown s
ĠWalk ing
Ġsil k
Ġsearch ing
ĠGib bs
Ġextens ions
Ġexcell ence
ĠThor nton
onna issance
ĠWend y
E X
t el
w reck
Ñ ĭ
al and
it ches
ĠS uc
ĠT oul
ĠC ron
ĠC andy
Ġm ask
ĠM amm
ur rection
ĠD epend
im ic
ĠMar vin
Ġpr ints
ĠCal v
Ġpublic ity
Ġval ued
ĠClub s
ĠSk inner
Ġcomput ational
ĠPier ce
Ġpitcher s
ĠErn ie
ĠGener ally
Ġmand atory
ige on
Ġrow s
Ġsurg ical
Ġans w
ĠDirect ory
ĠSuz uki
ĠMong ol
L ong
r ash
is ely
ĠT up
and i
ĠSt eele
Ġj e
Ġper ipher
Ġdis gu
Ġair plane
yn a
uk o
co e
Ġgen ocide
ĠPlay boy
pro file
Ġweek ends
Ġdon ation
ĠWeek end
Ġham mer
Ġtend ency
Ne il
ĠConserv atory
ĠSyl via
Ġtot ally
ĠComput ing
N L
r ically
on o
Ġf illing
Ġb arn
ĠS eth
ĠS ession
ĠD ante
ĠL ia
ĠJ ain
Ġal gae
Ġhe aling
ĠCh ain
ĠTh al
for est
Ġdis ad
Ġoff ence
Ġund ers
Ġout let
Ġpr ayers
Ġwhen ever
ĠCan oe
ĠBl o
ve z
ĠBe aver
ĠAb el
ĠNor se
ĠRoman i
ĠMet acritic
Ġmus cles
Ġbo om
ĠJo Ã£o
ols he
Ġer osion
Ġstay ing
Ġtim et
ĠNich ols
ĠNev ille
ĠKat ie
Ġtheat res
Ġgymn asium
ĠSchw artz
ĠLenn on
Ġpist ol
Ġphylogen etic
ĠAfrika ans
ĠRhin eland
F i
T D
T op
p el
v als
z ew
Ġp ier
ĠS ave
Ġm isc
Ġd irt
ur us
ĠL M
ĠW erner
ĠJ ard
ĠU d
ĠCh il
ĠCh arges
Ġch ocolate
Ġr er
Ġ18 22
orn o
per ate
ĠGu inness
Ġ25 6
ĠEm erson
Ġport raits
ĠArch ie
ĠMel ville
ĠMad onna
Ġinj ection
Ġdam ages
Ġded ication
Ġspecific ations
Ġextra ordinary
Ġang les
Ġcorrect ly
ĠSig ma
Ġwitness ed
Ġpip eline
ĠGlou cester
Ġcoupl ed
ĠJub ilee
ĠArama ic
1 17
D ire
D ef
G reat
Ġb ells
il us
ĠP ens
Ġl ighthouse
Ġn aked
and ez
ĠAr cher
Ġra ced
ĠIs mail
Ġsong writing
ĠRe ality
ety m
Ġtit ular
ĠDon ovan
Ġconf ron
Ġlo aded
Ġfav ored
Ġinstitut es
Ġgra ves
Ġpsych ologist
Ġenter prises
ĠJenn ings
Ġdemonstr ations
Ġmob ility
ÅĦ ski
ĠMaid en
ĠLomb ard
Ġcouncill ors
Ġfemin ine
ĠNum erous
S chool
T F
T ake
b ad
ĠT oll
Ġm oth
ch us
ĠN one
ĠW itt
ĠW itness
Ġg ases
ĠJ ed
ĠCh op
qu in
Ġse as
ical s
Ġar ise
ik s
ath olic
Ġtra iler
Ġund erneath
Ġrem astered
arg er
ĠMon itor
Ġcommun ic
ĠRes ort
roll er
Ġread ings
Ġcoast line
ĠÂ ·
Ġpers ecution
Ġlength y
Ġsaf ely
ĠCre ation
ĠConc ern
Ġcontact s
Ġdecor ations
Ġopin ions
ĠUrugu ayan
Ġaest hetic
Que en
ĠFlem ish
F ort
S uper
g iving
n om
q i
at ivity
Ġin herent
ĠS os
ĠS uit
ĠT ail
ĠA e
ĠM LA
Ġh urd
ĠR ig
ĠF ol
ĠW igan
ĠE ighth
Ġwh atever
od ian
ĠCh am
ĠV F
ath lon
Ġfl ip
ale igh
Ġinc arnation
ĠRec onnaissance
ĠLa os
ours elf
Ġvol s
rap es
ĠBor g
Ġcou ples
Ġpath way
Ġfr aternity
Ġelim ination
ĠRena ult
ĠĠĠĠĠĠĠĠĠĠĠĠĠĠĠĠ ĠĠĠĠĠĠĠĠĠĠĠĠĠĠĠĠ
Ġpharm aceutical
Ġcoeffic ients
Ġgamb ling
D esign
S aint
Y P
h oe
s ource
v ens
Ġt iny
Ġf oster
Ġb rom
ĠS L
ĠS idd
ĠS exual
ĠT ill
Ġm akers
ĠH ier
ĠD S
ĠG are
Ġst amps
ĠO ro
own ers
ĠMar i
ĠAs c
Ġsc ripts
ĠSh ock
Ġover time
Ġunder going
Ġexp enses
ĠGerman ic
ĠBe ir
ĠChrist ina
ĠEl vis
ili ation
Ġcoll oqu
Ġins ufficient
ĠPan ch
gu ard
ĠRot terdam
ĠMunicipal ities
Ġorient ed
Ġwitness es
ĠPep per
ĠPret ty
ĠCres cent
N D
t ures
t aker
u il
u ates
ĠS Ã©
Ġre ver
iv ate
ĠL uk
ĠN it
ĠW izard
Ġpl ains
ĠUn its
ure l
Ġcl usters
ang s
Ġnot orious
Ġret ains
ĠNo ise
ĠRe lease
Ġ11 4
ĠPaul a
ĠSun set
ĠMat hew
Ġoccup y
Ġarg uing
ĠInf ra
ĠMov ies
Ġbit ter
Ġstrugg ling
Ġcho osing
Ġcooper ative
Ġdeleg ate
Ġhorn s
ĠAlger ian
ĠExpedition ary
Ġreven ues
Ġglob ally
ĠFavor ite
them ed
A rab
j ee
l ace
n en
r atic
Ġt in
er ion
en b
Ġc and
Ġc rocod
Ġb ust
as ants
ĠS ank
il ers
ch witz
ĠJ ug
Ġst omach
Ġpro c
ĠV ander
Ġcomp ens
ect ing
old t
18 72
Ġinc omp
Ġbas ement
Ġdr inks
Ġcontin uation
umb ria
ugg er
ĠSam my
Ġmatch ing
SI C
ĠSat ellite
ĠSar aj
Ġinteg rity
ĠSax on
Ġrein st
Ġrein force
ĠAT P
ĠPrincip les
Ġhaz ard
ogene ous
ĠThous and
Ġinspe ction
ĠSchne ider
B o
E mer
l ake
s g
al ach
ĠA ragon
Ġl att
ĠJ ury
ary a
ge ant
ep per
ep isode
Ġcomp rise
ĠPro to
ĠAn ast
ĠCon tra
rad a
ĠCl air
ident ified
Ġ16 60
ae k
the re
ung le
ĠAg n
Ġshort s
Ġdeb ts
ĠArch ibald
CA L
ĠPenn y
ĠWork shop
ĠMil o
Ġviol inist
sk irts
ĠBrew ery
Ġstret ches
Ġincorpor ating
Ġconfer red
Ġign ored
Ġyield s
Ġprof its
ĠPam ela
End ers
Ġpneum onia
ĠPemb roke
1 12
d ard
j ar
p ace
r ide
Ġc ros
ĠT ip
ol utions
ĠL ibraries
ĠG ad
ut ely
ĠJ ans
ĠSt irling
Ġor phan
ip es
Ġpl atinum
Ġch icken
ure n
ĠCom es
Ġper f
Ġinter rog
Ġfl ies
Ġacc ent
Ġrep ublican
Ġrep roduction
Ġ202 4
ĠSe ah
Ġstat utory
ĠPlay ing
Ġred esignated
Ġins erted
ĠInc ome
ĠÂ «
ĠMah abharata
ĠBang alore
Ġsens ors
Ġfeed back
Ġid ol
Ġmerch ants
ĠBaloch istan
O per
d ate
l Ã©
ĠS ob
ĠC ris
ĠB amb
ĠP ok
ĠH app
ĠL eth
ĠG mb
th alm
op en
ĠK appa
ĠUn ic
Ġk in
ĠTh anks
Ġinter val
ĠCl ive
osp here
Ġcr ater
Ġsol ved
Ġtest imony
ĠCongress man
het oric
Ġvert ices
Ġpip es
ĠMechan ical
Ġguarant eed
ĠWire less
Ġsubdiv ided
ĠVenet ian
S oviet
he i
Ġa u
it ivity
ĠP unk
ĠP oker
ĠH aus
Ġl oses
ĠL j
ĠL one
ĠN GO
ĠW iley
ĠJ h
ag her
rom atic
ity a
so lete
Ġsh ores
Ġun related
ign ment
orn ings
Ġad ject
pr im
Ġsimilar ity
ĠAngel o
arch ive
ĠRem ember
ĠBon ap
Ġovers aw
Ġtal ented
Ġple aded
Ġplate au
disc iplinary
ĠAch illes
haw ks
Ġguarant ee
ĠRib bon
Ġconson ants
Ġtet ra
ĠBohem ia
ĠNico le
ĠTarg et
R h
a ise
Ġ ì
Ġb ibli
ĠC e
ĠH in
ĠH ess
Ġe agle
ĠF urn
ĠG ear
her ry
ian i
Ġex empt
Ġ18 17
eg o
ob iles
ĠSp ur
ĠZ agreb
Ġpr inter
ĠFor ward
hen y
ĠCent ennial
Ġint ens
af a
Ġcol oured
ĠMag net
sy ched
Ġcost umes
ĠMur ong
Ġfront ier
gl omer
Ġbur nt
ĠOt ago
Ġmill ennium
Ġcoordin ate
Ġsomew here
Ġflex ible
ĠTyp ically
ĠCann es
Ġrede velopment
ĠJagu ar
B ro
M ont
M ichael
Ġ etym
he ll
en ian
ar ro
Ġs ab
Ġs au
Ġc ro
Ġb ol
et le
ĠR in
ĠR ao
ĠG ent
ag raph
ĠK Ã¶n
ass i
Ġsh adow
ĠAl ess
Ġ18 10
ound ed
iss on
Ġdis abilities
Ġover night
Ġele venth
18 64
Ġsub group
ism ar
Ġrep et
ĠBar ns
Ġpass ages
ĠDist ance
sc ill
ĠChe ro
Ġdram atically
Ġdu et
Ġceleb rating
Ġemb ass
ĠFI S
ĠSher idan
Ġhydro x
Ġpup pet
ĠMaced onian
Ġpure ly
Ġtorn ado
ochem istry
ĠBord eaux
Ġconsort ium
rews bury
Ġ(âĢ ľ
B er
S a
n or
Ġc os
Ġf ishes
ĠS ustain
Ġl ane
Ġn omen
ĠW I
ĠV ide
Ġsh uttle
Ġj ersey
ph ones
ĠPl ants
ĠGe ological
Ġinc ons
Ġdo ctoral
ĠRe ason
hes is
ĠSch a
ĠSm ile
ĠOff ensive
app ro
Ġcomb inations
Ġphot ographic
ĠCD s
ĠMa o
gl ass
ĠProgram s
ĠCy cle
ĠWat ford
ĠSav annah
ĠKey s
ĠHunt ington
Ġsail ors
Ġclean ing
ĠChand ra
Ġconj ug
ĠBeh av
ĠRab bit
quer que
ĠMalay alam
Ġabund ance
ĠWesley an
Ġdetain ees
ĠKens ington
ĠTanz ania
Ġreper toire
ĠWex ford
J ames
M o
g ov
p ic
s il
Ġ æ
ĠM olly
ĠP oin
ĠP otsdam
ĠH anc
ĠG aul
ĠHe ctor
ugh t
Ġover d
Ġout skirts
18 69
18 73
ĠPl atinum
ĠWh is
ĠMon mouth
Ġ13 5
ĠEast Enders
Ġvill a
Ġprom ising
ĠSch uster
omb a
Ġvis itor
Ġexpl aining
ĠChe ck
oul os
Ġaccept ing
Ġknow ing
Ġdestroy ers
Ġsum mers
Ġcommand ers
Ġsal mon
ĠSpring er
Ġshoot er
ĠSem in
Ġwalk ed
ĠEth nic
ĠFu ji
ĠWa it
Ġnom inal
opt ers
Ġenzym es
occup ied
ĠGmb H
1 000
f le
o op
Ġb ob
ĠT C
ĠM eng
ĠL Ã³
ĠF G
Ġst rain
ill an
Ġcl ip
Ġdis mant
ious ly
eat ing
az ing
ĠHol t
ĠMart ÃŃ
ĠGreen wood
ĠArab s
Ġcomplex es
ĠJud ges
Ġnames ake
ĠLim its
Ġste ady
Ġtal ents
ĠMoh amed
ĠEmer itus
ĠShel ley
Ġrif les
Ġglac ier
ĠBrend an
Ġaccus ations
Lou is
ĠNicarag ua
c ars
j un
an ey
re ach
ic ap
ĠS my
ĠS iles
ĠM afia
ĠP O
ĠI brahim
ĠH aj
ĠR ak
ĠR ather
id ia
ĠN inth
um my
ĠIn vent
ĠK ip
Ġv iaduct
art ing
ant ages
ib al
Ġpr ide
Ġme al
ĠBl essed
Ġspec ulation
Ġam en
Ġph ones
fl ix
16 0
ĠĠĠĠ ĠĠ
ĠBra b
ĠSal le
ĠSim mons
Ġbi ographical
Ġconv oy
ĠAlb an
IA A
ĠBh ag
Ġmountain ous
ĠDesign ation
ĠLo op
ĠCop per
Ġreason ing
ĠSem i
gu itar
Ġflood s
ĠOw ens
ĠBent ley
ĠSpl it
Ġamalgam ated
T ur
h aven
l oe
w ave
he a
Ġin duced
is dom
ĠS oc
ĠS ny
Ġh alt
ĠB auer
ĠF ulton
ĠN ab
ĠV ac
ph alt
ĠSh Åį
Ġco aster
ĠIs abel
air n
ĠAustral ians
ĠEl aine
Ġrev olt
Ġsett ling
Ġcomb ust
ĠRock et
Ġmar athon
ĠTur ks
ĠEst her
Ġheav ier
Ġcompl aint
Ġpup il
ÑĢ Ð°
ĠWhe eler
Ġcru iser
ĠBurg ess
Ġpossess es
Ġsufficient ly
ĠSwim mers
Ġdream s
ĠSoph ia
ĠRut gers
ĠSurv iv
Ġwarri or
Ġhier archy
oreg ion
* *
E v
S k
c u
d yn
h wa
t ree
Ġa unt
Ġw ines
Ġs aints
ĠT uf
Ġd as
ĠH P
ĠG arn
ĠW ah
ĠW ise
Ġst unt
ĠU m
Ġr ays
Ġcont rary
ĠLe ading
ton e
Ġreg ards
Ġschool ing
Ġtrans fers
Ġ17 00
yl us
Ġ11 6
ĠFl owers
Ġadm iral
tra k
Ġpe ers
Ġadv iser
Ã¶ pp
iol a
Ġet ern
Ġlo ading
Ġvot er
Ġcrim inals
Ġnob ility
ĠFern Ã¡ndez
ĠMaj esty
Ġinfl amm
Ġknock ed
hig hest
ĠOvers eas
A v
O ur
V E
p ike
s worth
in en
on ie
or ra
st or
ĠH idden
ĠR ee
us z
ĠW eh
ĠK ant
Ġse ated
ell ites
ff ord
Ġ18 26
orn a
te xts
Ġdis hes
ĠSh rewsbury
ĠZ ar
ĠSe qu
Ġpass port
Ġvoc abulary
Ġ0 2
ĠDep ot
ĠRev en
Ġdel ays
Ġes p
ĠSim ple
ĠNe uro
ili ated
Ġbelie ving
Ġnatural ist
ĠHaw th
Ġver bs
Ġcontinu ity
Ġcrew s
Ġvirt ue
Ġdecor ative
Ġtrend s
ĠCzechoslov ak
Ġevac uated
ĠNewsp aper
Ġdeliber ately
represent ing
ĠFrem antle
ĠBax ter
" /
D VD
T w
l ion
ĠM uz
ĠN ice
ĠE ras
Ġst atic
os uch
ik en
Ġserv ants
Ġtra pped
rad io
Ġshe ets
ĠAd el
its ch
Ġ12 3
ĠBro oke
ĠGu an
ĠSch u
Ġsol ving
ĠVal le
ĠMac intosh
ĠWil kinson
ĠIm ages
Ġparticip ant
Ġmass es
ĠBal i
Ġgra pe
Ġhum orous
ih u
Ġpsych iat
Un ivers
Ġfeed s
Ġcas ino
Ġconsequ ently
Ġreorgan ized
Ġadvertis ements
ĠMarri age
Ġoverwhel ming
ĠOliv ier
D J
s ing
Ġc arriage
es y
ĠA OL
ĠC ey
ĠM au
ĠM atter
ĠR it
em itism
os ium
ac ia
ri ot
ĠK M
ey e
Ġplay able
inal d
Ġsuccess es
ĠEm m
ĠTom as
Ġmot ors
ĠPan zer
ĠSund erland
Ġmer it
light en
Ġsn akes
Ġrepe at
ĠAM D
ĠAC LU
ĠAccess ed
ĠCrow ley
Ġforb idden
Camb ridge
- ,
R un
b il
f alls
p he
r ero
w ang
Ġp ocket
ĠT H
ĠB ingham
ĠD ell
ĠL ark
ĠF ed
ĠF ishes
ĠG ret
ĠO C
ĠK ost
ĠK ick
ia u
ov al
Ġun named
Ġcl er
Ġcont amin
Ġund is
18 66
ĠCol ise
ival ent
Ġdisc rete
ĠSch we
Ġsk ier
Ġperiod ic
ĠBel ieve
Ġport able
Ġactiv ation
Ġsw orn
Ġgrand children
ĠUnivers idad
ĠDet achment
ĠLy ons
ĠGreg g
ĠFormer ly
ĠMarc os
Ġastron omical
Ġans wers
ĠHindu ism
Ġrend ering
Ġresemb ling
Ġbes ides
Cent ral
ĠSpect rum
Ġcounterpart s
Ġpreval ent
ĠUA E
Spec ial
ĠDres den
Ġsophistic ated
u ine
z ep
Ġt ender
Ġo live
ĠC oy
ĠC ounsel
Ġd ot
ĠB T
ĠB au
ĠD ot
Ġv ault
ĠCh u
ust ration
ĠAl ison
iz za
Ġad verse
Ġro s
Ġab d
ĠBrit ann
eth au
ret to
ĠAc qu
Ġter ra
Ġtro ut
Ġfunction ing
enth al
ĠOrgan izations
ĠEst adio
ĠOs aka
ĠStat utory
ĠRod gers
ÅĦ sk
ĠRic ardo
Ġsover eignty
Ġwarri ors
Ġupris ing
ĠChero kee
Z ANU
c ool
c irc
x ton
al on
Ġc ache
ĠT ao
ĠP ang
ĠP au
ĠH oy
ĠH ilton
ĠR ol
Ġl augh
us hes
ĠN urs
ew ays
ĠCh att
ry an
ass ium
Ġun changed
Ġinter m
Ġmod ification
ĠPr att
ĠAf ro
ae a
ĠSup erv
ĠBr une
work ing
ĠQu ick
ĠIr vine
ĠSal zburg
Ch ic
ĠTrust ees
AR C
Ġdeep er
Ġprotect ive
ĠScient ists
Ġcatal yst
Ġri ot
Ġkick ed
Ġrecept ors
ĠConstant ine
Ġborrow ed
Ġlegit imate
Ġcub ic
ĠDram atic
ĠIsab ella
ĠGlac ier
Ġell ip
ĠBeir ut
ĠSny der
G eor
h ara
l ings
n ar
Ï ĥ
ar oo
Ġw ages
Ġc ra
Ġc erv
le ad
ĠH ust
ĠR aleigh
ĠD ed
ĠL ies
Ġat op
op oly
ĠSt on
Ġcom eback
Ġ18 13
ru ce
for ward
ĠEx port
Ġcur ved
Ġ13 1
Ã¼ d
ĠQu entin
Ġmodel ed
Ġstri pped
het to
ĠMcC orm
An n
Ġwild erness
Ġtarget ing
aph ael
ĠConn or
Ġpool s
ĠHond uras
ĠNeigh bours
Ġintercept ions
Ġcouncill or
Ġencourag ing
C or
D em
F re
M el
S at
Ġw inters
Ġd ome
el is
Ġre verted
un ts
ĠCh or
Ġsp ear
ĠAl v
Ġro wing
Ġag ing
Ġdis qual
ren s
18 60
Ġrem inisc
ĠMay er
ĠMon uments
ret ion
ĠPark inson
ĠDo om
unk er
ĠBi ographical
Ġden ote
Ġnight club
ĠBarb uda
Ġillust ration
Ġprogress ion
Ġroll ed
Ġboy friend
Sp ace
Ġflu or
Ġselect ive
ĠCompet itors
ĠKild a
Ġmoment um
Ġmac ro
Ġbotan ical
Hung arian
ĠLinn aeus
Ġrefurb ished
fem ale
Ox ford
ĠHanc ock
C ome
M iscellaneous
U r
V al
r ins
å ®
ĠM oody
Ġh iding
Ġre hears
ĠD iploma
ĠL oyal
Ġis n
ĠJ up
Ġcon ject
ĠCh arg
ĠV iolet
Ġsp are
ĠTh orough
Ġdis ability
Ġdec isive
Ġexp end
ĠCor ridor
Ġ24 0
ipp on
sequ ential
Ġbar on
arian t
ĠFound er
Ġhom eless
ĠFort ress
ĠLiber ia
ĠDirector ate
aly pt
ĠDeb orah
Ġstrugg les
Ġadvoc ates
Ġ! !
ĠPav ilion
ĠHi ros
nov el
Ġassum ption
ĠBene fit
Ġhomosexual ity
Ġtrig ger
Ġumb rella
ĠMugh al
ĠGue vara
olshe vik
) /
7 50
H en
M s
M DC
T s
l ot
y ne
st ation
as us
ĠS ok
ĠS ke
ĠC K
Ġ( +
ĠP eck
ad der
id as
ĠJ ang
ĠU RL
art y
ĠV ie
ov sk
ff in
ĠY eh
ĠAl ta
Ġout s
Ġunder g
Ġass im
Ġsup reme
pr ised
Ġ17 5
ĠWill ow
Ġ13 2
ĠRich ie
Ġweek days
ĠCross ing
ĠBab a
Ã¸ y
ĠHard ing
Ġcycl ists
Ġdecre asing
ĠChen nai
Trans fer
ĠCeleb rity
Ġmemor able
ĠTow ards
Ġrejoin ed
ĠBritt any
Ġvertebra e
ĠLÃ³ pez
B us
D et
n esty
w hen
y th
ĠS ain
ĠT ry
ĠT orn
ĠP ah
ĠP ais
ad ena
ch ard
ĠR F
ĠR end
ĠN ay
ĠG ender
ĠO P
Ġv ag
ab ies
av our
ĠV oyage
Ġag gress
Ġcan non
Ġup stream
Ġsec uring
Ġ17 96
ĠEl i
13 5
Ġsix ty
ĠAnt io
ĠDr iver
Ġassist ing
Ġaver aging
ĠOl ivia
Ġcapt uring
ĠExt ension
ĠLan ark
ĠNorm andy
Ġsket ches
ĠCyr il
ĠTrent on
ĠDeg ree
ĠApplic ations
1 18
H T
k al
k aya
m art
p i
y ang
Ñ ĩ
Ġt a
ĠP seud
ĠR ost
ĠW M
ĠE S
em et
ĠJ ing
Ġst ack
Ġbe f
ud ge
ĠCh ance
ug er
to le
Ġdis placement
ĠSh ack
Ġoff ense
ĠSp in
18 50
Ġ17 83
Ġdec oration
ĠAm es
ĠEn emy
ĠRuss ians
ĠNor ris
Ġstat ute
ĠDan ube
Ġcy an
het ics
ĠBi ological
ĠGall oway
Ġesc al
ĠLev i
Ġpurs uing
Ġsatisf y
U A
t un
st rom
Ġf ut
ĠS K
ĠT rem
ĠM ush
ĠM ega
el ian
ĠR ite
ĠD il
ĠN iz
ĠG ig
ĠG ior
Ġ" "
ĠK K
est ead
Ġr ust
Ġsh ar
Ġk iss
ib les
Ġrec ycl
Ġ17 89
ject ed
10 4
Ġsl ower
Ġwar rant
Ġfre el
Ġengine ered
ĠWe aver
Ġz inc
Ġacqu iring
ux e
ĠBut t
ĠHealth care
ĠDis p
ĠWater ford
cont inent
Ġfort ified
Ġsens or
Ġtrust ee
Ġdig its
Ġsuperv ised
ĠKath leen
ĠNorm al
ĠHarm ony
ĠXV I
Ġbarri ers
ĠAin u
ĠFram ework
ĠDart mouth
ĠOdys sey
ĠSaraj evo
H ouse
S am
b ott
m ale
in itely
ar ius
ĠC J
ĠM ai
ĠM olecular
Ġh aul
ĠB acc
ĠR iders
ĠD ome
ĠE cho
her son
ĠO mar
ĠSt ras
Ġex amin
ress ions
ade qu
ĠLe h
ĠSc hemes
Ġpre historic
ĠOr b
Ġsub family
Ġem otion
cept ions
ĠAb ove
ĠX ia
ĠPer kins
Ġdem ise
Ġel ong
ĠNe u
Ġcross ings
Ġminor ities
ĠLab s
Ġgra vel
ĠCop y
ĠRom antic
á¹ Ń
á¸ ¥
ĠRup ert
Ġpersu aded
ĠUnf ortunately
4 50
R oy
t ry
x ter
ĠC inemat
Ġd ip
ĠL over
ĠL ough
ers ion
ĠE ch
ĠE ly
Ġhe red
ĠY o
ĠAl m
Ġ17 98
ĠMan if
Ġchar tered
Ġsur prising
ĠSe as
ograph ically
ĠSy mp
rol ley
ĠAnt werp
Ġintro duces
Ġexpl oring
Ġdiv ides
ĠCast ile
Ġbreak through
Ġshare holders
ening rad
Ġsubsc rib
ĠLect ure
Ġreass igned
elest ial
G l
a it
f ull
n ame
Ñ Ĩ
Ġthe ft
Ġin k
Ġin cl
as por
ĠT R
ĠC hern
Ġd ams
Ġd iploma
ĠM ab
et he
ĠR E
ĠN ina
ir rel
ĠG uth
im id
ĠU b
Ġhe aven
ia k
qu ist
cl ock
ang i
ĠAs ide
ĠSh arma
ĠBl itz
ĠReg ulation
ĠNorth ampton
Ġfin anced
ribut ions
ĠMag gie
Ġrecogn izes
ground s
Ġpred ators
ĠOs wald
Ġconcept ual
ĠBru ins
ĠHor ace
ĠTrad ition
Ġcho ices
Ġvac ancy
arat us
Ġtor que
ĠExper imental
dr iven
Ġassass inated
Ġwarn ed
Ġsleep ing
ĠCert ified
Ġmerch and
ĠImport ant
ĠAus chwitz
ĠCandid ates
ĠHitch cock
ĠWich ita
ĠBonap arte
1 16
? ),
R oyal
f o
r iver
t an
z one
Ġp ard
Ġd ragon
ĠM int
ce y
ra ined
ĠCh Ã¢
ff er
Ġnot iced
ron ym
orth y
ĠSc ore
ĠRec ently
ĠCor inth
ĠĠĠĠ Ġ
ĠDon egal
Ġobserv e
inem an
edd f
Ã§ Ã£o
Ġfair y
ĠÃī cole
Ġban jo
Ġancest ral
contin ental
ĠCatal ogue
At lantic
ĠStrat ford
Ġecosystem s
ĠBagh dad
ĠConfl ict
H ere
i ov
w yd
re k
Ġo scill
Ġp ec
ĠThe odor
ul g
ĠU TC
Ġhe ated
ĠCh it
ĠY ad
ok ane
inn ey
Ġ17 77
Ġrem arked
ĠRe fer
ĠBar racks
ĠEl ena
Ġnational ity
ĠX L
Ġfac ial
ĠBra ck
Ġtechn ically
Ġposs essions
Ġinf o
ĠFlor es
Ġconf ined
roll ing
ĠKh mer
Ġviol ated
Ġoccup ying
Ġer upt
Ġinteg ers
ĠLuc ia
ĠRun ning
ĠRhodes ia
Ġexcav ated
Ġrect angular
omed ical
ĠJung le
Ġdramat ists
ĠStafford shire
Ġtuber culosis
ĠWeap ons
ĠGesch ichte
Ġirrig ation
Ġbrill iant
ĠColise um
E xt
F T
m ese
Ð ³
Ġw onder
Ġc itation
ĠA ero
Ġd ictionary
il an
ĠB id
ĠP ix
ĠH ove
ĠR unners
ĠL ange
ĠF ew
ĠF ont
if olia
Ġde pr
ell an
cl er
Ġar ithmetic
Ġro de
ah on
ĠSc ream
Ġpre view
Ġreg ained
ĠAd obe
Ġint ensive
Ġob solete
11 1
Ġpost season
ĠLaw son
ĠInter pret
ĠMac au
Ġtake over
ĠMat th
ĠLu igi
ĠAlb u
ĠTre asure
bit ious
Ġsal ts
ĠCre ed
ĠSav ings
ĠNick el
Ġflood ed
ĠHold en
Ġshell s
Ġfib ers
Ġsle eve
A z
M ark
N ow
P re
r ude
w agen
Ġf ountain
Ġm ate
Ġm ang
ou b
Ġh unter
ol ation
ĠR other
ĠL augh
ĠL ester
Ġfor ew
Ġg el
ill ic
ass ion
are a
rough s
18 61
ĠWorld wide
sh ow
Ġinv al
Ġ12 2
Ġcap ped
ĠArt istic
Ġorder ing
ĠBel mont
Ġprop het
yd on
ĠHam m
Ġins isted
rang ers
Ġimplement ing
ĠRen o
ĠBat on
ĠNic ola
Ġrot ating
ĠFight ers
Ġcancell ation
Ġteen agers
ĠInv asion
ĠMcL ean
Ġfulf ill
Ġurg ed
Ġexchang es
Ġmarri ages
ĠVij ay
ĠDais y
ĠCey lon
lighten ment
H is
J im
e us
Ġo ath
al ter
Ġw itch
Ġf ont
ĠT A
ĠC ream
Ġd rought
ĠP ing
ĠThe or
ad m
iv ist
ĠD ai
ĠL iam
ĠE aton
her st
ĠSt am
ab h
Ġpro se
Ġro pe
ĠDe leg
Ġcomm od
ĠOr n
Ã© es
Ġsub mit
Ġret ro
ism o
Ġmod ules
Ġ12 7
Ġem blem
ĠAnt oine
Ġdiv ide
Ġbi as
ĠPre vention
ĠOb server
Ġoccur rence
Ġpurch asing
Ġspe eches
ĠTw itter
ĠCr uc
Ġgra ce
esh iva
Ġlack s
ĠDer ry
Ġconcent rate
ĠBurn ing
Ġbackground s
Ġcondition ing
Ġupd ates
ĠPle asant
ĠCad et
ĠNet flix
Ġsemif inal
ĠMiddles brough
Ġvacc ine
ĠChrys ler
; "|
S un
p ron
r illa
st reet
ĠT akes
ĠH ook
ĠH anna
ĠR FC
ĠD ro
ĠF ruit
ra j
Ġg reet
Ġg rab
Ġst uff
th am
up ta
og i
Ġr u
Ġar che
ild e
ĠAt om
ĠMan usc
con nected
ĠList ed
Ġwar head
off ic
Ġconf isc
Ch ar
Ġpress ed
Ġcontribut es
Ġden oted
ĠTem p
edd y
ĠHind us
ĠStrateg y
Ġgal axy
ĠMoroc can
ĠSaw yer
ĠFres no
ĠHass an
Ġgarn ered
R o
d ict
j ana
in teg
ar ina
ĠS EC
le ader
ĠH af
Ġl odge
ĠD ug
ĠD uty
ĠD angerous
Ġon set
ĠG in
ĠJ aw
th ouse
ub en
Ġ3 20
ern o
duc ers
ĠZ am
ific ent
Ġ17 80
Ġend e
ĠGe elong
The y
ĠRec ogn
Ġdem anding
Ġeconom ically
ĠMac don
Ġz ool
Ġser geant
ĠTri umph
Ġcou rage
Ġ180 8
ĠÅ ļ
iot ics
Ġcart oons
stand ard
Ġtempor al
ĠNathan iel
Ġrit uals
Ġcoeffic ient
polit ician
Ġadjoin ing
Chic ago
A FL
l ip
er en
ed ited
ĠS ug
ĠT eat
ĠA al
ĠA BA
il on
ĠB udget
ĠP ull
ĠD ing
ĠN S
ot on
ĠG ros
Ġg land
ĠJ ude
Ġst ew
Ġal ias
Ġpro ud
Ġcont ests
Ġac cepts
Ġab normal
pe x
Ġtra vers
Ġup held
air craft
iew icz
ĠAm trak
ĠSy ed
idd ish
ĠMor se
ĠMer cer
Ġparticip ates
ĠMass acre
Ġpast oral
ĠEr ich
Ġstandard ized
Ġge ological
ĠPo ole
ĠSlov enian
Ġimpl ications
Ġemphas ized
ĠPhot ographs
ĠSi em
ĠLiving ston
ĠHab sburg
Ġnoble man
bet ween
ĠMater ials
Gen re
B BC
c ox
i Ã¡n
j Ã¸
k ie
n ard
u ce
v ity
Î ·
Ġw avelength
Ġf ederation
ĠT art
ĠB arl
ĠH ide
ĠN T
ĠN HS
ĠG uns
ow e
ĠJ ammu
and e
ag ons
ter a
ĠV es
Ġex empl
ry ption
erv ed
ult ies
ĠSh ould
ev ich
Ġbl amed
ĠWh ig
Ġrep aired
ĠBe en
Ġcommun al
ille m
Ġcolle ague
Ġstruct ured
Ġprocess ed
ĠHel p
ĠSo il
ĠWild cats
ĠBoy le
opp y
ĠSerb s
Ġrepe aled
ĠMult ipl
abet es
vol ume
Ġresid ences
Ġcomfort able
ĠRegist ration
Ġpresc ribed
Ġundef eated
' ),
W hy
g irl
m ic
z hen
at en
it ud
ĠT NT
ĠA ck
ĠP ub
ĠH ospitals
ĠL ep
ĠF rag
ĠG E
ĠE ck
oc ols
ĠK ak
ĠLe iden
ral tar
ĠSh ri
Ġover view
Ġatt ested
ĠQ atar
ĠPl ato
ism atic
Ġorgan ist
Ġmin ers
ĠRo ch
Ġdiffer ently
idd ing
Ġref in
ĠMag ist
ĠMiss ile
ĠSim s
Ġpack ages
ĠSound track
Ġbal anced
Ġharm onica
ĠFac ility
Ġrom an
Ġwrest lers
pop ular
ĠBent on
ÈĻ ti
ĠNewsp apers
J os
K h
b uck
h yd
w elling
Ġ ]
on ut
Ġf ears
as er
ĠP urd
ĠH yd
ĠW J
ĠW S
op ard
ĠK oz
ast es
ran king
se ven
Ġr ushing
Ġk een
18 59
ĠCl osed
ĠCent ro
Ġcre m
ĠSw ans
yp se
ĠBr ide
Ġdet ained
Ġadv antages
icular ly
ĠDire ction
Ġdev ised
Ġmean ings
oper ation
Ġtreat ing
Ġsubject ed
ĠSub urban
Ġsus cept
Ġemb ra
ĠAsh oka
Ġextra ction
ĠBol iv
iform es
ĠBuck ley
ĠSic ilian
Ġles bian
Sw iss
Ġgross ed
Ġtoile ts
Ġindirect ly
rific ation
Ġharass ment
syched elic
ĠReven ue
1 15
U I
W S
d iv
g ement
k irk
l at
s ingle
ĠC ic
ĠM ey
ĠB orders
ĠL un
ĠL um
ĠO aks
od er
qu ality
Ġsp or
ĠY es
Ġk ern
Ġun stable
Ġad hes
ons ored
ĠInd eed
Ġatt ain
Ġqu arry
ys g
Ġbuild er
ĠSy nt
ĠRev enge
Ġnetwork ing
Ġdiscover ies
add ington
ĠUs ually
ĠFair y
ĠOt is
Pro fessor
organ ic
Ġbroad ly
á¹ £
ĠBurg und
Ġmob il
ĠIss ues
Ġderiv atives
ĠCorp us
Christ ian
ĠDarl ing
Ġjur ist
ĠPÃ© rez
Ġexcer pt
Sax on
ismar ck
Ã¶pp en
3 50
F ree
Ġt apes
ar ist
it at
Ġs erm
Ġf art
ĠS addle
ĠT aking
ĠA i
ad an
ad ores
ĠF Ã©
ers field
ĠN ost
Ġth rust
Ġg ospel
op ot
od ay
Ġsp ark
per ed
aw an
ik an
ĠDe L
Ġover c
rib es
Ġ15 5
ĠAm Ã©
Ġem ission
ĠSw ind
Ġvill agers
ĠX in
ĠDist ribution
Ġrepl ied
ĠLou d
ari os
Ġanal yt
ala ureate
Ġpress ures
ĠBern stein
Ġtemper ate
Ġaffili ates
ĠSev ille
ĠSil ence
Ġdeliver ing
ĠBol t
Ġmut ations
ĠMand arin
ĠRand om
ĠPhot os
ĠMack enzie
ĠNav igation
Ġrenew able
Ġconvert ing
Ġcongreg ations
Ġsa urop
Ġavo iding
store y
W ash
g r
i ological
s che
w aters
à ¹
at ro
en ov
Ġf eder
Ġb ricks
ĠM ash
ĠB olog
ĠB AF
Ġ2 10
ĠH A
ĠR ok
Ġn ouns
ĠF E
ĠW emb
Ġg est
ĠJ ensen
ĠU M
ĠK yr
ĠK eller
Ġcomp ress
Ġ18 11
Ġad ul
Ġrel ies
ĠShe ikh
ull s
Ġsur prised
ĠMon aco
ĠPol ar
ĠAc ross
Ã¼ tt
Ġant agonist
ĠMal i
ĠMy r
Ġpract icing
ĠRob son
Ch inese
ĠSuper intendent
Ġaccept able
Ġlik ed
Ġbreak fast
Ġdisp at
Ġcontain er
ĠAR IA
ĠEss ential
Ġbenef icial
hour ly
Ġwarm ing
Ġdepos ited
ĠCust oms
ĠSoci eties
Ġlac rosse
ĠAlbu querque
K ore
O K
P DF
å ħ
ar ate
Ġw ounds
ĠS ans
ĠS ung
le hem
om ore
ĠR im
ĠL ope
ĠL ooking
Ġth reshold
ĠW reck
ut ant
ac ock
ĠK ud
Ġwh it
Ġpro stitution
ĠV ine
ĠAl ley
Ġ17 94
Ġpop e
Ġmed ley
ĠNorth umberland
Ġinc ent
Ġchar ities
au k
ĠMon arch
ator ium
Ġresp ir
ĠMor an
isl av
pro t
Ġmot ivated
board ing
ĠDo es
Ġfire arm
Ġfunction ality
ĠBow en
Ã¡n chez
ĠAk adem
Ġunc ons
Ġprogress ed
ĠCooper ation
Ġrefuge e
ĠLock e
Ġweak ness
Ġaccord ion
Ġexcav ations
ĠCrus ade
ĠIS BN
ĠConne ction
U D
y on
ä º
Ġ Ø§ÙĦ
Ġt ally
Ġt ensions
st ud
Ġm asters
ĠP oe
ig m
ĠN ile
ĠN olan
ĠW edding
op ath
ĠSt anton
ĠV ishn
og ues
Ġres iding
18 54
emb les
Ġ17 95
Ġ17 92
ĠPl ays
rand t
Ġorgan ism
Ġ13 3
ĠOlymp ia
ĠLa un
Ġfac ade
ĠIr win
pro fessional
Ã¨ ge
ĠLu ft
ĠPo et
ĠUr b
ĠBab yl
ĠStat us
ĠCre ated
ĠPunjab i
ĠCha os
TI ON
Ġneur ons
ĠWemb ley
D isc
M ag
V er
u u
or os
Ġp iv
Ġm ans
Ġd ried
ĠB res
ĠThe ss
ĠL eningrad
and ar
ĠSt uck
up id
ĠV arsity
Ġse pt
ric es
ĠAl vin
Ġtra its
Ġoff spring
ĠSp okane
ĠCon st
Ġam bitious
ĠAfter wards
Ġ14 4
ĠSe k
ĠGl over
âĢĻ ,
Ġpres ided
ĠSer ver
Ġhold ings
Ġhalf way
arch ived
Ġbi ologist
Ġmid night
ĠHow ell
Ġbirth s
Ġtransfer ring
Ġneigh bors
ĠTim ber
ĠSub way
Ġbur st
ĠFam ilies
ĠEll a
ĠMir za
ĠAz tec
ĠVill ages
Ġang ry
Ġste ering
Ġstock s
Ġbad ge
ĠBeat rice
Ġaccur ately
ĠBarn ard
ĠScholars hip
Ġadvertis ement
ĠLaur ie
icond uctor
1 13
B B
c ode
f u
g il
l ap
z in
Ã µ
on el
en f
it ations
Ġw orse
Ġw isdom
Ġc ats
Ġb ure
Ġb ail
ĠS ense
ĠT Åį
ĠC ary
ĠThe res
Ġn iece
ig hed
ĠG it
ĠG aming
ĠW L
ĠJ ura
Ġst akes
Ġal arm
Ġal beit
Ġan xiety
ĠK ah
od rome
Ġcomp iler
ie le
man ship
Ġcl iff
aw ak
ĠSp ike
che ner
Ġpol ym
Ġcount ing
Ġcap ita
Ġnational ism
row span
ĠRes olution
Ġmark ings
ĠSch ul
Ġcoll ision
ĠPe oples
Ġlo ops
ĠOld ham
ĠColle ctive
Ġrad ial
ĠTa ft
ĠLog ic
ĠAngl ia
Ġsan ctions
ocal ypse
ĠCou gars
Ġhelic opters
pop ulation
ĠMarqu ess
Ġalumin um
mount ed
ĠHew itt
odyn amic
ĠHudd ersfield
E s
L ine
a er
ar ab
Ġf eared
es igned
ĠC ame
ĠC ogn
ĠM ales
ĠD ash
ĠF asc
ĠW anna
ĠW aste
ĠE scape
ĠK ier
ĠAl ways
Ġun m
amp le
Ġen umer
ĠZ o
ĠReg inald
Ġent ert
Ġbl end
ĠCol t
sp ur
ales e
Ġtr unc
Ġeng aging
ĠMe asures
ĠRiver a
Ġproduct ive
Ġpromot ions
Ġcapt ained
ĠMcC le
Ġaddress ing
anth a
ĠRad ical
rin ted
ĠSum atra
ĠTrad itionally
ĠOrd nance
Ind ian
ĠProp het
German y
ĠSuz anne
Ġverte x
ĠMom ent
Ġbuff er
ĠStad t
Ġpreval ence
ĠGat eway
Ġli bert
Ġarsen ic
ĠProced ure
ĠHumb oldt
Î ²
Ġa ce
ro be
ĠM oin
ĠB ub
ĠB aj
ĠP ett
ĠF og
ĠF unk
ĠN os
her ical
Ġr ay
ric o
ass er
Ġsc al
ind y
Ġtra gedy
ĠPro b
ĠOr t
Ġbl ade
ĠAss ass
ĠGl ob
Ġrepresent ations
St ep
ĠMet all
Ġcirc us
Ġfoc al
ĠWel come
ĠCas a
Ġthreat ening
Ġlabor atories
Ġspread ing
ĠRoll s
ĠKam en
ĠRey es
ĠAdmiral ty
Ġbacter ial
Ġconstitut es
ĠBuc cane
Ġsymm etric
Ġic onic
ĠAyr shire
Ġdup lic
ĠSchles wig
ĠThorough bred
F rank
H I
M R
P aris
j v
l b
st aff
Ġs aves
Ġs andy
Ġf ond
ĠS Ã¡nchez
ro cess
il ot
Ġh ire
Ġn ec
ĠL yd
ĠF ru
ĠF ees
ra per
Ġst ap
th rop
Ġat he
ĠIn form
oc ument
ĠU FC
ĠK P
Ġdis cl
Ġatt itudes
ins ular
Ã© ra
Ġsub ordinate
hen burg
Ġcur v
ĠBr ill
Ġ24 2
pro of
Ġbi om
azz o
Ġlif elong
ĠLow ell
Ġcart ridge
Ġhop ing
ĠOm n
Ġexped itions
ĠCust om
ĠTreas urer
Ġsubd ivision
ĠHob art
ĠCorpor ate
Ġrebuild ing
ĠCompar ative
Ġcort ex
ĠSerg io
ĠMultipl ayer
P at
S ur
g age
p ired
v oc
Ä ĳ
Ġs ells
Ġf als
ĠS oh
ĠM ish
ĠB rick
ĠP ush
ĠH Ã¶
ĠH iro
Ġl umber
ur red
ĠL ec
Ġbe ans
Ġcon e
Ġcon cludes
Ġwh is
Ġpro long
ĠV oy
ell ate
Ġun n
Ġar ranger
Ġen velop
Ġdis rupt
Ġinter fer
Ġ12 4
ĠSec urities
Ġelect romagnetic
Ġadminist rators
ump ing
Ġsurv ives
ĠAnn ot
ĠBo er
Ġopt imal
Ġmerg ing
Ġlog istics
Ġclear ing
Ġclear ance
Ġprec isely
ĠLas er
star red
ĠClin ic
Ġpione ered
Ġimpr int
ĠDal ton
Ġcru el
ĠRub in
Ġtur f
Cent ury
ĠHus sein
Ġcartoon ist
Hung ary
ĠInver ness
Pac ific
Orig inal
ĠDors et
rapeut ic
raul ic
, '
Ð ±
in ition
Ġp a
ou te
ad ar
ĠD ent
ĠL ille
ĠF ool
Ġth or
ri ac
ĠSt ranger
igh am
ĠY el
ween ey
Ġ7 50
Ġrel ied
Ġfl ipped
Ġmon etary
ĠAm herst
ĠComp osition
ĠSe al
sequ ent
CA F
Ġhon oured
ĠGra ves
Ġmar ched
ĠFred er
Ġopt ed
Ġaltern ating
Ġ180 6
ĠRoll er
Ġrent ed
Ġrac ism
ĠJohannes burg
ĠHoff man
Ġve ins
Sec ond
dist rict
ĠdÃ© part
Ġtraff icking
ĠRuther ford
Ġmosa ic
Ġlatt ice
Ġcros sover
R et
W C
a an
j ong
Å ¼
Ï ħ
Õ ¡
is al
Ġf ielder
ĠC alled
ĠM itch
ĠB ismarck
ĠH ik
ĠN ah
un ami
Ġpl um
ach a
ild a
ĠInd us
Ġfl uct
Ġ17 93
Ġ12 1
10 6
Ġprogram med
af i
Ġdiffer ing
Ġappro aching
Ġdet on
Ġcor rupt
Ġdeb ris
omb ie
ĠHol m
Ġcould n
Ġaff ection
ĠBlack pool
ĠPal atine
Ġren umber
ĠTer ra
Ġcast e
Ġenc oding
ĠMin eral
ĠTri angle
Ġaltern atives
Ġemer itus
ĠStephen s
ĠAff air
ĠBrother hood
Ġunc redited
ĠNich ol
UC N
Ġmini ature
ĠBeth lehem
apur am
ĠBundes liga
ĠMcGu ire
Emer gency
Ġhered itary
Ġsubscrib ers
M ex
V T
e ers
p oints
s ided
y am
Ġt ab
re ys
ar h
Ġin active
ĠT ung
ĠP ocket
Ġre ctor
ĠH utton
ĠR iga
ĠF ile
ĠF ailed
ĠG iles
ĠW ight
ĠW orship
th us
ĠK all
ill ard
Ġse aled
og ist
Ġj aw
ev il
Ġ17 91
ĠPh o
ĠAd ler
amed a
Ġint est
ĠHar ley
Ġdisc s
Ġwe aken
Ġav ant
Ġmag ist
Ġfre eway
ha o
ĠPet ra
Ġnever theless
asc a
Ġtext ile
Ġens uring
ĠColomb o
Ġmig rants
ĠFal un
ĠEver ett
Ġprepar atory
ĠBart lett
Ġsoci ology
Ġrestrict ion
rection al
ĠViol in
Ġmorph ology
Ġconven ient
Pal atinate
ĠCauc asus
ĠBea umont
b rand
g arde
n orth
Ê ¿
ed es
Ġs ink
as co
ĠC ouncill
Ġm ice
id ered
um ing
op atra
av ailable
Ġpl ed
Ġse ct
Ġsp ont
ĠAl ma
ĠCom pl
ten berg
ĠRe eves
10 3
Ġdown hill
lin ear
ĠCap p
ĠSal ford
Ġreal istic
Ġred esigned
Ġins ight
Ġbar itone
ĠBre ed
Ġdeterm ination
ĠVik tor
Ġdepth s
Ġgeomet ric
ĠPut nam
Ġfix ture
Ġacceler ation
East ern
Ġcanon ical
ĠBotan ical
Ġsupern atural
H ome
M or
d ar
d og
l oy
p rom
Ġw ished
Ġm ere
il ic
il ow
ĠH K
ĠR aphael
Ġl uc
ĠF ug
ig ator
ĠN ath
ĠG og
ĠG ett
Ġcon texts
Ġpro jection
ern sey
ĠCl aim
sh oot
ĠSouth western
Ġdef icit
ĠChar lem
ĠQu aker
ym ns
Ġposition ed
Ġpopular ized
ĠSl ow
St ars
pro duct
eel ing
ĠBur mese
ĠCommission ers
ĠRos es
ĠMa ver
Ġapplic able
Ġinstitut ed
Ġsat irical
Ġneg lig
Ġhol otype
Ġrecip roc
Ġwa ived
ĠGib raltar
Ġalt ogether
Ġlat itude
Ġencoura ges
Ġprotest ers
Ġmir rors
Ġpod ium
ĠInstr ument
ĠButter fly
ĠWolver hampton
ĠMilit ia
Ġscen ario
ĠShap iro
Ġstead ily
B U
B ank
I l
V s
b ay
Å ĳ
Ġ Ã©
Ġw ives
Ġs ul
Ġf actions
Ġp enc
as so
ĠC ory
ĠC oul
ĠM ae
Ġh ij
am el
ĠP ey
Ġn g
ĠN RL
Ġg rapes
ĠE D
em ann
Ġbe ef
ĠK es
Ġpl ug
Ġch ambers
se v
Ġad oles
ĠDe acon
ĠLe ib
ĠPro blems
ener gy
Ġsub channel
ĠAt kins
ĠJun o
ys ical
ĠComp rehensive
ox ic
ĠCor v
Ġvoc ational
ĠDr ugs
Ġvarious ly
Ġpat ented
Ġsw ept
Ġgl obe
Ġstrong hold
ĠPan el
Ġhom eland
igg ing
Ġreve aling
bro wn
Ġang ular
Ġcalc ulate
ĠHur ricanes
ĠDom ingo
ĠPatri ot
ĠML S
Ġsatisf ied
ĠSeg unda
Ġearn ings
ĠAnders en
ĠEthiop ian
Ġanticip ated
ĠHollow ay
ĠCaled onia
Ġnumer ical
ĠBarns ley
emet eries
M aster
c ad
f unk
r ush
Ġa z
re fer
ĠM Hz
ĠB E
ĠB aja
ĠI q
ĠR S
Ġl ined
ĠL ily
ĠL itt
ly wood
ĠG ou
im ov
ĠE up
Ġan onymous
ĠSt rand
all ion
ĠV FL
ĠCon fess
form ers
ĠOr chest
Ġfl avor
Ġdec iding
ĠMan ch
ai us
int roduced
Ġshort stop
Ġimport s
ĠBook er
ĠPal ermo
ĠDo ctors
ĠFre i
Ã¤ l
Ġide ology
ĠSub urb
Ġdiss ertation
Ġsusp ic
Ġcomput ation
ĠFa ber
Ġvac ated
Ġretail er
Ġclin ic
ĠChamber lain
Ġinvent ory
ĠVel vet
ipper ary
amer ican
ĠVolunte ers
ĠMaxim ilian
Ġoxid ation
dig it
ĠBrune i
Ġunderg one
N ET
g as
j ani
y as
Ã ¹
Ð ·
ĠS uf
ĠT uck
ĠP oss
Ġl ords
Ġl ots
ĠL ara
Ġg ren
ĠE ust
ac ies
ĠK is
ĠK orn
ĠV od
qu ency
und i
ĠMar ried
Ġj ungle
act ing
Ġper ennial
Ġall ot
Ġ6 50
Ġrel iability
uss en
ĠSe lection
aus ole
tt i
Ġpopular ly
Ġbre ach
ators hip
ĠPet roleum
ĠBur roughs
ĠPublic ation
ĠClass ification
ĠAtl antis
Ġcy t
ĠWood y
Ġstaff ed
Ġgrand daughter
Ġnar rated
Ġmem oirs
Th omas
bl ock
ĠÅ ģ
ĠPrim era
Is lam
ĠHom es
Ġretail ers
ĠDyn amo
ĠSalv ation
ĠLion el
ĠResp onse
Ġsurpass ed
ĠJacqu eline
Ġtimet able
Ġsau ce
P eter
g ic
j ah
k j
m oon
n ist
p end
p ipe
Ġt ire
Ġs oy
ĠA F
ĠC rane
ol ulu
om ac
ĠH S
ĠD aughters
ĠG rants
Ġth ir
ĠE clipse
th irds
Ġwh oles
ĠSt raw
art ments
ip ation
ĠV olleyball
ess es
Ġr ush
Ġsp inal
ĠY v
Ġrec all
pe ed
Ġafter ward
ĠCon stable
18 63
Ġ17 99
Ġmon astic
Ġinc oming
ĠRe ady
yl ie
fl at
ĠAnd es
Ġvis a
Ġpres umed
Ġexpl ores
Ġproduct ivity
Ġsem inary
Ġcour ty
Ġhom age
Ġdisp osal
Ġshoot s
ĠHun ts
Ġsuggest ion
Ġcru isers
ĠPa olo
Ġassess ed
Ġstorm s
Ġlingu ist
Ġabb ot
Ġacceler ated
Ġsubt ropical
Ġrab bi
ĠPaint ing
Ġsymp athetic
Ġsav ings
ĠDh aka
ĠNin ja
Ġtum or
ovi ets
ĠBren nan
E arl
g uez
Ġb ou
ĠS U
et ed
ĠF O
Ġal ike
ĠU til
est ra
ran ked
Ġex cluding
og raf
Ġcomp aring
ect ious
ĠY iddish
Ġun e
ph thalm
Ġsc rew
ĠJoh or
Ġam endments
ĠReg istry
ĠBar ack
Ġla und
Ġcor al
ĠDep ort
uel ing
Ã¤ n
Ġtre ason
... ]
ĠEle ments
ĠTal ent
Ġ180 9
Ġcard iac
Ġcat ches
Ġextra cted
Ġsens ory
ĠAud itorium
Ġtim ing
sch ule
Ġbra ke
Ġmist ake
ĠStein er
ĠHein z
Ġthin ks
Ġtoile t
C la
b order
m oor
Ġa for
Ġo mitted
Ġin duction
ĠS ame
ĠS eng
ĠB Y
ĠP tole
ĠI th
ĠL op
ĠF itness
ĠN P
ĠN ils
ĠW G
Ġst raw
th ood
ĠK ag
ĠK ara
ec he
Ġr ushed
ire ann
ĠTh Ã©
to o
pl aced
ĠMar low
ob y
erm at
Ġam usement
ĠCo ordin
ĠMe ad
Ġfun k
ĠMac y
ĠPlay house
Ġindivid ually
Ġsqu ares
Ġacqu itted
ĠRob bins
Ġpromot er
Am sterdam
Ġdocument aries
Ġjud ged
ĠBus ch
ĠLiber als
ĠStr ings
ĠCle an
ĠCy ber
Ġcer amic
ĠAbb as
car bon
ĠTrad ing
Mar ie
ĠExt reme
Ġfaith ful
lock ed
Ġthrow s
Ġphr ases
ĠHap pen
Ġmit ochond
Ġabbrev iation
Ġju venile
ĠBrid g
ĠHarri et
Ġfier ce
Rober t
Wash ington
A ut
D iss
L ink
p ole
Ġt ended
Ġin ver
Ġf ingers
ic ent
Ġp amph
ĠS inn
ĠM aw
ĠM ode
am orph
ĠH uff
iv ism
ra x
Ġg em
ĠSt ella
ĠCh ong
ĠAl ive
ĠTh reat
Ġar ises
Ġres istant
Ġab dom
old ing
Ġsc enic
red ible
Ġoff set
ĠPro sp
olog ic
ĠCon cept
ĠCan ary
Ġtrans gender
Ġ17 97
ĠAm elia
Ġfin ed
ĠMe asure
ĠMe adows
oph ones
Ġrepl ica
Ġ0 6
Ġsw amp
ĠMal one
ĠMel issa
Ġide als
ĠYoung er
ĠTre es
Th ree
Ġemb roid
Ġ180 2
gu y
ĠSum m
ĠStra uss
Comm un
Ġsurvey s
Ġple asure
vey ard
ĠArchitect ural
ĠLov ecraft
Ġloan ed
Ġrent al
ĠFun ctions
Ġglac iers
Ġassum ing
Ġrib bon
Ġprivile ges
ĠQuin cy
Ġpostp oned
Ġmaneu ver
L ab
P ower
l arge
v ard
Î º
en bach
st airs
Ġw age
Ġf ant
Ġf amed
as io
ĠS is
ro let
ĠC inem
ĠC afe
Ġm ourn
ĠThe at
ĠH Q
ĠD olly
ĠN ominated
em ost
Ġpro found
up on
ond uct
Ġ5 50
Ġdis par
ĠQ ur
ĠChrist i
ĠEn forcement
Ġcare fully
14 0
ĠX i
Ġref rig
ĠAg ripp
uel a
ĠCons olid
ĠMad ness
ĠAv on
Ġqual ifications
ĠExp o
Ġsurround ings
Ġche ap
ĠAk ira
ĠCost ello
Ġsyn agogue
Ġlit urgical
ĠDest iny
ĠTasman ian
ĠViol ence
ĠClaud ia
ĠWake field
rÃŃ guez
Ġinequ ality
Ġrelie ved
B road
D is
P o
d ish
d rama
k k
w eg
z io
Ġb ags
ĠA mp
ĠM T
ĠD ental
ĠG ugg
ra ch
and ering
ĠK Åį
og enesis
Ġapp end
Ġout law
18 58
18 62
Ġret rieved
Ġrem arks
ĠBar ney
ĠFl ames
ĠCo ffee
rop ic
.. ..
Ġpost ing
Ġ0 5
ĠMor row
Ġdevelopment al
ĠMet eor
Ġtransl iter
Ġill um
ĠJer em
ĠBank ing
ĠSol utions
Ġacadem ics
ĠColl ier
ĠRod rÃŃguez
Ġdomin ance
Ġdark er
ĠNY C
Ġinterpret ations
Ġpreserv ing
idel berg
Ġcheck s
Ġinsc ribed
Ġpredecess ors
ĠCod ex
ĠScar let
Ġperm its
lift ing
Ġtransp arent
ĠGlou cestershire
ĠScandin avian
ĠMonter ey
Ġsanction ed
ĠMacdon ald
' ',
2 10
L os
R R
e ight
o za
ð Ĳ
at ops
it ives
is odes
ĠM ou
ĠP esh
id ium
ĠN ell
ĠN PR
ĠCh icken
ep ort
ign y
18 0
Ġunder way
ĠAm phib
ĠRep ubl
ĠChrist ensen
angu ard
ink el
ĠEn ough
ĠBr iggs
aus en
Ġcr ush
ĠHall ow
Ġpat ents
Ġder ive
ĠApp alach
Ġemploy ing
Ġdecl are
Ġdecl aring
Ġcorn ers
Ġsyn th
Ġir re
Ġcompar ative
ĠFisher ies
Ġrailroad s
Ġeval uated
ĠSah ib
ĠDin osaur
Ġexceed ing
Ġconstruct ing
his att
Ġannounc ing
ĠMater ial
Ġdioces an
Ġlig ament
ĠStruct ure
Ġunanim ously
ĠSunn i
ĠBarth olom
ĠMartine z
ĠJup iter
ĠBAF TA
Ġrespir atory
ĠdÃ©part ement
3 60
B ur
T unes
h off
h ills
y ou
an ova
Ġb urg
ĠT O
ĠT um
ĠA stra
ĠC rest
ol er
ĠN aked
ĠG Ã³
ĠG range
ĠW O
ĠJ ab
Ġex otic
ie ves
ric an
ĠAl z
Ġag enda
Ġnew est
Ġinter vals
Ġ12 9
aul d
ĠQu an
ĠBra hm
Ġgrad ient
oper ated
Ġconv ince
Ġprem ature
ĠJo achim
American s
ĠArm ored
ID E
iy ah
Ġconver ts
ĠKel ley
Ġshel ters
ĠGoi Ã¢nia
Ġsimpl ified
[...]
