{
  "version": "1.0",
  "truncation": null,
  "padding": null,
  "added_tokens": [
    {
      "id": 30000,
      "content": "<|endoftext|>",
      "single_word": false,
      "lstrip": false,
      "rstrip": false,
      "normalized": true,
      "special": true
    }
  ],
  "normalizer": null,
  "pre_tokenizer": {
    "type": "ByteLevel",
    "add_prefix_space": false,
    "trim_offsets": true,
    "use_regex": true
  },
  "post_processor": {
    "type": "ByteLevel",
    "add_prefix_space": true,
    "trim_offsets": false,
    "use_regex": true
  },
  "decoder": {
    "type": "ByteLevel",
    "add_prefix_space": true,
    "trim_offsets": true,
    "use_regex": true
  },
  "model": {
    "type": "BPE",
    "dropout": null,
    "unk_token": null,
    "continuing_subword_prefix": "",
    "end_of_word_suffix": "",
    "fuse_unk": false,
    "byte_fallback": false,
    "ignore_merges": false,
    "vocab": {
      "!": 0,
      "\"": 1,
      "#": 2,
      "$": 3,
      "%": 4,
      "&": 5,
      "'": 6,
      "(": 7,
      ")": 8,
      "*": 9,
      "+": 10,
      ",": 11,
      "-": 12,
      ".": 13,
      "/": 14,
      "0": 15,
      "1": 16,
      "2": 17,
      "3": 18,
      "4": 19,
      "5": 20,
      "6": 21,
      "7": 22,
      "8": 23,
      "9": 24,
      ":": 25,
      ";": 26,
      "<": 27,
      "=": 28,
      ">": 29,
      "?": 30,
      "@": 31,
      "A": 32,
      "B": 33,
      "C": 34,
      "D": 35,
      "E": 36,
      "F": 37,
      "G": 38,
      "H": 39,
      "I": 40,
      "J": 41,
      "K": 42,
      "L": 43,
      "M": 44,
      "N": 45,
      "O": 46,
      "P": 47,
      "Q": 48,
      "R": 49,
      "S": 50,
      "T": 51,
      "U": 52,
      "V": 53,
      "W": 54,
      "X": 55,
      "Y": 56,
      "Z": 57,
      "[": 58,
      "\\": 59,
      "]": 60,
      "^": 61,
      "_": 62,
      "`": 63,
      "a": 64,
      "b": 65,
      "c": 66,
      "d": 67,
      "e": 68,
      "f": 69,
      "g": 70,
      "h": 71,
      "i": 72,
      "j": 73,
      "k": 74,
      "l": 75,
      "m": 76,
      "n": 77,
      "o": 78,
      "p": 79,
      "q": 80,
      "r": 81,
      "s": 82,
      "t": 83,
      "u": 84,
      "v": 85,
      "w": 86,
      "x": 87,
      "y": 88,
      "z": 89,
      "{": 90,
      "|": 91,
      "}": 92,
      "~": 93,
      "¡": 94,
      "¢": 95,
      "£": 96,
      "¤": 97,
      "¥": 98,
      "¦": 99,
      "§": 100,
      "¨": 101,
      "©": 102,
      "ª": 103,
      "«": 104,
      "¬": 105,
      "®": 106,
      "¯": 107,
      "°": 108,
      "±": 109,
      "²": 110,
      "³": 111,
      "´": 112,
      "µ": 113,
      "¶": 114,
      "·": 115,
      "¸": 116,
      "¹": 117,
      "º": 118,
      "»": 119,
      "¼": 120,
      "½": 121,
      "¾": 122,
      "¿": 123,
      "À": 124,
      "Á": 125,
      "Â": 126,
      "Ã": 127,
      "Ä": 128,
      "Å": 129,
      "Æ": 130,
      "Ç": 131,
      "È": 132,
      "É": 133,
      "Ê": 134,
      "Ë": 135,
      "Ì": 136,
      "Í": 137,
      "Î": 138,
      "Ï": 139,
      "Ð": 140,
      "Ñ": 141,
      "Ò": 142,
      "Ó": 143,
      "Ô": 144,
      "Õ": 145,
      "Ö": 146,
      "×": 147,
      "Ø": 148,
      "Ù": 149,
      "Ú": 150,
      "Û": 151,
      "Ü": 152,
      "Ý": 153,
      "Þ": 154,
      "ß": 155,
      "à": 156,
      "á": 157,
      "â": 158,
      "ã": 159,
      "ä": 160,
      "å": 161,
      "æ": 162,
      "ç": 163,
      "è": 164,
      "é": 165,
      "ê": 166,
      "ë": 167,
      "ì": 168,
      "í": 169,
      "î": 170,
      "ï": 171,
      "ð": 172,
      "ñ": 173,
      "ò": 174,
      "ó": 175,
      "ô": 176,
      "õ": 177,
      "ö": 178,
      "÷": 179,
      "ø": 180,
      "ù": 181,
      "ú": 182,
      "û": 183,
      "ü": 184,
      "ý": 185,
      "þ": 186,
      "ÿ": 187,
      "Ā": 188,
      "ā": 189,
      "Ă": 190,
      "ă": 191,
      "Ą": 192,
      "ą": 193,
      "Ć": 194,
      "ć": 195,
      "Ĉ": 196,
      "ĉ": 197,
      "Ċ": 198,
      "ċ": 199,
      "Č": 200,
      "č": 201,
      "Ď": 202,
      "ď": 203,
      "Đ": 204,
      "đ": 205,
      "Ē": 206,
      "ē": 207,
      "Ĕ": 208,
      "ĕ": 209,
      "Ė": 210,
      "ė": 211,
      "Ę": 212,
      "ę": 213,
      "Ě": 214,
      "ě": 215,
      "Ĝ": 216,
      "ĝ": 217,
      "Ğ": 218,
      "ğ": 219,
      "Ġ": 220,
      "ġ": 221,
      "Ģ": 222,
      "ģ": 223,
      "Ĥ": 224,
      "ĥ": 225,
      "Ħ": 226,
      "ħ": 227,
      "Ĩ": 228,
      "ĩ": 229,
      "Ī": 230,
      "ī": 231,
      "Ĭ": 232,
      "ĭ": 233,
      "Į": 234,
      "į": 235,
      "İ": 236,
      "ı": 237,
      "Ĳ": 238,
      "ĳ": 239,
      "Ĵ": 240,
      "ĵ": 241,
      "Ķ": 242,
      "ķ": 243,
      "ĸ": 244,
      "Ĺ": 245,
      "ĺ": 246,
      "Ļ": 247,
      "ļ": 248,
      "Ľ": 249,
      "ľ": 250,
      "Ŀ": 251,
      "ŀ": 252,
      "Ł": 253,
      "ł": 254,
      "Ń": 255,
      "Ġt": 256,
      "he": 257,
      "Ġa": 258,
      "in": 259,
      "er": 260,
      "on": 261,
      "Ġthe": 262,
      "or": 263,
      "an": 264,
      "re": 265,
      "at": 266,
      "Ġo": 267,
      "ed": 268,
      "en": 269,
      "st": 270,
      "al": 271,
      "ar": 272,
      "it": 273,
      "Ġw": 274,
      "Ġof": 275,
      "nd": 276,
      "Ġin": 277,
      "Ġs": 278,
      "is": 279,
      "Ġc": 280,
      "Ġf": 281,
      "es": 282,
      "ic": 283,
      "Ġb": 284,
      "Ġp": 285,
      "Ġand": 286,
      "ing": 287,
      "ion": 288,
      "as": 289,
      "ĠS": 290,
      "ro": 291,
      "ĠT": 292,
      "ĠA": 293,
      "ĠC": 294,
      "le": 295,
      "Ġm": 296,
      "Ġ1": 297,
      "Ġto": 298,
      "ou": 299,
      "Ġd": 300,
      "il": 301,
      "ĠM": 302,
      "Ġ(": 303,
      "ent": 304,
      "Ġh": 305,
      "ĠB": 306,
      "am": 307,
      "ol": 308,
      "om": 309,
      "el": 310,
      "ĠP": 311,
      "Ġre": 312,
      "ĠI": 313,
      "ct": 314,
      "Ġ2": 315,
      "ĠThe": 316,
      "ĠH": 317,
      "ad": 318,
      "ch": 319,
      "et": 320,
      "ation": 321,
      "ĠR": 322,
      "Ġl": 323,
      "Ġ19": 324,
      "ur": 325,
      "Ġn": 326,
      "iv": 327,
      "ĠD": 328,
      "Ġe": 329,
      "ĠL": 330,
      "Ġwas": 331,
      "Ġfor": 332,
      "ĠF": 333,
      "ig": 334,
      "ers": 335,
      "Ġis": 336,
      "id": 337,
      "us": 338,
      "ĠN": 339,
      "ly": 340,
      "ce": 341,
      "Ġon": 342,
      "ir": 343,
      "ot": 344,
      "Ġ20": 345,
      "ĠG": 346,
      "Ġth": 347,
      "ĠW": 348,
      "ay": 349,
      "im": 350,
      "ist": 351,
      "ut": 352,
      "ow": 353,
      "ra": 354,
      "Ġas": 355,
      "Ġg": 356,
      "un": 357,
      "ĠE": 358,
      "em": 359,
      "ith": 360,
      "ĠJ": 361,
      "and": 362,
      "âĢ": 363,
      "Ġst": 364,
      "Ġbe": 365,
      "Ġby": 366,
      "ul": 367,
      "th": 368,
      "her": 369,
      "ĠO": 370,
      "Ġwith": 371,
      "um": 372,
      "ag": 373,
      "ter": 374,
      "âĢĵ": 375,
      "os": 376,
      "rom": 377,
      "'s": 378,
      "ver": 379,
      "Ġal": 380,
      "Ġat": 381,
      "ac": 382,
      "Ġan": 383,
      "ĠIn": 384,
      "oc": 385,
      "ri": 386,
      "op": 387,
      "Ġ\"": 388,
      "ĠU": 389,
      "Ġcon": 390,
      "ĠK": 391,
      "Ġwh": 392,
      "Ġv": 393,
      "est": 394,
      "od": 395,
      "Ġfrom": 396,
      "Ġ200": 397,
      "ity": 398,
      "ĠSt": 399,
      "ber": 400,
      "ec": 401,
      "ian": 402,
      "ies": 403,
      "all": 404,
      "ew": 405,
      "ab": 406,
      "Ġpro": 407,
      "Ġcom": 408,
      "ain": 409,
      "ate": 410,
      "av": 411,
      "res": 412,
      "art": 413,
      "Ġhe": 414,
      "ia": 415,
      "ud": 416,
      "ill": 417,
      "ort": 418,
      "if": 419,
      "up": 420,
      "ard": 421,
      "Ġthat": 422,
      "Ġit": 423,
      "ub": 424,
      "Ġor": 425,
      "igh": 426,
      "Ġde": 427,
      "ak": 428,
      "ip": 429,
      "ap": 430,
      "ated": 431,
      "Ġare": 432,
      "ast": 433,
      "ich": 434,
      "ear": 435,
      "ĠCh": 436,
      "ary": 437,
      "ment": 438,
      "ran": 439,
      "ĠV": 440,
      "ess": 441,
      "qu": 442,
      "nt": 443,
      "ge": 444,
      "Ġpl": 445,
      "ov": 446,
      "ld": 447,
      "mer": 448,
      "),": 449,
      "ish": 450,
      "Ġhis": 451,
      "ive": 452,
      "ĠâĢĵ": 453,
      "ial": 454,
      "ong": 455,
      "end": 456,
      "ug": 457,
      "ant": 458,
      "our": 459,
      "Ġse": 460,
      "19": 461,
      "00": 462,
      "ine": 463,
      "Ġch": 464,
      "Ġex": 465,
      "ust": 466,
      "se": 467,
      "ord": 468,
      "ell": 469,
      "og": 470,
      "ĠUn": 471,
      "ame": 472,
      "ction": 473,
      "Ġr": 474,
      "uc": 475,
      "und": 476,
      "ep": 477,
      "Ġ201": 478,
      "ire": 479,
      "ost": 480,
      "ĠHe": 481,
      "ere": 482,
      "ical": 483,
      "ore": 484,
      "ure": 485,
      "Ġ199": 486,
      "ue": 487,
      "Ġsp": 488,
      "Ġle": 489,
      "Ġcomp": 490,
      "ie": 491,
      "ts": 492,
      "Ġwhich": 493,
      "ork": 494,
      "so": 495,
      "ect": 496,
      "Ġwere": 497,
      "ff": 498,
      "cl": 499,
      "rit": 500,
      "ry": 501,
      "pp": 502,
      "ther": 503,
      "ric": 504,
      "ass": 505,
      "ĠY": 506,
      "land": 507,
      "Ġy": 508,
      "Ġsh": 509,
      "ok": 510,
      "Ġk": 511,
      "Ġ3": 512,
      "ational": 513,
      "ĠAl": 514,
      "erv": 515,
      "ĠIt": 516,
      "ations": 517,
      "ous": 518,
      "ition": 519,
      "irst": 520,
      "are": 521,
      "Ġalso": 522,
      "ount": 523,
      "man": 524,
      "Ġhas": 525,
      "ack": 526,
      "Ġun": 527,
      "age": 528,
      "Ġ18": 529,
      "ond": 530,
      "Ġus": 531,
      "ign": 532,
      "ĠTh": 533,
      "ide": 534,
      "hed": 535,
      "ight": 536,
      "orn": 537,
      "ool": 538,
      "ice": 539,
      "Ġte": 540,
      "per": 541,
      "own": 542,
      "iz": 543,
      "Ġcl": 544,
      "ng": 545,
      "ave": 546,
      "ited": 547,
      "ey": 548,
      "ang": 549,
      "ark": 550,
      ").": 551,
      "Ġfirst": 552,
      "Ġar": 553,
      "ates": 554,
      "Ġplay": 555,
      "te": 556,
      "ome": 557,
      "port": 558,
      "amp": 559,
      "ĠAr": 560,
      "Ġnot": 561,
      "ach": 562,
      "ater": 563,
      "Ġ-": 564,
      "ĠNew": 565,
      "ican": 566,
      "wo": 567,
      "Ġits": 568,
      "ree": 569,
      "fter": 570,
      "ib": 571,
      "Ġcont": 572,
      "Ġwhe": 573,
      "ence": 574,
      "Ġres": 575,
      "Ġad": 576,
      "Ġro": 577,
      "Ġ198": 578,
      "Ġpart": 579,
      "ory": 580,
      "chool": 581,
      "ions": 582,
      "ru": 583,
      "ens": 584,
      "clud": 585,
      "ound": 586,
      "to": 587,
      "ult": 588,
      "Ġhad": 589,
      "ubl": 590,
      "ĠAmer": 591,
      "ime": 592,
      "eg": 593,
      "ivers": 594,
      "Ġac": 595,
      "oll": 596,
      "pl": 597,
      "ĠCom": 598,
      "Ġapp": 599,
      "over": 600,
      "ember": 601,
      "fer": 602,
      "ĠMar": 603,
      "aw": 604,
      "ild": 605,
      "Ġone": 606,
      "Ġinclud": 607,
      "Ġ4": 608,
      "out": 609,
      "Ġwho": 610,
      "Ġtheir": 611,
      "Ġj": 612,
      "ally": 613,
      "Ġab": 614,
      "ik": 615,
      "ased": 616,
      "for": 617,
      "ph": 618,
      "ugh": 619,
      "Ġyear": 620,
      "ents": 621,
      "Ġ197": 622,
      "any": 623,
      "ace": 624,
      "Ġrec": 625,
      "iss": 626,
      "eb": 627,
      "act": 628,
      "oy": 629,
      "ress": 630,
      "wn": 631,
      "ĠĊ": 632,
      "ite": 633,
      "Ġhave": 634,
      "ĠAs": 635,
      "Ġper": 636,
      "old": 637,
      "pt": 638,
      "uring": 639,
      "ern": 640,
      "ors": 641,
      "les": 642,
      "io": 643,
      "Ġbut": 644,
      "ile": 645,
      "ons": 646,
      "ĠAmerican": 647,
      "Ġtwo": 648,
      "vel": 649,
      "ade": 650,
      "ob": 651,
      "ail": 652,
      "ĠDe": 653,
      "ath": 654,
      "ĠLe": 655,
      "Ġall": 656,
      "Ġbec": 657,
      "ĠOn": 658,
      "Ġsc": 659,
      "oin": 660,
      "ied": 661,
      "Ġother": 662,
      "Ġ5": 663,
      "Ġag": 664,
      "Ġen": 665,
      "ilm": 666,
      "20": 667,
      "ward": 668,
      "ings": 669,
      "gh": 670,
      "ted": 671,
      "ished": 672,
      "Ġbeen": 673,
      "Ġthis": 674,
      "orld": 675,
      "we": 676,
      "ton": 677,
      "Ġcomm": 678,
      "ĠUnited": 679,
      "outh": 680,
      "ral": 681,
      "Ġdes": 682,
      "als": 683,
      "oot": 684,
      "red": 685,
      "way": 686,
      "uch": 687,
      "pe": 688,
      "hip": 689,
      "able": 690,
      "ics": 691,
      "ock": 692,
      "Ġserv": 693,
      "Ġ196": 694,
      "oh": 695,
      "ely": 696,
      "ould": 697,
      "Ġafter": 698,
      "ind": 699,
      "Ġdis": 700,
      "Ġim": 701,
      "ah": 702,
      "ball": 703,
      "ram": 704,
      "Ġher": 705,
      "Ġwork": 706,
      "iversity": 707,
      "ood": 708,
      "ance": 709,
      "ron": 710,
      "ĠSh": 711,
      "urn": 712,
      "olle": 713,
      "ans": 714,
      "Âł": 715,
      "ces": 716,
      "Ġnew": 717,
      "ision": 718,
      "Ġtra": 719,
      "orth": 720,
      "duc": 721,
      "Ġloc": 722,
      "Ġinter": 723,
      "Ġoff": 724,
      "ren": 725,
      "ase": 726,
      "ook": 727,
      "ĠPro": 728,
      "rans": 729,
      "Ġcan": 730,
      "ĠSc": 731,
      "Ġra": 732,
      "gan": 733,
      "du": 734,
      "Ġover": 735,
      "ames": 736,
      "ĠAn": 737,
      "der": 738,
      "ck": 739,
      "Ġup": 740,
      "Ġinto": 741,
      "ick": 742,
      "ough": 743,
      "Ġgro": 744,
      "Ġund": 745,
      "Ġele": 746,
      "ft": 747,
      "inal": 748,
      "olog": 749,
      "Ġkn": 750,
      "one": 751,
      "Ġ|": 752,
      "ix": 753,
      "ĠUniversity": 754,
      "ople": 755,
      "Ġout": 756,
      "ex": 757,
      "Ġ6": 758,
      "son": 759,
      "ĠSp": 760,
      "ann": 761,
      "Ġact": 762,
      "che": 763,
      "ĠCon": 764,
      "Ġev": 765,
      "rough": 766,
      "rib": 767,
      "Ġpre": 768,
      "form": 769,
      "iel": 770,
      "cess": 771,
      "rad": 772,
      "ict": 773,
      "ĠZ": 774,
      "ince": 775,
      "18": 776,
      "ener": 777,
      "ĠInd": 778,
      "ake": 779,
      "ious": 780,
      "eat": 781,
      "ĠCl": 782,
      "Ġform": 783,
      "Ġbu": 784,
      "ose": 785,
      "ĠStates": 786,
      "Ġpubl": 787,
      "ĠEng": 788,
      "eople": 789,
      "ĠOr": 790,
      "Ġcent": 791,
      "ĠĠ": 792,
      "Ġfilm": 793,
      "Ġcons": 794,
      "Ġreg": 795,
      "Ġused": 796,
      "oci": 797,
      "eries": 798,
      "Ġbet": 799,
      "ev": 800,
      "reat": 801,
      "Ġsec": 802,
      "ities": 803,
      "Ġatt": 804,
      "Ġunder": 805,
      "oun": 806,
      "Ġpr": 807,
      "Ġco": 808,
      "Ġthey": 809,
      "az": 810,
      "ins": 811,
      "Ġtime": 812,
      "ollow": 813,
      "ĠJoh": 814,
      "Ġ195": 815,
      "aj": 816,
      "emb": 817,
      "ween": 818,
      "ee": 819,
      "oth": 820,
      "Ġ194": 821,
      "ason": 822,
      "Ġstud": 823,
      "inn": 824,
      "Ġschool": 825,
      "Ġind": 826,
      "ĠThis": 827,
      "ĠNational": 828,
      "cted": 829,
      "ĠFor": 830,
      "ll": 831,
      "Ġsy": 832,
      "ever": 833,
      "ular": 834,
      "ident": 835,
      "Ġest": 836,
      "ten": 837,
      "Ġ7": 838,
      "Ġmost": 839,
      "ual": 840,
      "ober": 841,
      "ier": 842,
      "att": 843,
      "Ġpol": 844,
      "ury": 845,
      "Ã©": 846,
      "Ġduring": 847,
      "Ġrele": 848,
      "abl": 849,
      "Ġyears": 850,
      "Ġwhen": 851,
      "200": 852,
      "Ġsub": 853,
      "ootball": 854,
      "Ġteam": 855,
      "Ġass": 856,
      "use": 857,
      "ĠAust": 858,
      "enn": 859,
      "Ġmore": 860,
      "ĠSchool": 861,
      "ĠJohn": 862,
      "arl": 863,
      "ative": 864,
      "ĠWorld": 865,
      "ced": 866,
      "resent": 867,
      "Ġonly": 868,
      "Ġfound": 869,
      "Ġbetween": 870,
      "ists": 871,
      "overn": 872,
      "Ġsup": 873,
      "Ġed": 874,
      "ley": 875,
      "Ġknown": 876,
      "pr": 877,
      "Ġme": 878,
      "ily": 879,
      "usic": 880,
      "bum": 881,
      "ĠIs": 882,
      "ĠWar": 883,
      "Ġrel": 884,
      "ĠCan": 885,
      "erm": 886,
      "Ġman": 887,
      "Ġwhere": 888,
      "Ġret": 889,
      "ĠBrit": 890,
      "Ġnum": 891,
      "air": 892,
      "ĠCount": 893,
      "ĠBl": 894,
      "iam": 895,
      "Ġthree": 896,
      "Ġdist": 897,
      "ĠComm": 898,
      "ash": 899,
      "\",": 900,
      "Ġ8": 901,
      "Ġshe": 902,
      "ield": 903,
      "Ġthrough": 904,
      "Ġfollow": 905,
      "Ġtrans": 906,
      "Ġfl": 907,
      "iver": 908,
      "ional": 909,
      "ros": 910,
      "ating": 911,
      "tern": 912,
      "ific": 913,
      "ague": 914,
      "ouse": 915,
      "ower": 916,
      "Ġ17": 917,
      "ale": 918,
      "Ġsuch": 919,
      "hen": 920,
      "Ġprov": 921,
      "ĠQ": 922,
      "Ġ2006": 923,
      "mp": 924,
      "Ġspec": 925,
      "ĠYork": 926,
      "Ġrem": 927,
      "Ġ&": 928,
      "ines": 929,
      "erman": 930,
      "ĠPh": 931,
      "pen": 932,
      "ctor": 933,
      "Ġqu": 934,
      "ife": 935,
      "ĠFran": 936,
      "Ġ9": 937,
      "Ġ10": 938,
      "\".": 939,
      "ures": 940,
      "Ġabout": 941,
      "ina": 942,
      "velop": 943,
      "Ġpop": 944,
      "Ġhim": 945,
      "ĠAd": 946,
      "arg": 947,
      "Ġagain": 948,
      "Ġwould": 949,
      "round": 950,
      "cc": 951,
      "ank": 952,
      "sh": 953,
      "Ġpeople": 954,
      "stit": 955,
      "ĠPl": 956,
      "stem": 957,
      "ĠAt": 958,
      "Ġseries": 959,
      "Ġ||": 960,
      "born": 961,
      "Ġset": 962,
      "ĠJun": 963,
      "Ġlater": 964,
      "Ġrecord": 965,
      "ĠShe": 966,
      "ĠSouth": 967,
      "Ġmov": 968,
      "Ġdec": 969,
      "Ġthere": 970,
      "Ġdire": 971,
      "Ġend": 972,
      "ĠNo": 973,
      "Ġalbum": 974,
      "ĠWest": 975,
      "Ġam": 976,
      "ject": 977,
      "Ġcall": 978,
      "Ġsecond": 979,
      "Ġwrit": 980,
      "inist": 981,
      "ĠMay": 982,
      "Ġph": 983,
      "rid": 984,
      "ement": 985,
      "eth": 986,
      "ism": 987,
      "its": 988,
      "uss": 989,
      "cy": 990,
      "fore": 991,
      "Ġdef": 992,
      "Ġsing": 993,
      "ĠAustral": 994,
      "Ġso": 995,
      "Ġsome": 996,
      "ĠJan": 997,
      "Ġ15": 998,
      "ĠReg": 999,
      "ived": 1000,
      "oss": 1001,
      "Ġbecame": 1002,
      "Ġ.": 1003,
      "urch": 1004,
      "rict": 1005,
      "Ġincluding": 1006,
      "Ġ16": 1007,
      "Ġart": 1008,
      "amed": 1009,
      "Ġinv": 1010,
      "Ġthan": 1011,
      "Ġmade": 1012,
      "Ġestabl": 1013,
      "Ġoper": 1014,
      "Ġent": 1015,
      "ept": 1016,
      "ise": 1017,
      "Ġname": 1018,
      "Ġthen": 1019,
      "ars": 1020,
      "ium": 1021,
      "ne": 1022,
      "ax": 1023,
      "Ġmod": 1024,
      "Ġorig": 1025,
      "ered": 1026,
      "Ġ193": 1027,
      "Ġear": 1028,
      "iew": 1029,
      "ĠBritish": 1030,
      "ike": 1031,
      "Ġmed": 1032,
      "ute": 1033,
      "Ġcount": 1034,
      "by": 1035,
      "ĠTe": 1036,
      "ĠCounty": 1037,
      "ert": 1038,
      "uro": 1039,
      "rist": 1040,
      "Ġfour": 1041,
      "ays": 1042,
      "Ġseason": 1043,
      "Ġwell": 1044,
      "Ġformer": 1045,
      "000": 1046,
      ".\"": 1047,
      "Ġbl": 1048,
      "Ġmay": 1049,
      "Ġgroup": 1050,
      "ĠWh": 1051,
      "Ġmon": 1052,
      "ollege": 1053,
      "Ġexp": 1054,
      "let": 1055,
      "ĠCent": 1056,
      "ĠCanad": 1057,
      "ĠGerman": 1058,
      "Ġthem": 1059,
      "Ġacc": 1060,
      "erson": 1061,
      "Ġbeing": 1062,
      "gram": 1063,
      "ve": 1064,
      "ĠNorth": 1065,
      "ired": 1066,
      "Ġfootball": 1067,
      "ural": 1068,
      "Ġmany": 1069,
      "ĠGe": 1070,
      "ution": 1071,
      "Ġ2005": 1072,
      "ĠJu": 1073,
      "ĠAm": 1074,
      "Ġfam": 1075,
      "til": 1076,
      "Ġinc": 1077,
      "ments": 1078,
      "ĠCar": 1079,
      "lev": 1080,
      "ĠPr": 1081,
      "Ġhigh": 1082,
      "Ġmain": 1083,
      "ĠMan": 1084,
      "ull": 1085,
      "Ġadd": 1086,
      "Ġchar": 1087,
      "uary": 1088,
      "au": 1089,
      "Ġlead": 1090,
      "Ġint": 1091,
      "ctions": 1092,
      "Ġsong": 1093,
      "Ġdevelop": 1094,
      "Ġstation": 1095,
      "very": 1096,
      "ĠNov": 1097,
      "Ġdo": 1098,
      "ĠMarch": 1099,
      "other": 1100,
      "Ġsign": 1101,
      "Ġnumber": 1102,
      "uth": 1103,
      "Ġ12": 1104,
      "Ġbro": 1105,
      "ugust": 1106,
      "ues": 1107,
      "Ġreleased": 1108,
      "ys": 1109,
      "duced": 1110,
      "ĠAll": 1111,
      "ĠAss": 1112,
      "Ġarea": 1113,
      "Ġown": 1114,
      "Ġgu": 1115,
      "icip": 1116,
      "ĠCol": 1117,
      "ai": 1118,
      "ather": 1119,
      "Ġuntil": 1120,
      "Ġvar": 1121,
      "my": 1122,
      "ient": 1123,
      "ĠRe": 1124,
      "rand": 1125,
      "ives": 1126,
      "ty": 1127,
      "els": 1128,
      "hes": 1129,
      "ica": 1130,
      "199": 1131,
      "Ġhist": 1132,
      "inc": 1133,
      "Ġrep": 1134,
      "Ġshow": 1135,
      "raph": 1136,
      "ott": 1137,
      "Ġno": 1138,
      "arri": 1139,
      "ĠEd": 1140,
      "Ġfeat": 1141,
      "eng": 1142,
      "Ġsystem": 1143,
      "Ġ202": 1144,
      "ĠAugust": 1145,
      "ke": 1146,
      "ices": 1147,
      "imes": 1148,
      "eneral": 1149,
      "Ġsur": 1150,
      "eptember": 1151,
      "Ġplayed": 1152,
      "ajor": 1153,
      "ĠCity": 1154,
      "eter": 1155,
      "ĠOct": 1156,
      "overnment": 1157,
      "ird": 1158,
      "embers": 1159,
      "Ġopen": 1160,
      "Ġsever": 1161,
      "Ġbas": 1162,
      "Ġboth": 1163,
      "ĠKing": 1164,
      "elf": 1165,
      "ior": 1166,
      "ety": 1167,
      "ĠEx": 1168,
      "ized": 1169,
      "ĠBro": 1170,
      "pril": 1171,
      "ology": 1172,
      "lish": 1173,
      "con": 1174,
      "The": 1175,
      "ĠBar": 1176,
      "ampions": 1177,
      "ĠGu": 1178,
      "ĠII": 1179,
      "ĠAfter": 1180,
      "Ġann": 1181,
      "Ġdif": 1182,
      "Ġdesign": 1183,
      "Ġbuild": 1184,
      "Ġwhile": 1185,
      "mber": 1186,
      "Ġbefore": 1187,
      "ĠJanuary": 1188,
      "Ġcap": 1189,
      "ĠCal": 1190,
      "Ġcalled": 1191,
      "ross": 1192,
      "ĠSeptember": 1193,
      "ĠJune": 1194,
      "Ġmusic": 1195,
      "ĠComp": 1196,
      "Ġcre": 1197,
      "ract": 1198,
      "10": 1199,
      "Ġsm": 1200,
      "ox": 1201,
      "Ġback": 1202,
      "rent": 1203,
      "fess": 1204,
      "ĠOctober": 1205,
      "owever": 1206,
      "ĠBe": 1207,
      "Ġext": 1208,
      "ony": 1209,
      "ĠWill": 1210,
      "Ġstate": 1211,
      "Ġ2004": 1212,
      "ĠJuly": 1213,
      "Ġem": 1214,
      "Ġprodu": 1215,
      "ĠEuro": 1216,
      "ĠHigh": 1217,
      "Ġpolit": 1218,
      "ulation": 1219,
      "osed": 1220,
      "yl": 1221,
      "stru": 1222,
      "ually": 1223,
      "Ġ'": 1224,
      "ring": 1225,
      "ĠApril": 1226,
      "ks": 1227,
      "ared": 1228,
      "Ġprogram": 1229,
      "cember": 1230,
      "ster": 1231,
      "ital": 1232,
      "ove": 1233,
      "ris": 1234,
      "Ġfin": 1235,
      "Ġdesc": 1236,
      "Ġwon": 1237,
      "ĠâĢ": 1238,
      "ĠMon": 1239,
      "levision": 1240,
      "por": 1241,
      "Ġcur": 1242,
      "Ġrun": 1243,
      "ĠRep": 1244,
      "ved": 1245,
      "ages": 1246,
      "Ġagainst": 1247,
      "ĠEnglish": 1248,
      "ets": 1249,
      "ĠLeague": 1250,
      "oard": 1251,
      "ible": 1252,
      "Ġrece": 1253,
      "ission": 1254,
      "led": 1255,
      "Ġ192": 1256,
      "ĠState": 1257,
      "Ġorgan": 1258,
      "Ġair": 1259,
      "Ġseveral": 1260,
      "Ġ11": 1261,
      "ilt": 1262,
      "ret": 1263,
      "Ġgame": 1264,
      "Ġoffic": 1265,
      "sp": 1266,
      "arm": 1267,
      "Ġuse": 1268,
      "Ġ13": 1269,
      "vent": 1270,
      "Ġestablished": 1271,
      "Ġran": 1272,
      "Ġ2007": 1273,
      "ator": 1274,
      "ĠDecember": 1275,
      "Ġ14": 1276,
      "ĠChrist": 1277,
      "Ġfollowing": 1278,
      "ained": 1279,
      "Ġcommun": 1280,
      "ven": 1281,
      "oman": 1282,
      "Ġ2003": 1283,
      "Ġ2001": 1284,
      "Ġpublic": 1285,
      "aid": 1286,
      "Ġlocated": 1287,
      "Ġdep": 1288,
      "ĠFl": 1289,
      "ĠNovember": 1290,
      "Ġbased": 1291,
      "chn": 1292,
      "ene": 1293,
      "ĠRec": 1294,
      "ebru": 1295,
      "Ġlong": 1296,
      "ebruary": 1297,
      "17": 1298,
      "isc": 1299,
      "ĠPark": 1300,
      "ode": 1301,
      "ility": 1302,
      "ality": 1303,
      "Ġne": 1304,
      "itt": 1305,
      "ĠUS": 1306,
      "Ġnamed": 1307,
      "ĠPol": 1308,
      "fl": 1309,
      "ains": 1310,
      "oint": 1311,
      "Ġbook": 1312,
      "Ġdr": 1313,
      "ĠCollege": 1314,
      "ham": 1315,
      "Ġband": 1316,
      "ales": 1317,
      "ĠGeor": 1318,
      "ĠEast": 1319,
      "ially": 1320,
      "erg": 1321,
      "Ġearly": 1322,
      "Ġob": 1323,
      "ĠEurope": 1324,
      "resident": 1325,
      "Ġnear": 1326,
      "ĠCo": 1327,
      "ĠMed": 1328,
      "Ġtown": 1329,
      "ĠAnd": 1330,
      "Ġsince": 1331,
      "ple": 1332,
      "ĠSe": 1333,
      "ĠHis": 1334,
      "anc": 1335,
      "ĠThere": 1336,
      "ĠFebruary": 1337,
      "rop": 1338,
      "Ġsame": 1339,
      "ĠAf": 1340,
      "ause": 1341,
      "Ġstart": 1342,
      "ĠThey": 1343,
      "Ġgo": 1344,
      "ĠHar": 1345,
      "ful": 1346,
      "alth": 1347,
      "ically": 1348,
      "Ġcharact": 1349,
      "amb": 1350,
      "ĠIntern": 1351,
      "ience": 1352,
      "Ġvers": 1353,
      "hem": 1354,
      "Ġ2008": 1355,
      "ĠMc": 1356,
      "cept": 1357,
      "ze": 1358,
      "Ġcontin": 1359,
      "aking": 1360,
      "angu": 1361,
      "ĠOrder": 1362,
      "ĠAir": 1363,
      "yn": 1364,
      "ured": 1365,
      "reen": 1366,
      "Ġmin": 1367,
      "ĠAward": 1368,
      "12": 1369,
      "ford": 1370,
      "Ġsim": 1371,
      "ĠHist": 1372,
      "com": 1373,
      "ampionship": 1374,
      "ilit": 1375,
      "ants": 1376,
      "af": 1377,
      "ane": 1378,
      "Ġsuc": 1379,
      "Ġclass": 1380,
      "Ġclub": 1381,
      "ondon": 1382,
      "Ã¡": 1383,
      "Ġcomple": 1384,
      "Ġcity": 1385,
      "Ġthese": 1386,
      "ese": 1387,
      "ille": 1388,
      "Ġ,": 1389,
      "ended": 1390,
      "Ġplayer": 1391,
      "Ġmat": 1392,
      "ĠSw": 1393,
      "ograph": 1394,
      "osition": 1395,
      "ĠAb": 1396,
      "ĠPart": 1397,
      "iving": 1398,
      "ink": 1399,
      "ĠEn": 1400,
      "Ġ2000": 1401,
      "ĠDav": 1402,
      "omen": 1403,
      "Ġbel": 1404,
      "Ġsupport": 1405,
      "lymp": 1406,
      "Ġwill": 1407,
      "Ġ2010": 1408,
      "Ġchild": 1409,
      "ĠRo": 1410,
      "Ġmembers": 1411,
      "ival": 1412,
      "ided": 1413,
      "ounc": 1414,
      "Ġdiffer": 1415,
      "Ġ2002": 1416,
      "ĠOlymp": 1417,
      "Ġany": 1418,
      "ket": 1419,
      "Ġcentury": 1420,
      "ians": 1421,
      "Ġmajor": 1422,
      "Ġhead": 1423,
      "Ġalong": 1424,
      "uthor": 1425,
      "Ġtit": 1426,
      "adem": 1427,
      "ĠEl": 1428,
      "Ġfamily": 1429,
      "Ġterm": 1430,
      "Ġbus": 1431,
      "ington": 1432,
      "Ġmember": 1433,
      "Ġeach": 1434,
      "apan": 1435,
      "ĠSy": 1436,
      "ights": 1437,
      "Ġvill": 1438,
      "ridge": 1439,
      "ised": 1440,
      "Ġworld": 1441,
      "ĠWilliam": 1442,
      "ery": 1443,
      "16": 1444,
      "15": 1445,
      "Ġsmall": 1446,
      "Ġ2009": 1447,
      "ae": 1448,
      "ble": 1449,
      "augh": 1450,
      "iness": 1451,
      "Ġeff": 1452,
      "ĠLondon": 1453,
      "the": 1454,
      "Ġinclude": 1455,
      "Ġreturn": 1456,
      "illion": 1457,
      "Ġcompany": 1458,
      "Ġ1999": 1459,
      "Ġocc": 1460,
      "rew": 1461,
      "Ġ2011": 1462,
      "Ġresp": 1463,
      "ued": 1464,
      "uck": 1465,
      "13": 1466,
      "ĠAc": 1467,
      "Ġmet": 1468,
      "atic": 1469,
      "198": 1470,
      "rem": 1471,
      "Ġdisc": 1472,
      "Ġhome": 1473,
      "ivision": 1474,
      "Ġpublished": 1475,
      "ĠList": 1476,
      "Ġpass": 1477,
      "Ġplace": 1478,
      "urg": 1479,
      "ĠHer": 1480,
      "orm": 1481,
      "ĠPar": 1482,
      "ourn": 1483,
      "Ġrefer": 1484,
      "Ġlist": 1485,
      "aul": 1486,
      "Ġappear": 1487,
      "ublic": 1488,
      "ords": 1489,
      "Ġep": 1490,
      "Ġlaw": 1491,
      "Ġnational": 1492,
      "Ġgovernment": 1493,
      "que": 1494,
      "Ġtr": 1495,
      "Ġinst": 1496,
      "Ġcompet": 1497,
      "yp": 1498,
      "ined": 1499,
      "Ġtelevision": 1500,
      "Ġcare": 1501,
      "Ġeng": 1502,
      "Ġbegan": 1503,
      "ner": 1504,
      "ĠTr": 1505,
      "ung": 1506,
      "Ġheld": 1507,
      "ats": 1508,
      "ĠJapan": 1509,
      "ĠSec": 1510,
      "ĠCor": 1511,
      "side": 1512,
      "ourt": 1513,
      "Ġnow": 1514,
      "row": 1515,
      ".,": 1516,
      "Ġland": 1517,
      "Ġprom": 1518,
      "ĠAng": 1519,
      "Ġserved": 1520,
      "14": 1521,
      "ĠX": 1522,
      "earch": 1523,
      "Ġcar": 1524,
      "ĠSup": 1525,
      "Ġwe": 1526,
      "Ġsingle": 1527,
      "iet": 1528,
      "Ġ1998": 1529,
      "Ġbuilt": 1530,
      "aced": 1531,
      "arge": 1532,
      "ald": 1533,
      "rench": 1534,
      "hern": 1535,
      "cent": 1536,
      "adio": 1537,
      "ĠBr": 1538,
      "ĠInternational": 1539,
      "Ġlocal": 1540,
      "Ġrev": 1541,
      "Ġcol": 1542,
      "ĠPhil": 1543,
      "oung": 1544,
      "unicip": 1545,
      "Ġgames": 1546,
      "ien": 1547,
      "ature": 1548,
      "idd": 1549,
      "umb": 1550,
      "ouncil": 1551,
      "ides": 1552,
      "ration": 1553,
      "cast": 1554,
      "ino": 1555,
      "Ġborn": 1556,
      "Ġintern": 1557,
      "int": 1558,
      "Ġaround": 1559,
      "eder": 1560,
      "Ġsl": 1561,
      "Ġpopulation": 1562,
      "dom": 1563,
      "ison": 1564,
      "ĠRes": 1565,
      "ĠMe": 1566,
      "orthern": 1567,
      "ified": 1568,
      "..": 1569,
      "Ġline": 1570,
      "Ġimp": 1571,
      "ĠAct": 1572,
      "ociation": 1573,
      "Ġmanag": 1574,
      "ĠDist": 1575,
      "ata": 1576,
      "Ġcurrent": 1577,
      "Ġperson": 1578,
      "Ġcolle": 1579,
      "uk": 1580,
      "rol": 1581,
      "aving": 1582,
      "Ġ190": 1583,
      "ĠGl": 1584,
      "Ġprofess": 1585,
      "ĠRoy": 1586,
      "ches": 1587,
      "ĠRuss": 1588,
      "Ġ25": 1589,
      "ization": 1590,
      "Ġmark": 1591,
      "Ġold": 1592,
      "Ġ2012": 1593,
      "Ġpar": 1594,
      "Ġlast": 1595,
      "ĠMich": 1596,
      "ĠCup": 1597,
      "day": 1598,
      "ĠFrench": 1599,
      "work": 1600,
      "ows": 1601,
      "reet": 1602,
      "ately": 1603,
      "ently": 1604,
      "ana": 1605,
      "Ġref": 1606,
      "uff": 1607,
      "ett": 1608,
      "ĠAg": 1609,
      "Ġappro": 1610,
      "197": 1611,
      "ĠHouse": 1612,
      "Ġsuccess": 1613,
      "ĠLa": 1614,
      "Ġaward": 1615,
      "ĠCanada": 1616,
      "lands": 1617,
      "ĠAfric": 1618,
      "iforn": 1619,
      "Ġleg": 1620,
      "Ġpresent": 1621,
      "ĠTra": 1622,
      "ĠArt": 1623,
      "ling": 1624,
      "ĠAustralian": 1625,
      "ange": 1626,
      "Ġnorth": 1627,
      "ument": 1628,
      "Ġ30": 1629,
      "Ġcamp": 1630,
      "Ġav": 1631,
      "Ġeduc": 1632,
      "Ġdied": 1633,
      "Ġlarg": 1634,
      "arried": 1635,
      "ps": 1636,
      "Ġstr": 1637,
      "Ġstand": 1638,
      "akes": 1639,
      "omin": 1640,
      "line": 1641,
      "ĠHowever": 1642,
      "ording": 1643,
      "ifornia": 1644,
      "ief": 1645,
      "ilitary": 1646,
      "ĠSan": 1647,
      "ara": 1648,
      "eal": 1649,
      "Ġdue": 1650,
      "Ġplayers": 1651,
      "iod": 1652,
      "ĠAustralia": 1653,
      "ummer": 1654,
      "ĠCalifornia": 1655,
      "Ġsix": 1656,
      "aus": 1657,
      "Ġdeath": 1658,
      "urs": 1659,
      "Ġpo": 1660,
      "ering": 1661,
      "Ġdid": 1662,
      "Ġrest": 1663,
      "Ġreport": 1664,
      "Ġshort": 1665,
      "Ġ2013": 1666,
      "oph": 1667,
      "med": 1668,
      "ored": 1669,
      "aint": 1670,
      "Ġoriginal": 1671,
      "ĠEngland": 1672,
      "ĠRiver": 1673,
      "ideo": 1674,
      "Ġlangu": 1675,
      "11": 1676,
      "Ġconsid": 1677,
      "Ġfive": 1678,
      "ĠSch": 1679,
      "arn": 1680,
      "Ġincluded": 1681,
      "Ġservice": 1682,
      "ĠItal": 1683,
      "ler": 1684,
      "uman": 1685,
      "iven": 1686,
      "though": 1687,
      "Ġwithin": 1688,
      "Ġsk": 1689,
      "Ġrequ": 1690,
      "Ġdifferent": 1691,
      "Ġaddition": 1692,
      "Ġtrack": 1693,
      "Ġequ": 1694,
      "Ġtrad": 1695,
      "alk": 1696,
      "Ġdet": 1697,
      "ĠDuring": 1698,
      "ĠChar": 1699,
      "ĠIndian": 1700,
      "ively": 1701,
      "Ġrepl": 1702,
      "ody": 1703,
      "Ġlarge": 1704,
      "orts": 1705,
      "raft": 1706,
      "aces": 1707,
      "Ġvillage": 1708,
      "itar": 1709,
      "ries": 1710,
      "ĠOne": 1711,
      "Ġfinal": 1712,
      "ĠChurch": 1713,
      "ĠDavid": 1714,
      "Ġjoin": 1715,
      "ones": 1716,
      "Ġ24": 1717,
      "Ġsouth": 1718,
      "ards": 1719,
      "ĠRail": 1720,
      "Ġauthor": 1721,
      "Ġ$": 1722,
      "Ġpower": 1723,
      "olic": 1724,
      "iter": 1725,
      "Ġversion": 1726,
      "Ġ2014": 1727,
      "196": 1728,
      "Ġ189": 1729,
      "ected": 1730,
      "Ġrepresent": 1731,
      "Ġcharacter": 1732,
      "Ġproduced": 1733,
      "Ġfield": 1734,
      "ĠPer": 1735,
      "Ġtook": 1736,
      "ĠRober": 1737,
      "Ġperform": 1738,
      "Ġoften": 1739,
      "ped": 1740,
      "Ġreceived": 1741,
      "ining": 1742,
      "Ġhel": 1743,
      "vers": 1744,
      "Ġmen": 1745,
      "cer": 1746,
      "Ġevent": 1747,
      "ocial": 1748,
      "van": 1749,
      "ociety": 1750,
      "Ġla": 1751,
      "Ġdown": 1752,
      "ency": 1753,
      "epend": 1754,
      "aim": 1755,
      "Ġorigin": 1756,
      "âĢĻ": 1757,
      "oon": 1758,
      "sc": 1759,
      "Ġcor": 1760,
      "Ġcountry": 1761,
      "ether": 1762,
      "conom": 1763,
      "ges": 1764,
      "Ġvoc": 1765,
      "lex": 1766,
      "Ġlife": 1767,
      "tain": 1768,
      "ĠChampionship": 1769,
      "par": 1770,
      "Ġcommon": 1771,
      "ruct": 1772,
      "Ġson": 1773,
      "Ġstudents": 1774,
      "inning": 1775,
      "Ġnon": 1776,
      "Ġwritten": 1777,
      "bert": 1778,
      "ĠSm": 1779,
      "ael": 1780,
      "Ġbuilding": 1781,
      "Ġleft": 1782,
      "Ġepis": 1783,
      "Ġ1990": 1784,
      "ĠNor": 1785,
      "ĠJames": 1786,
      "Ġadm": 1787,
      "vious": 1788,
      "ĠGro": 1789,
      "ĠĠĠĠ": 1790,
      "Ġ2015": 1791,
      "Ġhistory": 1792,
      "Ġthird": 1793,
      "Ġdistrict": 1794,
      "alt": 1795,
      "50": 1796,
      "Ġwater": 1797,
      "reg": 1798,
      "Ġorder": 1799,
      "ĠBas": 1800,
      "Ġgener": 1801,
      "ulations": 1802,
      "Ġdeb": 1803,
      "ness": 1804,
      "ĠPress": 1805,
      "omb": 1806,
      "Ġtop": 1807,
      "ĠGeorge": 1808,
      "Ġday": 1809,
      "ĠOff": 1810,
      "na": 1811,
      "ĠAnt": 1812,
      "BC": 1813,
      "Ġmunicip": 1814,
      "artment": 1815,
      "Ġ2016": 1816,
      "lin": 1817,
      "tal": 1818,
      "Ġrail": 1819,
      "ÃŃ": 1820,
      "Ġpost": 1821,
      "Ġbecause": 1822,
      "Ġdescrib": 1823,
      "Ġdem": 1824,
      "Ġchildren": 1825,
      "Ġresult": 1826,
      "ĠDistrict": 1827,
      "ribut": 1828,
      "ĠHol": 1829,
      "ĠPaul": 1830,
      "ĠRoyal": 1831,
      "Ġ0": 1832,
      "ĠRich": 1833,
      "Ġcareer": 1834,
      "ĠAssociation": 1835,
      "Ġwest": 1836,
      "Ġcover": 1837,
      "ĠFilm": 1838,
      "lect": 1839,
      "aff": 1840,
      "Ġbusiness": 1841,
      "ories": 1842,
      "Ġbest": 1843,
      "Ġcould": 1844,
      "yle": 1845,
      "Ġfac": 1846,
      "aster": 1847,
      "Ã¼": 1848,
      "ĠMor": 1849,
      "Ġsold": 1850,
      "ivil": 1851,
      "ms": 1852,
      "ĠQu": 1853,
      "ka": 1854,
      "Ġincre": 1855,
      "Ġarch": 1856,
      "ĠCap": 1857,
      "Ġval": 1858,
      "ĠTrans": 1859,
      "ounced": 1860,
      "co": 1861,
      "Ġeast": 1862,
      "Ġmag": 1863,
      "Ġperiod": 1864,
      "Ġconstru": 1865,
      "ĠPort": 1866,
      "Ġstill": 1867,
      "Ġinternational": 1868,
      "ilar": 1869,
      "Ġvis": 1870,
      "omet": 1871,
      "Ġelect": 1872,
      "osp": 1873,
      "ĠBy": 1874,
      "ĠDes": 1875,
      "Ġopened": 1876,
      "Ġcr": 1877,
      "ĠArmy": 1878,
      "ecut": 1879,
      "ĠDep": 1880,
      "formation": 1881,
      "useum": 1882,
      "ote": 1883,
      "Ġsol": 1884,
      "ĠRed": 1885,
      "ician": 1886,
      "Ġiss": 1887,
      "ius": 1888,
      "ploy": 1889,
      "itions": 1890,
      "ander": 1891,
      "ĠBra": 1892,
      "ged": 1893,
      "Ġjust": 1894,
      "Ġ188": 1895,
      "ĠAcadem": 1896,
      "ĠCanadian": 1897,
      "Ã³": 1898,
      "riend": 1899,
      "Ġstruct": 1900,
      "ĠRoman": 1901,
      "ico": 1902,
      "aur": 1903,
      "Ġlike": 1904,
      "rest": 1905,
      "ĠCath": 1906,
      "ves": 1907,
      "ama": 1908,
      "Ġstat": 1909,
      "ĠEm": 1910,
      "ĠThom": 1911,
      "Ġ22": 1912,
      "Ġwar": 1913,
      "Ġlevel": 1914,
      "ĠQue": 1915,
      "thern": 1916,
      "Ġtechn": 1917,
      "ĠParty": 1918,
      "hel": 1919,
      "ney": 1920,
      "Ġamong": 1921,
      "oe": 1922,
      "ĠBel": 1923,
      "ĠCouncil": 1924,
      "Ġhost": 1925,
      "Ġif": 1926,
      "ĠStud": 1927,
      "Ġ21": 1928,
      "ĠAmerica": 1929,
      "ĠKingdom": 1930,
      "Ġnov": 1931,
      "ĠRoad": 1932,
      "ĠDr": 1933,
      "eek": 1934,
      "urb": 1935,
      "ym": 1936,
      "Ġaff": 1937,
      "ky": 1938,
      "ĠRev": 1939,
      "Ġ1997": 1940,
      "Ġfun": 1941,
      "ĠLou": 1942,
      "Ġlate": 1943,
      "of": 1944,
      "alf": 1945,
      "Ġ2018": 1946,
      "tt": 1947,
      "Ġimport": 1948,
      "Ġvery": 1949,
      "outhern": 1950,
      "Ġsite": 1951,
      "Ġspecies": 1952,
      "Ġsett": 1953,
      "ournal": 1954,
      "Ġ23": 1955,
      "ĠVal": 1956,
      "ĠHall": 1957,
      "Ġ1980": 1958,
      "ases": 1959,
      "Ġ2017": 1960,
      "ext": 1961,
      "de": 1962,
      "Ġmult": 1963,
      "Ġtitle": 1964,
      "Ġtri": 1965,
      "Ġmillion": 1966,
      "off": 1967,
      "Ġvarious": 1968,
      "itor": 1969,
      "Ġmoved": 1970,
      "ĠDivision": 1971,
      "Ġkill": 1972,
      "Ġgeneral": 1973,
      "Ġprocess": 1974,
      "ĠAcc": 1975,
      "attle": 1976,
      "ours": 1977,
      "Ġport": 1978,
      "Ġ1996": 1979,
      "Ġhistor": 1980,
      "Ġfre": 1981,
      "Ġanother": 1982,
      "ĠStreet": 1983,
      "ole": 1984,
      "ĠMusic": 1985,
      "ĠEuropean": 1986,
      "irc": 1987,
      "Ġengine": 1988,
      "abor": 1989,
      "Ġrole": 1990,
      "Ġproject": 1991,
      "ĠYear": 1992,
      "ago": 1993,
      "ĠServ": 1994,
      "ĠMinist": 1995,
      "Ġexper": 1996,
      "Ġactiv": 1997,
      "ray": 1998,
      "Ġhand": 1999,
      "Ġsaid": 2000,
      "ĠIndia": 2001,
      "ize": 2002,
      "Ġchang": 2003,
      "):": 2004,
      "Ġinvol": 2005,
      "avy": 2006,
      "Ġvol": 2007,
      "ming": 2008,
      "Ġopp": 2009,
      "etwork": 2010,
      "ests": 2011,
      "Ġusing": 2012,
      "Ġcommunity": 2013,
      "ĠBlack": 2014,
      "Ġstations": 2015,
      "ady": 2016,
      "Ġposs": 2017,
      "ĠFrom": 2018,
      "Ġcrit": 2019,
      "Ġeffect": 2020,
      "Ġ/": 2021,
      "icle": 2022,
      "Ġprevious": 2023,
      "Ġside": 2024,
      "Ġpat": 2025,
      "ĠBer": 2026,
      "ville": 2027,
      "irl": 2028,
      "ament": 2029,
      "Ġthose": 2030,
      "Ġhouse": 2031,
      "uel": 2032,
      "Ġspecial": 2033,
      "ĠThese": 2034,
      "ĠTV": 2035,
      "Ġled": 2036,
      "Ġposition": 2037,
      "Ġintro": 2038,
      "Ġcreated": 2039,
      "Ġprim": 2040,
      "field": 2041,
      "ister": 2042,
      "Ġexamp": 2043,
      "Ġgrad": 2044,
      "ĠâĢĶ": 2045,
      "umn": 2046,
      "adcast": 2047,
      "Ġ2019": 2048,
      "Ġcult": 2049,
      "ĠUnion": 2050,
      "Ġsit": 2051,
      "iment": 2052,
      "Ġdel": 2053,
      "Ġthough": 2054,
      "Ġpopular": 2055,
      "ele": 2056,
      "ush": 2057,
      "Ġmarried": 2058,
      "ops": 2059,
      "ockey": 2060,
      "Ġsw": 2061,
      "Ġannounced": 2062,
      "Ġcoach": 2063,
      "ĠPeople": 2064,
      "ugg": 2065,
      "stitute": 2066,
      "ĠWhen": 2067,
      "tra": 2068,
      "ketball": 2069,
      "Ġ26": 2070,
      "anish": 2071,
      "ched": 2072,
      "reland": 2073,
      "ĠWith": 2074,
      "âĢĶ": 2075,
      "Ġant": 2076,
      "Ġbeg": 2077,
      "Ġ186": 2078,
      "ĠScott": 2079,
      "iber": 2080,
      "Ġgiven": 2081,
      "Ġel": 2082,
      "Ġage": 2083,
      "Ġpe": 2084,
      "Ġ27": 2085,
      "Ġguitar": 2086,
      "ense": 2087,
      "iron": 2088,
      "Ġofficial": 2089,
      "Ġprot": 2090,
      "Ġ28": 2091,
      "ĠJos": 2092,
      "ĠGermany": 2093,
      "Ġfather": 2094,
      "inter": 2095,
      "ological": 2096,
      "lear": 2097,
      "ont": 2098,
      "ĠRobert": 2099,
      "ĠGeneral": 2100,
      "Ġproduction": 2101,
      "ishing": 2102,
      "ning": 2103,
      "ream": 2104,
      "Ġpres": 2105,
      "ĠLaw": 2106,
      "ots": 2107,
      "Ġes": 2108,
      "eed": 2109,
      "oor": 2110,
      "ĠMal": 2111,
      "west": 2112,
      "ĠBest": 2113,
      "reek": 2114,
      "ĠJe": 2115,
      "Ġ1995": 2116,
      "Ġeven": 2117,
      "ĠBu": 2118,
      "Ġmonth": 2119,
      "Ġtem": 2120,
      "30": 2121,
      "Ġexpl": 2122,
      "Ġproduc": 2123,
      "Ġbecome": 2124,
      "Ġ187": 2125,
      "Ġschools": 2126,
      "ĠBook": 2127,
      "ĠProv": 2128,
      "ĠIreland": 2129,
      "itz": 2130,
      "eball": 2131,
      "aper": 2132,
      "anies": 2133,
      "ĠMy": 2134,
      "Ġservices": 2135,
      "ĠPal": 2136,
      "ĠPat": 2137,
      "ĠMark": 2138,
      "ĠArch": 2139,
      "ront": 2140,
      "ĠÃ": 2141,
      "ĠMag": 2142,
      "Ġfounded": 2143,
      "Ġdevelopment": 2144,
      "Ġ2020": 2145,
      "ĠWash": 2146,
      "Ġsimilar": 2147,
      "ĠFrance": 2148,
      "Ġareas": 2149,
      "eared": 2150,
      "Ġmake": 2151,
      "Ġallow": 2152,
      "olution": 2153,
      "berg": 2154,
      "Ġtotal": 2155,
      "Ġ1994": 2156,
      "Ġconc": 2157,
      "ention": 2158,
      "ĠPresident": 2159,
      "ĠGreat": 2160,
      "forman": 2161,
      "rick": 2162,
      "Ġ[": 2163,
      "ĠPri": 2164,
      "Ġhig": 2165,
      "Ġevery": 2166,
      "Ġ1970": 2167,
      "ĠCatholic": 2168,
      "stitut": 2169,
      "wood": 2170,
      "ope": 2171,
      "rag": 2172,
      "Ġregion": 2173,
      "Ġgl": 2174,
      "bor": 2175,
      "ari": 2176,
      "Ġren": 2177,
      "ĠCourt": 2178,
      "ĠHill": 2179,
      "ript": 2180,
      "Ġpri": 2181,
      "app": 2182,
      "ipp": 2183,
      "eh": 2184,
      "ki": 2185,
      "Ġwomen": 2186,
      "Ġprop": 2187,
      "ĠSociety": 2188,
      "ĠMart": 2189,
      "Ġyoung": 2190,
      "ston": 2191,
      "Ġtw": 2192,
      "iddle": 2193,
      "Ġpark": 2194,
      "Ġtimes": 2195,
      "iction": 2196,
      "Ġmuch": 2197,
      "ination": 2198,
      "ĠClub": 2199,
      "ĠCompany": 2200,
      "ĠFootball": 2201,
      "cher": 2202,
      "Ġbre": 2203,
      "ĠMary": 2204,
      "ĠRailway": 2205,
      "ibr": 2206,
      "Ġ1992": 2207,
      "rian": 2208,
      "uf": 2209,
      "Ġcame": 2210,
      "Ġweb": 2211,
      "ĠCommun": 2212,
      "ogn": 2213,
      "ĠWashington": 2214,
      "ĠRecords": 2215,
      "ĠOlympics": 2216,
      "ivid": 2217,
      "ĠMichael": 2218,
      "ittle": 2219,
      "Ġfact": 2220,
      "Ġinit": 2221,
      "ateg": 2222,
      "ĠFirst": 2223,
      "Ġcomb": 2224,
      "Ġdirect": 2225,
      "Ġadv": 2226,
      "rated": 2227,
      "Ġlanguage": 2228,
      "ĠEduc": 2229,
      "istan": 2230,
      "Ã¶": 2231,
      "Ġappeared": 2232,
      "arliam": 2233,
      "ĠDon": 2234,
      "ha": 2235,
      "iles": 2236,
      "Ġindust": 2237,
      "Ġstarted": 2238,
      "Ġvocals": 2239,
      "Ġrock": 2240,
      "194": 2241,
      "ĠKn": 2242,
      "Ġpolitical": 2243,
      "ĠMiss": 2244,
      "ointed": 2245,
      "ĠJack": 2246,
      "rote": 2247,
      "sequ": 2248,
      "odes": 2249,
      "ports": 2250,
      "arliament": 2251,
      "ĠGroup": 2252,
      "Ġlim": 2253,
      "Ġmilitary": 2254,
      "ĠZeal": 2255,
      "ailable": 2256,
      "icular": 2257,
      "Ġpract": 2258,
      "ĠDem": 2259,
      "ached": 2260,
      "Ġtyp": 2261,
      "Ġfew": 2262,
      "Ġeconom": 2263,
      "'t": 2264,
      "ĠSl": 2265,
      "ĠIsland": 2266,
      "Ġprofessional": 2267,
      "Ġ29": 2268,
      "ĠHistor": 2269,
      "ĠZealand": 2270,
      "ĠAlex": 2271,
      "ĠHen": 2272,
      "ĠVir": 2273,
      "Ġter": 2274,
      "Ġdeveloped": 2275,
      "iol": 2276,
      "ĠRegulations": 2277,
      "ĠCentral": 2278,
      "Ġhaving": 2279,
      "Ġattack": 2280,
      "Ġwent": 2281,
      "ĠChristian": 2282,
      "Ġ2021": 2283,
      "ĠHistory": 2284,
      "Ġdirector": 2285,
      "flu": 2286,
      "Ġgreat": 2287,
      "Ġfull": 2288,
      "year": 2289,
      "Ġrecorded": 2290,
      "ype": 2291,
      "ĠCont": 2292,
      "ĠVol": 2293,
      "ĠWestern": 2294,
      "lic": 2295,
      "ators": 2296,
      "Ġaut": 2297,
      "Ġ100": 2298,
      "unt": 2299,
      "Ġ1991": 2300,
      "xt": 2301,
      "ography": 2302,
      "ĠWe": 2303,
      "ĠAngel": 2304,
      "Ġturn": 2305,
      "ĠAcademy": 2306,
      "ma": 2307,
      "ĠUK": 2308,
      "Ġwhat": 2309,
      "Ġconsidered": 2310,
      "195": 2311,
      "ĠCenter": 2312,
      "Ġteams": 2313,
      "ĠYou": 2314,
      "ĠSen": 2315,
      "Ġvideo": 2316,
      "Ġinf": 2317,
      "Ġ1993": 2318,
      "CA": 2319,
      "ference": 2320,
      "ĠLouis": 2321,
      "me": 2322,
      "Ġtradition": 2323,
      "Ġadminist": 2324,
      "Ġ()": 2325,
      "Ġelection": 2326,
      "Ġgroups": 2327,
      "Ġgen": 2328,
      "be": 2329,
      "aken": 2330,
      "era": 2331,
      "urther": 2332,
      "yd": 2333,
      "ĠMex": 2334,
      "Ġround": 2335,
      "Ġleague": 2336,
      "itte": 2337,
      "ĠMount": 2338,
      "iers": 2339,
      "ĠThomas": 2340,
      "Ġexample": 2341,
      "Ġstory": 2342,
      "ĠInter": 2343,
      "ĠSome": 2344,
      "ĠIr": 2345,
      "ĠCharles": 2346,
      "Ġpresident": 2347,
      "Ġevents": 2348,
      "Ġpolitician": 2349,
      "Ġworks": 2350,
      "Ġder": 2351,
      "wards": 2352,
      "ĠTo": 2353,
      "ĠMac": 2354,
      "rab": 2355,
      "ĠFlor": 2356,
      "ĠTex": 2357,
      "Ġroad": 2358,
      "aughter": 2359,
      "ef": 2360,
      "burg": 2361,
      "ĠBay": 2362,
      "ĠGames": 2363,
      "ĠPeter": 2364,
      "Ġdebut": 2365,
      "Ġformed": 2366,
      "ĠSal": 2367,
      "22": 2368,
      "Ġworked": 2369,
      "uit": 2370,
      "Ġavailable": 2371,
      "ĠVict": 2372,
      "Ġconf": 2373,
      "adium": 2374,
      "ĠApp": 2375,
      "Ġsent": 2376,
      "Ġdra": 2377,
      "Ġnovel": 2378,
      "ĠSer": 2379,
      "Ġdi": 2380,
      "Ġhon": 2381,
      "ĠGo": 2382,
      "Ġjoined": 2383,
      "ĠTer": 2384,
      "ras": 2385,
      "ising": 2386,
      "Ġdiv": 2387,
      "Ġmodern": 2388,
      "men": 2389,
      "ĠGold": 2390,
      "Ġ#": 2391,
      "Ġproper": 2392,
      "ule": 2393,
      "ĠSam": 2394,
      "less": 2395,
      "Ġz": 2396,
      "roll": 2397,
      "ences": 2398,
      "Ġident": 2399,
      "ances": 2400,
      "itect": 2401,
      "St": 2402,
      "ĠWil": 2403,
      "Ġreturned": 2404,
      "Ġway": 2405,
      "atre": 2406,
      "Ġpoint": 2407,
      "Ġclaim": 2408,
      "ĠSim": 2409,
      "aining": 2410,
      "ĠLeg": 2411,
      "Ġhold": 2412,
      "apt": 2413,
      "gin": 2414,
      "ead": 2415,
      "ij": 2416,
      "Ġvari": 2417,
      "Ġcontrol": 2418,
      "uter": 2419,
      "ĠBill": 2420,
      "Ġincludes": 2421,
      "ĠGreen": 2422,
      "ĠFrank": 2423,
      "Ġradio": 2424,
      "Ġchurch": 2425,
      "ume": 2426,
      "Ġpriv": 2427,
      "ida": 2428,
      "ested": 2429,
      "ĠMet": 2430,
      "Ġship": 2431,
      "isl": 2432,
      "Ġsee": 2433,
      "ĠNe": 2434,
      "Ġindepend": 2435,
      "Ġimportant": 2436,
      "site": 2437,
      "Ġnext": 2438,
      "ĠTom": 2439,
      "Ġneed": 2440,
      "Ġepisode": 2441,
      "ĠMus": 2442,
      "Ġstar": 2443,
      "Ġwithout": 2444,
      "ĠInstitute": 2445,
      "25": 2446,
      "atural": 2447,
      "Ġbrother": 2448,
      "eph": 2449,
      "ĠMer": 2450,
      "ĠFranc": 2451,
      "val": 2452,
      "aker": 2453,
      "ethod": 2454,
      "Ġlive": 2455,
      "atter": 2456,
      "hib": 2457,
      "ĠRichard": 2458,
      "Ġdeg": 2459,
      "Ġ1960": 2460,
      "azine": 2461,
      "Ġwrote": 2462,
      "ĠChe": 2463,
      "ĠBen": 2464,
      "Ġtake": 2465,
      "ĠSing": 2466,
      "estival": 2467,
      "ules": 2468,
      "ĠRepublic": 2469,
      "Ġright": 2470,
      "ither": 2471,
      "ĠEar": 2472,
      "ili": 2473,
      "ĠPlay": 2474,
      "ĠSong": 2475,
      "oints": 2476,
      "icles": 2477,
      "Ġoffer": 2478,
      "Ġperforman": 2479,
      "play": 2480,
      "ĠAccording": 2481,
      "Ġcompanies": 2482,
      "ĠRh": 2483,
      "Ġhowever": 2484,
      "irth": 2485,
      "ĠGrand": 2486,
      "annel": 2487,
      "ishop": 2488,
      "Ġ2022": 2489,
      "pro": 2490,
      "imately": 2491,
      "ĠTor": 2492,
      "rd": 2493,
      "self": 2494,
      "Ġet": 2495,
      "arent": 2496,
      "aut": 2497,
      "shire": 2498,
      "Ġdescribed": 2499,
      "ĠOther": 2500,
      "ederal": 2501,
      "ĠKh": 2502,
      "Ġbeh": 2503,
      "Ġsepar": 2504,
      "omm": 2505,
      "Ġmedal": 2506,
      "Ġmot": 2507,
      "ĠCons": 2508,
      "Ġparticular": 2509,
      "Ġbroadcast": 2510,
      "idence": 2511,
      "Ġ1988": 2512,
      "board": 2513,
      "Ġcompleted": 2514,
      "ĠJapanese": 2515,
      "Ġwin": 2516,
      "ably": 2517,
      "eel": 2518,
      "ware": 2519,
      "ĠDay": 2520,
      "olf": 2521,
      "Ġmater": 2522,
      "ĠIm": 2523,
      "used": 2524,
      "ĠColumb": 2525,
      "40": 2526,
      "ĠTown": 2527,
      "Ġhalf": 2528,
      "arch": 2529,
      "ya": 2530,
      "igned": 2531,
      "ending": 2532,
      "ification": 2533,
      "endment": 2534,
      "Ġexist": 2535,
      "Ġindivid": 2536,
      "ĠJew": 2537,
      "Ġeducation": 2538,
      "Ġelected": 2539,
      "udd": 2540,
      "emor": 2541,
      "ĠRock": 2542,
      "uated": 2543,
      "Ġproduct": 2544,
      "Ġappointed": 2545,
      "craft": 2546,
      "Ġemploy": 2547,
      "Ġoriginally": 2548,
      "time": 2549,
      "view": 2550,
      "ĠMuseum": 2551,
      "Ġparticip": 2552,
      "ersey": 2553,
      "Ġless": 2554,
      "Ġlargest": 2555,
      "Ġhuman": 2556,
      "Ġdest": 2557,
      "ger": 2558,
      "Ġmunicipality": 2559,
      "ĠTexas": 2560,
      "21": 2561,
      "ĠHam": 2562,
      "Ġanim": 2563,
      "Ġsports": 2564,
      "ids": 2565,
      "ique": 2566,
      "Ġ1989": 2567,
      "Ġdirected": 2568,
      "Ġdoc": 2569,
      "Ġcontinued": 2570,
      "Ġbody": 2571,
      "ecutive": 2572,
      "viron": 2573,
      "Ġsigned": 2574,
      "ĠDan": 2575,
      "Ġcase": 2576,
      "\")": 2577,
      "Ġlow": 2578,
      "rap": 2579,
      "ying": 2580,
      "ership": 2581,
      "Ġcaus": 2582,
      "ĠScot": 2583,
      "ertain": 2584,
      "ĠPet": 2585,
      "Ġcond": 2586,
      "ump": 2587,
      "Ġwife": 2588,
      "Ġ1986": 2589,
      "itive": 2590,
      "Ġbasketball": 2591,
      "Ġrailway": 2592,
      "ĠCarol": 2593,
      ".)": 2594,
      "ape": 2595,
      "Ġrelease": 2596,
      "193": 2597,
      "ĠDepartment": 2598,
      "Ġassist": 2599,
      "Ġfriend": 2600,
      "ĠCro": 2601,
      "Ġmodel": 2602,
      "Ġsqu": 2603,
      "Ġ50": 2604,
      "23": 2605,
      "now": 2606,
      "ensive": 2607,
      "Ġplaying": 2608,
      "unn": 2609,
      "thlet": 2610,
      "ein": 2611,
      "Ġinflu": 2612,
      "Ġbi": 2613,
      "oul": 2614,
      "Ġresearch": 2615,
      "Ġmiss": 2616,
      "ells": 2617,
      "Ġweek": 2618,
      "Ġacqu": 2619,
      "ĠCong": 2620,
      "Ġphys": 2621,
      "Ġdoes": 2622,
      "ements": 2623,
      "ĠMel": 2624,
      "atch": 2625,
      "ittee": 2626,
      "ĠBur": 2627,
      "Ġground": 2628,
      "bour": 2629,
      "Ġten": 2630,
      "Ġreal": 2631,
      "ĠMill": 2632,
      "Ġperformed": 2633,
      "acy": 2634,
      "Ġcoll": 2635,
      "ota": 2636,
      "heast": 2637,
      "Ġothers": 2638,
      "ĠVictor": 2639,
      "ugby": 2640,
      "ĠRob": 2641,
      "aries": 2642,
      "Ġphot": 2643,
      "ĠMad": 2644,
      "Ġgrow": 2645,
      "istic": 2646,
      "ellow": 2647,
      "ude": 2648,
      "Ġtransl": 2649,
      "ranch": 2650,
      "Ġassoci": 2651,
      "cle": 2652,
      "atory": 2653,
      "ential": 2654,
      "Ġfilms": 2655,
      "Ġanal": 2656,
      "oice": 2657,
      "Ġ31": 2658,
      "Ġattem": 2659,
      "Ġpromot": 2660,
      "oms": 2661,
      "ĠSmith": 2662,
      "asons": 2663,
      "ĠPublic": 2664,
      "ĠLake": 2665,
      "ibrary": 2666,
      "lo": 2667,
      "Ġaccess": 2668,
      "rey": 2669,
      "ilities": 2670,
      "ĠPe": 2671,
      "FL": 2672,
      "enc": 2673,
      "here": 2674,
      "Ġoffice": 2675,
      "ĠLos": 2676,
      "ĠChic": 2677,
      "ĠRussian": 2678,
      "Ġsurv": 2679,
      "Ġ1987": 2680,
      "Ġfeatures": 2681,
      "Ġsocial": 2682,
      "most": 2683,
      "ĠChina": 2684,
      "Ġdays": 2685,
      "Ġ1984": 2686,
      "atin": 2687,
      "ĠDel": 2688,
      "stra": 2689,
      "Ġ(\"": 2690,
      "ocr": 2691,
      "Am": 2692,
      "Ġinvest": 2693,
      "ĠSir": 2694,
      "alls": 2695,
      "back": 2696,
      "anding": 2697,
      "Ġmarket": 2698,
      "ĠClass": 2699,
      "ĠSpanish": 2700,
      "Ġmid": 2701,
      "sy": 2702,
      "ĠItalian": 2703,
      "iting": 2704,
      "Ġsour": 2705,
      "Ġrecogn": 2706,
      "itted": 2707,
      "itch": 2708,
      "ĠWhite": 2709,
      "km": 2710,
      "Ġview": 2711,
      "ĠPenn": 2712,
      "ula": 2713,
      "ĠDire": 2714,
      "Ġacross": 2715,
      "ĠMass": 2716,
      "Ġinformation": 2717,
      "Ġcross": 2718,
      "ĠSince": 2719,
      "Ġlost": 2720,
      "Ġrelig": 2721,
      "ĠNorthern": 2722,
      "Ġfund": 2723,
      "ĠOlympic": 2724,
      "ergy": 2725,
      "ĠAfrican": 2726,
      "right": 2727,
      "ĠMinister": 2728,
      "Ġ1979": 2729,
      "ĠSecond": 2730,
      "ĠDo": 2731,
      "ees": 2732,
      "ĠDef": 2733,
      "writ": 2734,
      "ĠCamp": 2735,
      "Ġmaking": 2736,
      "Ġmix": 2737,
      "ĠAnn": 2738,
      "Ġlight": 2739,
      "ability": 2740,
      "Ġ1983": 2741,
      "24": 2742,
      "ĠMost": 2743,
      "ceed": 2744,
      "Ġdev": 2745,
      "Ġpoints": 2746,
      "Ġhous": 2747,
      "Ġred": 2748,
      "ĠGod": 2749,
      "iqu": 2750,
      "Ġlaun": 2751,
      "ĠVirgin": 2752,
      "Ġbank": 2753,
      "eck": 2754,
      "rim": 2755,
      "Ġkey": 2756,
      "ores": 2757,
      "cial": 2758,
      "Ġfeatured": 2759,
      "Ġcurrently": 2760,
      "Ġboard": 2761,
      "ria": 2762,
      "ĠHenry": 2763,
      "atives": 2764,
      "Ġfree": 2765,
      "Ġstyle": 2766,
      "Ġread": 2767,
      "ĠAfrica": 2768,
      "vert": 2769,
      "Ġcondu": 2770,
      "TV": 2771,
      "Ġlab": 2772,
      "âĢĿ": 2773,
      "mon": 2774,
      "Ġmaterial": 2775,
      "ĠAre": 2776,
      "Ġalthough": 2777,
      "Ġparty": 2778,
      "Ġmus": 2779,
      "vironment": 2780,
      "ĠChicago": 2781,
      "iple": 2782,
      "ĠJersey": 2783,
      "Ġreview": 2784,
      "overnor": 2785,
      "ĠSummer": 2786,
      "Ġcirc": 2787,
      "ĠFin": 2788,
      "aign": 2789,
      "Ġ1982": 2790,
      "leg": 2791,
      "Ġconstruction": 2792,
      "oys": 2793,
      "ux": 2794,
      "Ġ1985": 2795,
      "Ġtour": 2796,
      "Ġdaughter": 2797,
      "ĠJust": 2798,
      "Ġtog": 2799,
      "ways": 2800,
      "ĠStev": 2801,
      "Ġusually": 2802,
      "acher": 2803,
      "hest": 2804,
      "ĠEducation": 2805,
      "wh": 2806,
      "ĠService": 2807,
      "Ġshould": 2808,
      "Ġsound": 2809,
      "Ġcast": 2810,
      "ked": 2811,
      ",\"": 2812,
      "Ġmust": 2813,
      "ĠBrown": 2814,
      "Ġintroduced": 2815,
      "Ġtogether": 2816,
      "ona": 2817,
      "ĠIts": 2818,
      "Ġsinger": 2819,
      "Ġnetwork": 2820,
      "ĠMont": 2821,
      "isher": 2822,
      "Ġdesigned": 2823,
      "ades": 2824,
      "go": 2825,
      "ĠGra": 2826,
      "Ġworking": 2827,
      "ĠWhile": 2828,
      "Ġfurther": 2829,
      "Ġabove": 2830,
      "head": 2831,
      "Ġins": 2832,
      "Ġmy": 2833,
      "Ġgood": 2834,
      "Ġcollege": 2835,
      "Ġwriter": 2836,
      "iding": 2837,
      "Ġthroughout": 2838,
      "utch": 2839,
      "och": 2840,
      "Ġblack": 2841,
      "ĠForce": 2842,
      "Ġestablish": 2843,
      "ults": 2844,
      "ĠGeorg": 2845,
      "Ġ40": 2846,
      "ror": 2847,
      "Ġbecom": 2848,
      "Ġrelations": 2849,
      "Ġ185": 2850,
      "ufact": 2851,
      "Ġrace": 2852,
      "Äģ": 2853,
      "inese": 2854,
      "lement": 2855,
      "ĠLand": 2856,
      "Ġliter": 2857,
      "Ġ:": 2858,
      "roy": 2859,
      "iff": 2860,
      "Ġfem": 2861,
      "airs": 2862,
      "Ġreplaced": 2863,
      "Ch": 2864,
      "Ġfind": 2865,
      "Ġeight": 2866,
      "nect": 2867,
      "oviet": 2868,
      "Ġ=": 2869,
      "unk": 2870,
      "Ġlo": 2871,
      "anta": 2872,
      "Ġmeet": 2873,
      "Ġmean": 2874,
      "II": 2875,
      "ĠWales": 2876,
      ");": 2877,
      "Ġnever": 2878,
      "ala": 2879,
      "ĠKore": 2880,
      "Ġaver": 2881,
      "Ġregular": 2882,
      "ificant": 2883,
      "Ġproble": 2884,
      "ĠEmp": 2885,
      "Ġwebsite": 2886,
      "Ġactor": 2887,
      "olk": 2888,
      "ĠParliament": 2889,
      "ĠTwo": 2890,
      "ios": 2891,
      "urity": 2892,
      "Ġawarded": 2893,
      "Ġhelp": 2894,
      "Ġfire": 2895,
      "elling": 2896,
      "Ġ1976": 2897,
      "Ġapprox": 2898,
      "erous": 2899,
      "ura": 2900,
      "Ġconsist": 2901,
      "ulated": 2902,
      "Ġfootballer": 2903,
      "ĠSaint": 2904,
      "utes": 2905,
      "Ġstrong": 2906,
      "gress": 2907,
      "rain": 2908,
      "ĠRadio": 2909,
      "Ġbuildings": 2910,
      "serv": 2911,
      "hi": 2912,
      "ĠOld": 2913,
      "edy": 2914,
      "ĠMod": 2915,
      "ĠSuper": 2916,
      "stitution": 2917,
      "ĠPre": 2918,
      "ilver": 2919,
      "Ġwid": 2920,
      "Ġseen": 2921,
      "Ġgold": 2922,
      "Ġ1981": 2923,
      "ĠSqu": 2924,
      "mar": 2925,
      "embly": 2926,
      "Ġreported": 2927,
      "Ġmother": 2928,
      "Ġsuccessful": 2929,
      "ailed": 2930,
      "ought": 2931,
      "Ġtro": 2932,
      "Ġcountries": 2933,
      "ĠScience": 2934,
      "ta": 2935,
      "Ġrange": 2936,
      "chie": 2937,
      "ĠNot": 2938,
      "ĠWork": 2939,
      "Ġspace": 2940,
      "ĠUnd": 2941,
      "ĠLove": 2942,
      "ĠSports": 2943,
      "Ġcivil": 2944,
      "iences": 2945,
      "ĠTechn": 2946,
      "ĠAngeles": 2947,
      "uation": 2948,
      "ometimes": 2949,
      "Ġvia": 2950,
      "ĠGovernment": 2951,
      "ĠArts": 2952,
      "Ġfollowed": 2953,
      "ini": 2954,
      "ĠFre": 2955,
      "ĠâĢľ": 2956,
      "Ġsuff": 2957,
      "ĠStar": 2958,
      "Ġvot": 2959,
      "Ġvict": 2960,
      "ĠBo": 2961,
      "Ġsem": 2962,
      "Ġstates": 2963,
      "aps": 2964,
      "Ġseven": 2965,
      "ĠCarl": 2966,
      "ĠSk": 2967,
      "Ġkilled": 2968,
      "aches": 2969,
      "Ġcontract": 2970,
      "Ġsignificant": 2971,
      "ĠAp": 2972,
      "Ġonce": 2973,
      "lor": 2974,
      "SA": 2975,
      "Ġsongs": 2976,
      "hood": 2977,
      "icated": 2978,
      "order": 2979,
      "ĠBut": 2980,
      "28": 2981,
      "anded": 2982,
      "ospital": 2983,
      "icy": 2984,
      "))": 2985,
      "Ġshows": 2986,
      "Ġcost": 2987,
      "imate": 2988,
      "Ġbar": 2989,
      "Ġcommer": 2990,
      "Ġ1972": 2991,
      "Ġtaken": 2992,
      "ena": 2993,
      "Ġfoc": 2994,
      "27": 2995,
      "arian": 2996,
      "Ġcour": 2997,
      "ĠJim": 2998,
      "Ġ1978": 2999,
      "Ġimpro": 3000,
      "Ġarchitect": 3001,
      "Ġhimself": 3002,
      "ĠHon": 3003,
      "duction": 3004,
      "une": 3005,
      "ĠOut": 3006,
      "ĠHealth": 3007,
      "ĠAlthough": 3008,
      "Ġmount": 3009,
      "ĠChinese": 3010,
      "ĠColumbia": 3011,
      "Ġtraining": 3012,
      "ĠOper": 3013,
      "ĠMur": 3014,
      "umni": 3015,
      "ĠMil": 3016,
      "60": 3017,
      "pite": 3018,
      "Ġclosed": 3019,
      "ĠAv": 3020,
      "Ġbelie": 3021,
      "Ġprivate": 3022,
      "Ġill": 3023,
      "ĠCast": 3024,
      "ems": 3025,
      "based": 3026,
      "Ġentire": 3027,
      "ĠPak": 3028,
      "ĠFound": 3029,
      "ĠDou": 3030,
      "iation": 3031,
      "||": 3032,
      "Ġsystems": 3033,
      "rup": 3034,
      "Ġbooks": 3035,
      "ĠIrish": 3036,
      "ĠHow": 3037,
      "atal": 3038,
      "ss": 3039,
      "Ġtype": 3040,
      "ĠIll": 3041,
      "Ġmonths": 3042,
      "arily": 3043,
      "ĠSwed": 3044,
      "ĠMo": 3045,
      "ĠSoviet": 3046,
      "Ġfunction": 3047,
      "face": 3048,
      "Ġeither": 3049,
      "ĠPop": 3050,
      "Ġmatch": 3051,
      "idents": 3052,
      "Ġparts": 3053,
      "ength": 3054,
      "ĠEv": 3055,
      "Ġbirth": 3056,
      "Ġsele": 3057,
      "oper": 3058,
      "aught": 3059,
      "Ġhealth": 3060,
      "Ġpast": 3061,
      "SI": 3062,
      "Ġ1950": 3063,
      "ada": 3064,
      "Ġdata": 3065,
      "Ġearl": 3066,
      "Ã¤": 3067,
      "inner": 3068,
      "reme": 3069,
      "Ġdou": 3070,
      "rael": 3071,
      "ĠJoseph": 3072,
      "Ġhockey": 3073,
      "Ġtest": 3074,
      "icial": 3075,
      "erve": 3076,
      "ients": 3077,
      "ado": 3078,
      "rial": 3079,
      "rant": 3080,
      "aves": 3081,
      "ĠParis": 3082,
      "well": 3083,
      "ĠOl": 3084,
      "igan": 3085,
      "Ġ1975": 3086,
      "pec": 3087,
      "Ġser": 3088,
      "Ġide": 3089,
      "Ġ1977": 3090,
      "Ġsection": 3091,
      "Ġstudy": 3092,
      "ĠBob": 3093,
      "uz": 3094,
      "ĠInc": 3095,
      "ĠAtl": 3096,
      "26": 3097,
      "read": 3098,
      "Ġsen": 3099,
      "eep": 3100,
      "Ġfrequ": 3101,
      "ĠFlorida": 3102,
      "Ġjournal": 3103,
      "Ġviol": 3104,
      "Ġtourn": 3105,
      "ĠOb": 3106,
      "ĠCommission": 3107,
      "29": 3108,
      "ĠSpec": 3109,
      "ĠDi": 3110,
      "ĠMr": 3111,
      "ĠLife": 3112,
      "ĠCur": 3113,
      "Ġproducer": 3114,
      "Ġriver": 3115,
      "Ġclos": 3116,
      "Ġaud": 3117,
      "Ġremained": 3118,
      "Ġtransfer": 3119,
      "bur": 3120,
      "Ġdocument": 3121,
      "Ġmethod": 3122,
      "Ġleast": 3123,
      "str": 3124,
      "Ġrights": 3125,
      "ola": 3126,
      "Ġ1974": 3127,
      "ĠArab": 3128,
      "Ġlisted": 3129,
      "Ġperformance": 3130,
      "Ġtreat": 3131,
      "ension": 3132,
      "Ġmanager": 3133,
      "mark": 3134,
      "Ġedition": 3135,
      "gen": 3136,
      "Ġhow": 3137,
      "porary": 3138,
      "Ġcentral": 3139,
      "mond": 3140,
      "ĠMedal": 3141,
      "mb": 3142,
      "Ġpur": 3143,
      "ĠJer": 3144,
      "track": 3145,
      "eated": 3146,
      "ground": 3147,
      "Ġsubject": 3148,
      "ĠBuild": 3149,
      "Ġinj": 3150,
      "Ġplan": 3151,
      "ylvan": 3152,
      "Ġarr": 3153,
      "nes": 3154,
      "Ġcy": 3155,
      "ĠSun": 3156,
      "ĠRou": 3157,
      "ving": 3158,
      "ani": 3159,
      "Ġ184": 3160,
      "cient": 3161,
      "ĠUp": 3162,
      "Ġcharacters": 3163,
      "Ġrespons": 3164,
      "Ġleading": 3165,
      "Ġowned": 3166,
      "ires": 3167,
      "gy": 3168,
      "Ġjud": 3169,
      "Ġnewsp": 3170,
      "Ġtre": 3171,
      "min": 3172,
      "Ġreb": 3173,
      "Ġfig": 3174,
      "ĠTour": 3175,
      "ĠMexico": 3176,
      "Ġmanufact": 3177,
      "Ġ2023": 3178,
      "Ġchange": 3179,
      "Ġplant": 3180,
      "pect": 3181,
      "Ġpress": 3182,
      "asc": 3183,
      "Ġprovided": 3184,
      "ises": 3185,
      "eleb": 3186,
      "ĠCamb": 3187,
      "ĠBig": 3188,
      "ĠCD": 3189,
      "Ġsubsequ": 3190,
      "asing": 3191,
      "rade": 3192,
      "Ġdecl": 3193,
      "ĠWood": 3194,
      "Ġisland": 3195,
      "ĠBow": 3196,
      "ams": 3197,
      "Ġplaces": 3198,
      "aching": 3199,
      "ĠEr": 3200,
      "Ġstaff": 3201,
      "ĠBank": 3202,
      "ĠDen": 3203,
      "Ġchampionship": 3204,
      "ĠRos": 3205,
      "ĠCarolina": 3206,
      "Ġmar": 3207,
      "Ġunits": 3208,
      "lam": 3209,
      "incip": 3210,
      "kn": 3211,
      "Ġsouthern": 3212,
      "ites": 3213,
      "Ġcop": 3214,
      "ender": 3215,
      "teg": 3216,
      "Ġbass": 3217,
      "ply": 3218,
      "Ġadded": 3219,
      "ĠSeries": 3220,
      "Ġaverage": 3221,
      "Ġcampaign": 3222,
      "uture": 3223,
      "ĠMartin": 3224,
      "BA": 3225,
      "Ġenc": 3226,
      "Ġinvolved": 3227,
      "Ġ1973": 3228,
      "Ġnorthern": 3229,
      "ĠFred": 3230,
      "ero": 3231,
      "Ġagre": 3232,
      "Ġstri": 3233,
      "ano": 3234,
      "ensus": 3235,
      "ette": 3236,
      "Ġmeans": 3237,
      "ĠEmpire": 3238,
      "uments": 3239,
      "ĠPakistan": 3240,
      "ingu": 3241,
      "Ġmeas": 3242,
      "road": 3243,
      "ĠPan": 3244,
      "arter": 3245,
      "Ġput": 3246,
      "stant": 3247,
      "ĠItaly": 3248,
      "Ġrespect": 3249,
      "rel": 3250,
      "Ġprovide": 3251,
      "Ġhom": 3252,
      "ift": 3253,
      "Ġcenter": 3254,
      "ĠVirginia": 3255,
      "ĠOx": 3256,
      "Ġneigh": 3257,
      "ĠMa": 3258,
      "ĠScottish": 3259,
      "ylvania": 3260,
      "ita": 3261,
      "Ġapproximately": 3262,
      "za": 3263,
      "ĠDemocr": 3264,
      "Ġ1968": 3265,
      "Ġbo": 3266,
      "ĠTur": 3267,
      "etic": 3268,
      "ĠDu": 3269,
      "aval": 3270,
      "Ġaway": 3271,
      "ĠNA": 3272,
      "Ġartist": 3273,
      "chan": 3274,
      "Ġopt": 3275,
      "Ġcourt": 3276,
      "ĠWinter": 3277,
      "Ġfront": 3278,
      "oma": 3279,
      "Ġattempt": 3280,
      "ĠFort": 3281,
      "Ġaircraft": 3282,
      "Ġupon": 3283,
      "Ġoccur": 3284,
      "ĠBus": 3285,
      "ultural": 3286,
      "ario": 3287,
      "ĠOh": 3288,
      "Ġcompetition": 3289,
      "NA": 3290,
      "Ġwhite": 3291,
      "FA": 3292,
      "ĠMajor": 3293,
      "Ġclose": 3294,
      "ental": 3295,
      "Ġsch": 3296,
      "ĠYoung": 3297,
      "Ġdegree": 3298,
      "oo": 3299,
      "Ġhard": 3300,
      "ĠNews": 3301,
      "Amendment": 3302,
      "Ġchanged": 3303,
      "ĠCongress": 3304,
      "elt": 3305,
      "ends": 3306,
      "part": 3307,
      "Ġforces": 3308,
      "ĠSur": 3309,
      "Ġnatural": 3310,
      "zil": 3311,
      "Ġ1971": 3312,
      "sk": 3313,
      "ĠCross": 3314,
      "Ġfinished": 3315,
      "Ġprimary": 3316,
      "rig": 3317,
      "ĠIsrael": 3318,
      "ĠWomen": 3319,
      "hab": 3320,
      "Ġcoast": 3321,
      "den": 3322,
      "Ġsugg": 3323,
      "ils": 3324,
      "with": 3325,
      "Ġeventually": 3326,
      "bon": 3327,
      "Ġcapital": 3328,
      "Ġexpress": 3329,
      "Ġcapt": 3330,
      "aged": 3331,
      "gl": 3332,
      "Ġstandard": 3333,
      "ĠValley": 3334,
      "Åį": 3335,
      "Ġdiscover": 3336,
      "...": 3337,
      "ĠScotland": 3338,
      "Amer": 3339,
      "ĠDutch": 3340,
      "orpor": 3341,
      "ĠFestival": 3342,
      "Ġlower": 3343,
      "ĠCommon": 3344,
      "Ġmagazine": 3345,
      "Ġachie": 3346,
      "iano": 3347,
      "Ġ1969": 3348,
      "ĠGreek": 3349,
      "ask": 3350,
      "Ġdram": 3351,
      "Ġking": 3352,
      "ĠProfess": 3353,
      "80": 3354,
      "inary": 3355,
      "Ġcred": 3356,
      "ĠAlbert": 3357,
      "Ġpurch": 3358,
      "Ġ183": 3359,
      "Ġoperated": 3360,
      "Ġqual": 3361,
      "ĠLong": 3362,
      "Ġpot": 3363,
      "Ġsometimes": 3364,
      "Ġstage": 3365,
      "In": 3366,
      "ĠHistoric": 3367,
      "isions": 3368,
      "itan": 3369,
      "lim": 3370,
      "ĠBBC": 3371,
      "Ġattended": 3372,
      "Ġpreviously": 3373,
      "Ġwhose": 3374,
      "ĠMic": 3375,
      "ĠAwards": 3376,
      "Ġcontribut": 3377,
      "Ġoperations": 3378,
      "pecially": 3379,
      "ĠTheatre": 3380,
      "ĠSouthern": 3381,
      "ship": 3382,
      "Ġruns": 3383,
      "Ġspe": 3384,
      "sylvania": 3385,
      "atform": 3386,
      "andid": 3387,
      "Ġcontains": 3388,
      "Ġscience": 3389,
      "ĠCivil": 3390,
      "Ġveh": 3391,
      "Ġactive": 3392,
      "Ġcentre": 3393,
      "ĠTim": 3394,
      "Ġaccount": 3395,
      "medi": 3396,
      "igital": 3397,
      "enced": 3398,
      "ĠPac": 3399,
      "Ã³n": 3400,
      "Ġpred": 3401,
      "ĠMembers": 3402,
      "ĠSocial": 3403,
      "Ġ1964": 3404,
      "Ġconv": 3405,
      "ĠMat": 3406,
      "Ġindependent": 3407,
      "ĠSol": 3408,
      "ĠGar": 3409,
      "ĠCommittee": 3410,
      "Ġtraditional": 3411,
      "Ġtax": 3412,
      "ands": 3413,
      "ills": 3414,
      "Ġrelated": 3415,
      "het": 3416,
      "Ġstructures": 3417,
      "ua": 3418,
      "Ġsex": 3419,
      "Ġyou": 3420,
      "ĠPennsylvania": 3421,
      "Ġsoft": 3422,
      "ny": 3423,
      "ĠSystem": 3424,
      "Ġgave": 3425,
      "Ġacadem": 3426,
      "vention": 3427,
      "ĠHel": 3428,
      "Ġminor": 3429,
      "Ġpossible": 3430,
      "Ġcommercial": 3431,
      "ĠColle": 3432,
      "Ġmass": 3433,
      "Ġroute": 3434,
      "ĠBritain": 3435,
      "Ġlearn": 3436,
      "Ġsuper": 3437,
      "Ġterrit": 3438,
      "sych": 3439,
      "enth": 3440,
      "Ġdam": 3441,
      "ĠMen": 3442,
      "ĠDis": 3443,
      "Ġcomplex": 3444,
      "Ġoutside": 3445,
      "iana": 3446,
      "ĠNavy": 3447,
      "189": 3448,
      "Ġword": 3449,
      "clus": 3450,
      "ĠTimes": 3451,
      "Ġ1967": 3452,
      "Ġprem": 3453,
      "illa": 3454,
      "Ġindustry": 3455,
      "190": 3456,
      "fic": 3457,
      "Ġcal": 3458,
      "Ġimm": 3459,
      "ĠÂ": 3460,
      "ĠBattle": 3461,
      "Ġbaseball": 3462,
      "ĠTw": 3463,
      "Ġaction": 3464,
      "rought": 3465,
      "Ġplaced": 3466,
      "like": 3467,
      "ĠHot": 3468,
      "Ġtravel": 3469,
      "bury": 3470,
      "Ġstadium": 3471,
      "Ġexcept": 3472,
      "aters": 3473,
      "Ġleader": 3474,
      "ĠJo": 3475,
      "pts": 3476,
      "Ġstudent": 3477,
      "Ġmultiple": 3478,
      "ulture": 3479,
      "ĠMcC": 3480,
      "Ġdefeated": 3481,
      "sel": 3482,
      "Ġdu": 3483,
      "rang": 3484,
      "hold": 3485,
      "Ġobject": 3486,
      "ĠOf": 3487,
      "ĠMot": 3488,
      "ĠBoard": 3489,
      "Ġorganization": 3490,
      "ĠMany": 3491,
      "ĠEdward": 3492,
      "Ġoccup": 3493,
      "ĠEngine": 3494,
      "ĠFilms": 3495,
      "ĠSub": 3496,
      "Ġfourth": 3497,
      "Ġhighest": 3498,
      "oid": 3499,
      "yr": 3500,
      "Ġhit": 3501,
      "uns": 3502,
      "Ġapplic": 3503,
      "Ġge": 3504,
      "Ġcollection": 3505,
      "ĠMos": 3506,
      "ĠBre": 3507,
      "70": 3508,
      "anning": 3509,
      "Ġadditional": 3510,
      "Ġstructure": 3511,
      "Ġwinning": 3512,
      "ĠBor": 3513,
      "azz": 3514,
      "change": 3515,
      "ĠTro": 3516,
      "lying": 3517,
      "ĠSecret": 3518,
      "ĠResearch": 3519,
      "ĠFollow": 3520,
      "Ġtournament": 3521,
      "ĠIII": 3522,
      "ribution": 3523,
      "ancial": 3524,
      "Ġfarm": 3525,
      "Ġmedia": 3526,
      "Ġprison": 3527,
      "ĠBrazil": 3528,
      "ĠMid": 3529,
      "cell": 3530,
      "ĠBet": 3531,
      "RA": 3532,
      "action": 3533,
      "ĠChampionships": 3534,
      "riate": 3535,
      "Ġlocation": 3536,
      "Ġminist": 3537,
      "Ġinterest": 3538,
      "Ġmusical": 3539,
      "Ġ1966": 3540,
      "antic": 3541,
      "omp": 3542,
      "American": 3543,
      "ĠAssembly": 3544,
      "known": 3545,
      "uty": 3546,
      "Ġnews": 3547,
      "ĠBlue": 3548,
      "ĠPrem": 3549,
      "ĠOver": 3550,
      "ĠExp": 3551,
      "Ġstudio": 3552,
      "Ġ1965": 3553,
      "ĠLine": 3554,
      "ipl": 3555,
      "Ġcritic": 3556,
      "Ġdeal": 3557,
      "state": 3558,
      "isco": 3559,
      "ato": 3560,
      "Ġfight": 3561,
      "Ġphil": 3562,
      "Ġgrand": 3563,
      "ĠBi": 3564,
      "ĠCorps": 3565,
      "Ġfav": 3566,
      "Ġgenerally": 3567,
      "owers": 3568,
      "Ġbase": 3569,
      "Ġespecially": 3570,
      "Ġbridge": 3571,
      "ĠMin": 3572,
      "ĠLab": 3573,
      "Ġreached": 3574,
      "ned": 3575,
      "Ġven": 3576,
      "Ġmovement": 3577,
      "Ġprograms": 3578,
      "Ġvir": 3579,
      "ĠBC": 3580,
      "ĠInt": 3581,
      "Ġregard": 3582,
      "Ġtext": 3583,
      "Ġdescent": 3584,
      "burgh": 3585,
      "Ġcreat": 3586,
      "Ġden": 3587,
      "ĠLiber": 3588,
      "Ġrather": 3589,
      "Ġitself": 3590,
      "ĠPubl": 3591,
      "ĠQueen": 3592,
      "oir": 3593,
      "ĠMah": 3594,
      "ĠUnivers": 3595,
      "oston": 3596,
      "ĠSa": 3597,
      "Ã¨": 3598,
      "Ġfar": 3599,
      "Ġdivision": 3600,
      "Ġassociated": 3601,
      "ĠJud": 3602,
      "Ġbur": 3603,
      "Ġscient": 3604,
      "ĠRel": 3605,
      "ĠJournal": 3606,
      "Ġunit": 3607,
      "ĠTelevision": 3608,
      "alled": 3609,
      "Ġseasons": 3610,
      "king": 3611,
      "ĠArg": 3612,
      "Ġ1945": 3613,
      "incial": 3614,
      "ĠUnder": 3615,
      "ĠTri": 3616,
      "irls": 3617,
      "Ġceleb": 3618,
      "ĠMiddle": 3619,
      "Ġnight": 3620,
      "Ġfood": 3621,
      "Ġstre": 3622,
      "ffic": 3623,
      "ĠOxford": 3624,
      "ĠGood": 3625,
      "Ġaccording": 3626,
      "bers": 3627,
      "Ġalmost": 3628,
      "ye": 3629,
      "Ġfall": 3630,
      "ansas": 3631,
      "ĠHaw": 3632,
      "wer": 3633,
      "Ġtransport": 3634,
      "Ġpolice": 3635,
      "Ġactress": 3636,
      "ĠCr": 3637,
      "ĠLibrary": 3638,
      "ĠMain": 3639,
      "osoph": 3640,
      "ĠJewish": 3641,
      "ĠGall": 3642,
      "ĠTime": 3643,
      "oke": 3644,
      "Ġpoet": 3645,
      "overs": 3646,
      "ection": 3647,
      "fit": 3648,
      "Ġnomin": 3649,
      "Ġsaw": 3650,
      "ĠChief": 3651,
      "ĠTeam": 3652,
      "ĠLord": 3653,
      "ampion": 3654,
      "Ġprote": 3655,
      "Ġcompos": 3656,
      "Ġfif": 3657,
      "Ġannual": 3658,
      "Ġsummer": 3659,
      "ĠWay": 3660,
      "Ġinstr": 3661,
      "ĠLee": 3662,
      "Ġaltern": 3663,
      "ĠLu": 3664,
      "Ġpers": 3665,
      "ĠFollowing": 3666,
      "adel": 3667,
      "ĠAlb": 3668,
      "band": 3669,
      "ĠRoute": 3670,
      "Ġcou": 3671,
      "ĠEastern": 3672,
      "acing": 3673,
      "asion": 3674,
      "plement": 3675,
      "Ġgoal": 3676,
      "ĠPo": 3677,
      "Ġresults": 3678,
      "ĠLatin": 3679,
      "Ġparent": 3680,
      "ulf": 3681,
      "Ġinstead": 3682,
      "Ġnames": 3683,
      "itors": 3684,
      "Ġunion": 3685,
      "Ġschol": 3686,
      "Ġorganiz": 3687,
      "Ġcut": 3688,
      "Ġarg": 3689,
      "ares": 3690,
      "ĠTre": 3691,
      "Ġlength": 3692,
      "eds": 3693,
      "Ġbelow": 3694,
      "han": 3695,
      "ĠStep": 3696,
      "ecess": 3697,
      "Ġaccept": 3698,
      "alle": 3699,
      "istics": 3700,
      "Ġplatform": 3701,
      "ĠMatt": 3702,
      "Ġhigher": 3703,
      "ĠKent": 3704,
      "venue": 3705,
      "Ġmention": 3706,
      "ĠHa": 3707,
      "chester": 3708,
      "Ġreferred": 3709,
      "Ġlic": 3710,
      "Ġobserv": 3711,
      "ĠFour": 3712,
      "Ġcandid": 3713,
      "ider": 3714,
      "ĠJul": 3715,
      "ĠKe": 3716,
      "Ġknow": 3717,
      "ĠBoston": 3718,
      "ĠColl": 3719,
      "ication": 3720,
      "Ġscored": 3721,
      "Ġsurround": 3722,
      "ĠIf": 3723,
      "Ġenvironment": 3724,
      "etts": 3725,
      "Ġremov": 3726,
      "ĠSo": 3727,
      "Ġ1940": 3728,
      "Ġmur": 3729,
      "ĠUr": 3730,
      "BS": 3731,
      "Ġpp": 3732,
      "ened": 3733,
      "Ġinstitut": 3734,
      "ati": 3735,
      "standing": 3736,
      "ĠUSA": 3737,
      "emorial": 3738,
      "ĠBul": 3739,
      "ĠLim": 3740,
      "ĠPortug": 3741,
      "la": 3742,
      "ĠThat": 3743,
      "TA": 3744,
      "Ġdeterm": 3745,
      "anned": 3746,
      "Ġwind": 3747,
      "ications": 3748,
      "obal": 3749,
      "Ġtrain": 3750,
      "ĠRussia": 3751,
      "Ġself": 3752,
      "ĠJr": 3753,
      "ĠVer": 3754,
      "itiz": 3755,
      "inct": 3756,
      "Ġbrought": 3757,
      "Ġded": 3758,
      "Ġretired": 3759,
      "Ġnumerous": 3760,
      "ĠGeorgia": 3761,
      "35": 3762,
      "Ġice": 3763,
      "nel": 3764,
      "ĠLoc": 3765,
      "iant": 3766,
      "ĠPrince": 3767,
      "ĠDet": 3768,
      "Ġblock": 3769,
      "Ġlimited": 3770,
      "Ġwood": 3771,
      "eign": 3772,
      "put": 3773,
      "ĠFam": 3774,
      "Ġuses": 3775,
      "ĠSat": 3776,
      "ounter": 3777,
      "ĠLittle": 3778,
      "ĠBal": 3779,
      "Ġpay": 3780,
      "orse": 3781,
      "Ġsat": 3782,
      "oring": 3783,
      "Ġadop": 3784,
      "rative": 3785,
      "not": 3786,
      "Ġliving": 3787,
      "ĠSpain": 3788,
      "attal": 3789,
      "ĠSund": 3790,
      "Ġfamous": 3791,
      "Ġmostly": 3792,
      "Ġfeature": 3793,
      "Ġche": 3794,
      "emporary": 3795,
      "ĠOhio": 3796,
      "stein": 3797,
      "Ġlived": 3798,
      "iled": 3799,
      "Ġever": 3800,
      "iÄ": 3801,
      "Ġtrib": 3802,
      "ĠChild": 3803,
      "Ġ1962": 3804,
      "Ġclubs": 3805,
      "Ġequip": 3806,
      "ĠCam": 3807,
      "ums": 3808,
      "Ġcomplet": 3809,
      "ĠAdm": 3810,
      "ĠWind": 3811,
      "ĠWater": 3812,
      "Ġbeginning": 3813,
      "ĠArea": 3814,
      "ĠGal": 3815,
      "Ġable": 3816,
      "achus": 3817,
      "ĠCentre": 3818,
      "uate": 3819,
      "ella": 3820,
      "cing": 3821,
      "Ġrepresented": 3822,
      "ĠAlexander": 3823,
      "ulty": 3824,
      "ĠNight": 3825,
      "Ġbox": 3826,
      "inois": 3827,
      "Ġcertain": 3828,
      "ols": 3829,
      "ĠDie": 3830,
      "Ġscreen": 3831,
      "Ġtracks": 3832,
      "Ġmunicipal": 3833,
      "uclear": 3834,
      "ĠAndrew": 3835,
      "Ġi": 3836,
      "Ġeditor": 3837,
      "ĠPrize": 3838,
      "ĠTransport": 3839,
      "Ġrequired": 3840,
      "Ġeth": 3841,
      "Ġindividual": 3842,
      "arden": 3843,
      "wan": 3844,
      "Ġsus": 3845,
      "Ġcust": 3846,
      "Ġmeaning": 3847,
      "adron": 3848,
      "kin": 3849,
      "Ġforms": 3850,
      "Ġwestern": 3851,
      "ĠSea": 3852,
      "unc": 3853,
      "Ġforce": 3854,
      "irm": 3855,
      "ĠWild": 3856,
      "ĠInf": 3857,
      "ysis": 3858,
      "ĠField": 3859,
      "Ġpersonal": 3860,
      "Ġremains": 3861,
      "Ġrelationship": 3862,
      "ĠWal": 3863,
      "isation": 3864,
      "ĠMilitary": 3865,
      "ĠBaseball": 3866,
      "ĠMichigan": 3867,
      "ĠTop": 3868,
      "Ġtrade": 3869,
      "mit": 3870,
      "Ġcomputer": 3871,
      "writer": 3872,
      "Ġneg": 3873,
      "ĠDev": 3874,
      "urban": 3875,
      "Ġloss": 3876,
      "ĠEnd": 3877,
      "Ġpractice": 3878,
      "ibility": 3879,
      "Ġlook": 3880,
      "house": 3881,
      "Ġtheory": 3882,
      "Ġrate": 3883,
      "Ġserving": 3884,
      "ao": 3885,
      "ocese": 3886,
      "Ġlik": 3887,
      "Ġcases": 3888,
      "ĠSpe": 3889,
      "ĠBand": 3890,
      "Ġterms": 3891,
      "Ġprovides": 3892,
      "Ġwriting": 3893,
      "ĠSpecial": 3894,
      "achusetts": 3895,
      "Ġreligious": 3896,
      "Ġacquired": 3897,
      "Ġcomplete": 3898,
      "ervation": 3899,
      "ĠIllinois": 3900,
      "velopment": 3901,
      "ĠBern": 3902,
      "uals": 3903,
      "ĠHead": 3904,
      "ĠEarth": 3905,
      "Ġabs": 3906,
      "Ġspeed": 3907,
      "Ġconsists": 3908,
      "omer": 3909,
      "ĠJones": 3910,
      "Ġinvestig": 3911,
      "Ġappears": 3912,
      "Ġbrand": 3913,
      "irit": 3914,
      "ER": 3915,
      "Ġpurp": 3916,
      "Ġinterview": 3917,
      "Ġmerg": 3918,
      "Ġsequ": 3919,
      "ify": 3920,
      "Ġexhib": 3921,
      "ĠAdd": 3922,
      "Ġrad": 3923,
      "chestra": 3924,
      "Ġ1930": 3925,
      "ĠShow": 3926,
      "ĠSar": 3927,
      "Ġfederal": 3928,
      "Ġrunning": 3929,
      "ĠConference": 3930,
      "Ġopening": 3931,
      "ĠBrook": 3932,
      "ĠTod": 3933,
      "Ġvariety": 3934,
      "ĠBab": 3935,
      "Ġwhom": 3936,
      "ĠThree": 3937,
      "Ġchart": 3938,
      "ĠStr": 3939,
      "Ġenergy": 3940,
      "ĠMassachusetts": 3941,
      "Ġepisodes": 3942,
      "Ġ1963": 3943,
      "45": 3944,
      "Ġdestroy": 3945,
      "Ġlanguages": 3946,
      "Ġdecided": 3947,
      "Ġformat": 3948,
      "ĠBridge": 3949,
      "Ġlog": 3950,
      "apers": 3951,
      "Ġfemale": 3952,
      "awa": 3953,
      "Ġrugby": 3954,
      "ela": 3955,
      "Ġended": 3956,
      "ĠPacific": 3957,
      "gar": 3958,
      "ĠIran": 3959,
      "pped": 3960,
      "Ġmanagement": 3961,
      "Ġball": 3962,
      "ĠGen": 3963,
      "CC": 3964,
      "Ġlaunched": 3965,
      "ĠAri": 3966,
      "ca": 3967,
      "airman": 3968,
      "osing": 3969,
      "Ġactivities": 3970,
      "ĠBoy": 3971,
      "Ġfuture": 3972,
      "ĠIslands": 3973,
      "ĠProt": 3974,
      "raw": 3975,
      "Ġseat": 3976,
      "add": 3977,
      "ĠRog": 3978,
      "Ġprior": 3979,
      "Ġuniversity": 3980,
      "Ġgra": 3981,
      "ken": 3982,
      "Ġstop": 3983,
      "90": 3984,
      "asy": 3985,
      "uan": 3986,
      "Ġpain": 3987,
      "Ġget": 3988,
      "Ġeconomic": 3989,
      "Ġappearance": 3990,
      "ĠBell": 3991,
      "ĠFrancisco": 3992,
      "Ġer": 3993,
      "Ġnar": 3994,
      "ĠTenn": 3995,
      "Ġindic": 3996,
      "Ġsaf": 3997,
      "ĠĠĊ": 3998,
      "rief": 3999,
      "Ġspent": 4000,
      "Ġ)": 4001,
      "ĠĠĠĠĠĠĠĠ": 4002,
      "poration": 4003,
      "Ġchem": 4004,
      "Ġemer": 4005,
      "wa": 4006,
      "ĠStation": 4007,
      "iro": 4008,
      "ĠMarine": 4009,
      "Ġprob": 4010,
      "ips": 4011,
      "ĠIslam": 4012,
      "Ġver": 4013,
      "ĠRay": 4014,
      "75": 4015,
      "Ġ60": 4016,
      "Ġdate": 4017,
      "ĠManag": 4018,
      "ĠAsia": 4019,
      "ĠJac": 4020,
      "struction": 4021,
      "ĠCle": 4022,
      "Ġunivers": 4023,
      "Ġconcern": 4024,
      "ĠCoast": 4025,
      "Ġlines": 4026,
      "ĠMinn": 4027,
      "igg": 4028,
      "Ġallowed": 4029,
      "Ġissues": 4030,
      "Ġbound": 4031,
      "Ġthus": 4032,
      "ĠEnter": 4033,
      "ĠGre": 4034,
      "ĠProvince": 4035,
      "Ġofficer": 4036,
      "ĠWall": 4037,
      "ko": 4038,
      "century": 4039,
      "Ġshot": 4040,
      "ĠTheir": 4041,
      "Ġculture": 4042,
      "onn": 4043,
      "Ġmajority": 4044,
      "Ġseparate": 4045,
      "Ġpercent": 4046,
      "anda": 4047,
      "ĠEll": 4048,
      "adelph": 4049,
      "bit": 4050,
      "Ġbehind": 4051,
      "Ġmission": 4052,
      "ĠEp": 4053,
      "umber": 4054,
      "tained": 4055,
      "Ġ1944": 4056,
      "Ġrul": 4057,
      "Ġ1961": 4058,
      "Ġteacher": 4059,
      "ologist": 4060,
      "Ġsister": 4061,
      "cel": 4062,
      "Ġsize": 4063,
      "Ġlabel": 4064,
      "aily": 4065,
      "illy": 4066,
      "Ġstatus": 4067,
      "ĠKar": 4068,
      "Ġlet": 4069,
      "Ġtaking": 4070,
      "Ġdom": 4071,
      "adelphia": 4072,
      "Ġstated": 4073,
      "itation": 4074,
      "ĠHuman": 4075,
      "Ġpit": 4076,
      "ĠArm": 4077,
      "Ġprincip": 4078,
      "ublican": 4079,
      "Ġmer": 4080,
      "Ġmale": 4081,
      "ĠSupreme": 4082,
      "Ġmatches": 4083,
      "sen": 4084,
      "ĠTem": 4085,
      "ĠElect": 4086,
      "ĠOnt": 4087,
      "ĠUl": 4088,
      "Ġ1948": 4089,
      "Ġbattle": 4090,
      "Ġbreak": 4091,
      "ĠAthlet": 4092,
      "outheast": 4093,
      "rants": 4094,
      "ĠFer": 4095,
      "Ġspecific": 4096,
      "Ġinteg": 4097,
      "Ġlegal": 4098,
      "inem": 4099,
      "onic": 4100,
      "Ġartists": 4101,
      "ĠGovernor": 4102,
      "Ġdefeat": 4103,
      "ĠMu": 4104,
      "Ġhum": 4105,
      "Ġpen": 4106,
      "ishes": 4107,
      "ĠAlbum": 4108,
      "ĠMike": 4109,
      "abeth": 4110,
      "iger": 4111,
      "iance": 4112,
      "inners": 4113,
      "Ġquest": 4114,
      "Ġfocus": 4115,
      "Ġonline": 4116,
      "ĠOrig": 4117,
      "ĠSyd": 4118,
      "ĠTony": 4119,
      "Ġselected": 4120,
      "Ġtowards": 4121,
      "Ġearlier": 4122,
      "Ġinsp": 4123,
      "ronze": 4124,
      "ĠVictoria": 4125,
      "Ġmem": 4126,
      "Ġalumni": 4127,
      "Ġmove": 4128,
      "ĠSand": 4129,
      "Ġincreased": 4130,
      "ĠCambridge": 4131,
      "edd": 4132,
      "aring": 4133,
      "Ġcell": 4134,
      "ĠJustice": 4135,
      "ables": 4136,
      "Th": 4137,
      "ĠWeb": 4138,
      "yan": 4139,
      "Ġâ": 4140,
      "akers": 4141,
      "ĠJohnson": 4142,
      "Ġesc": 4143,
      "ĠJeff": 4144,
      "Ġprovince": 4145,
      "Ġarm": 4146,
      "Ġrenamed": 4147,
      "range": 4148,
      "188": 4149,
      "Ġissue": 4150,
      "Ġdon": 4151,
      "Ġchief": 4152,
      "ĠWilliams": 4153,
      "Ġ1958": 4154,
      "ĠSI": 4155,
      "ronic": 4156,
      "Ġstudies": 4157,
      "inet": 4158,
      "ĠVideo": 4159,
      "ĠKong": 4160,
      "ĠGuard": 4161,
      "Ġsource": 4162,
      "ĠDirector": 4163,
      "Ġ+": 4164,
      "Ġcourse": 4165,
      "Ġdraw": 4166,
      "Ġ35": 4167,
      "ĠJoe": 4168,
      "ĠCorn": 4169,
      "Ġ1920": 4170,
      "ĠMov": 4171,
      "Ġsenior": 4172,
      "Ġfe": 4173,
      "ĠStan": 4174,
      "Ġord": 4175,
      "Ġnoted": 4176,
      "ĠFoundation": 4177,
      "Ġlonger": 4178,
      "Ġnorm": 4179,
      "ĠPhiladelphia": 4180,
      "ources": 4181,
      "Ġmach": 4182,
      "ĠOpen": 4183,
      "Ġgovern": 4184,
      "33": 4185,
      "va": 4186,
      "inent": 4187,
      "Ġsay": 4188,
      "encies": 4189,
      "imum": 4190,
      "SP": 4191,
      "2006": 4192,
      "ĠVan": 4193,
      "ĠDemocratic": 4194,
      "ĠCub": 4195,
      "Ġtoday": 4196,
      "acity": 4197,
      "Ġnewspaper": 4198,
      "esh": 4199,
      "ira": 4200,
      "Ġcolon": 4201,
      "Ġ1956": 4202,
      "Ġproducts": 4203,
      "ĠBaron": 4204,
      "ĠOffice": 4205,
      "ĠBelg": 4206,
      "ora": 4207,
      "Ġwide": 4208,
      "ias": 4209,
      "Ġeastern": 4210,
      "ĠOntario": 4211,
      "Ġcateg": 4212,
      "Ġnine": 4213,
      "uge": 4214,
      "Ġcommission": 4215,
      "Ġcampus": 4216,
      "Ġancient": 4217,
      "Ġnumbers": 4218,
      "Ġlegisl": 4219,
      "Ġlittle": 4220,
      "ĠRepresent": 4221,
      "Ġchanges": 4222,
      "ĠSteve": 4223,
      "Ġpasseng": 4224,
      "Ġcities": 4225,
      "Ġarticle": 4226,
      "rich": 4227,
      "ĠHighway": 4228,
      "ĠMax": 4229,
      "Ġrecording": 4230,
      "Ġhot": 4231,
      "ĠFar": 4232,
      "ricts": 4233,
      "Ġcouncil": 4234,
      "Ġmovie": 4235,
      "ropol": 4236,
      "ĠBudd": 4237,
      "2005": 4238,
      "Ġmainly": 4239,
      "ĠPres": 4240,
      "nam": 4241,
      "stitu": 4242,
      "key": 4243,
      "ĠOrgan": 4244,
      "Ġoil": 4245,
      "ĠBa": 4246,
      "ĠBerlin": 4247,
      "ĠJunior": 4248,
      "Ġparticularly": 4249,
      "Ġhere": 4250,
      "ĠPower": 4251,
      "ĠAirport": 4252,
      "een": 4253,
      "opher": 4254,
      "Ġcome": 4255,
      "Ġrequire": 4256,
      "ĠSydney": 4257,
      "2000": 4258,
      "aka": 4259,
      "mann": 4260,
      "imated": 4261,
      "inger": 4262,
      "Ġens": 4263,
      "phy": 4264,
      "Ġfeaturing": 4265,
      "Ġbecoming": 4266,
      "ĠRet": 4267,
      "IA": 4268,
      "Ġrecent": 4269,
      "ĠÐ": 4270,
      "ĠCat": 4271,
      "ricket": 4272,
      "ĠCard": 4273,
      "Ġchannel": 4274,
      "ĠWel": 4275,
      "obile": 4276,
      "ĠPost": 4277,
      "ears": 4278,
      "Ġanti": 4279,
      "Ġtemper": 4280,
      "ĠWilson": 4281,
      "onto": 4282,
      "uries": 4283,
      "rice": 4284,
      "Ġdiscuss": 4285,
      "attalion": 4286,
      "Ġ1957": 4287,
      "Ġproperty": 4288,
      "ĠEst": 4289,
      "Ġvon": 4290,
      "lit": 4291,
      "Ġfoot": 4292,
      "resp": 4293,
      "imb": 4294,
      "Ġ1959": 4295,
      "atively": 4296,
      "ĠEle": 4297,
      "win": 4298,
      "ready": 4299,
      "Ġcollabor": 4300,
      "Ã¸": 4301,
      "Ġbelong": 4302,
      "ĠPolit": 4303,
      "ĠJean": 4304,
      "Ġforeign": 4305,
      "ĠLew": 4306,
      "Ġsecret": 4307,
      "Ġdouble": 4308,
      "arters": 4309,
      "ederation": 4310,
      "Ġelectric": 4311,
      "ledge": 4312,
      "ĠDevelopment": 4313,
      "ĠAnth": 4314,
      "ties": 4315,
      "down": 4316,
      "Ġcaused": 4317,
      "Ġhistorical": 4318,
      "ĠAut": 4319,
      "ouri": 4320,
      "Ġcounty": 4321,
      "Ġautom": 4322,
      "ĠKenn": 4323,
      "orporated": 4324,
      "ayer": 4325,
      "Ġwoman": 4326,
      "Ġpaint": 4327,
      "Ġmetal": 4328,
      "ĠBooks": 4329,
      "Ġshown": 4330,
      "Ġkeep": 4331,
      "Ġmedalists": 4332,
      "rupt": 4333,
      "Ġplays": 4334,
      "ĠLater": 4335,
      "ĠTrust": 4336,
      "ĠCreek": 4337,
      "Ġgoals": 4338,
      "wide": 4339,
      "book": 4340,
      "Ġtechnology": 4341,
      "ĠRegiment": 4342,
      "ĠDec": 4343,
      "Ġcommonly": 4344,
      "Ġlarger": 4345,
      "occer": 4346,
      "Ġsea": 4347,
      "Ġadj": 4348,
      "cont": 4349,
      "iÄĩ": 4350,
      "Ġcode": 4351,
      "Ġdiffic": 4352,
      "ĠLes": 4353,
      "aya": 4354,
      "Ġmiddle": 4355,
      "rying": 4356,
      "Ġextended": 4357,
      "wick": 4358,
      "ĠCharl": 4359,
      "Ġpresented": 4360,
      "urt": 4361,
      "Ġdise": 4362,
      "ĠChap": 4363,
      "aled": 4364,
      "ĠCommunity": 4365,
      "Ġwant": 4366,
      "Ġassistant": 4367,
      "Ġsum": 4368,
      "ĠHong": 4369,
      "Ġsilver": 4370,
      "Ġcommunities": 4371,
      "HL": 4372,
      "ĠGh": 4373,
      "ĠProgram": 4374,
      "thur": 4375,
      "Ġprimarily": 4376,
      "Ġpil": 4377,
      "ĠTechnology": 4378,
      "Ġmoney": 4379,
      "Ġvalue": 4380,
      "oses": 4381,
      "Ġlack": 4382,
      "Ġmedical": 4383,
      "teen": 4384,
      "mm": 4385,
      "oli": 4386,
      "ĠOs": 4387,
      "yer": 4388,
      "ĠGr": 4389,
      "ĠCy": 4390,
      "ĠNations": 4391,
      "Ġemb": 4392,
      "Å¡": 4393,
      "ĠMir": 4394,
      "ĠLuc": 4395,
      "Ġmurder": 4396,
      "Ġtakes": 4397,
      "Ġrules": 4398,
      "ĠQueens": 4399,
      "stone": 4400,
      "heim": 4401,
      "ĠBoth": 4402,
      "amm": 4403,
      "AR": 4404,
      "vement": 4405,
      "Ġess": 4406,
      "zech": 4407,
      "ĠLive": 4408,
      "opp": 4409,
      "aven": 4410,
      "ĠHockey": 4411,
      "Ġcomposed": 4412,
      "Ġclear": 4413,
      "ption": 4414,
      "ĠCountry": 4415,
      "hemat": 4416,
      "38": 4417,
      "ĠSongs": 4418,
      "antry": 4419,
      "ĠGame": 4420,
      "Ġaffili": 4421,
      "34": 4422,
      "Ġamount": 4423,
      "Ġentered": 4424,
      "Ġoffered": 4425,
      "enant": 4426,
      "Ġlies": 4427,
      "iga": 4428,
      "Ġmechan": 4429,
      "Ġpage": 4430,
      "amin": 4431,
      "wealth": 4432,
      "Ġhonor": 4433,
      "Ġdro": 4434,
      "onse": 4435,
      "chen": 4436,
      "Ġstudied": 4437,
      "Ġsurface": 4438,
      "Ġ1947": 4439,
      "Ġoperation": 4440,
      "36": 4441,
      "ĠTay": 4442,
      "cean": 4443,
      "Ġmuseum": 4444,
      "ĠPers": 4445,
      "ID": 4446,
      "kins": 4447,
      "Ġconsider": 4448,
      "atriate": 4449,
      "ĠStat": 4450,
      "ĠFame": 4451,
      "Ġ1942": 4452,
      "ĠArgent": 4453,
      "ĠStephen": 4454,
      "ging": 4455,
      "Ġoverall": 4456,
      "ja": 4457,
      "inals": 4458,
      "ĠMore": 4459,
      "Ġbene": 4460,
      "ried": 4461,
      "Ġsubsequently": 4462,
      "Ġbetter": 4463,
      "Ġconnect": 4464,
      "ĠEliz": 4465,
      "Ġdisp": 4466,
      "ĠHome": 4467,
      "ĠLight": 4468,
      "ĠLady": 4469,
      "Ġ1943": 4470,
      "ĠRem": 4471,
      "Ġtoo": 4472,
      "agn": 4473,
      "ĠAsh": 4474,
      "ĠColor": 4475,
      "Ġregional": 4476,
      "Ġtrains": 4477,
      "Ġthought": 4478,
      "37": 4479,
      "Ġhosted": 4480,
      "Ġdiss": 4481,
      "eman": 4482,
      "Ġreve": 4483,
      "bourne": 4484,
      "Ġcer": 4485,
      "Ġinhab": 4486,
      "ription": 4487,
      "ĠSanta": 4488,
      "ĠDer": 4489,
      "unct": 4490,
      "Ġarmy": 4491,
      "ĠForest": 4492,
      "itage": 4493,
      "Ġstep": 4494,
      "=\"": 4495,
      "ĠAnother": 4496,
      "ĠJon": 4497,
      "Ġsoon": 4498,
      "ĠEarl": 4499,
      "SC": 4500,
      "ĠRepublican": 4501,
      "ydro": 4502,
      "hew": 4503,
      "ĠNetwork": 4504,
      "Ġprofessor": 4505,
      "ault": 4506,
      "Ġelements": 4507,
      "Ġ1952": 4508,
      "Ġpeak": 4509,
      "Ġhouses": 4510,
      "iy": 4511,
      "Ġacademic": 4512,
      "Ġlink": 4513,
      "bl": 4514,
      "izing": 4515,
      "war": 4516,
      "Ġmakes": 4517,
      "iring": 4518,
      "Ġ1955": 4519,
      "ĠPen": 4520,
      "ĠCommonwealth": 4521,
      "bre": 4522,
      "ava": 4523,
      "Ġfacilities": 4524,
      "ĠSev": 4525,
      "Ġalbums": 4526,
      "Ġnearby": 4527,
      "Sc": 4528,
      "Ã±": 4529,
      "Ġprogramming": 4530,
      "hy": 4531,
      "ĠEconom": 4532,
      "Ġincrease": 4533,
      "Al": 4534,
      "ek": 4535,
      "ĠBishop": 4536,
      "Ġremaining": 4537,
      "Ġcovered": 4538,
      "Ġpaper": 4539,
      "Ġcreate": 4540,
      "95": 4541,
      "imal": 4542,
      "Ġinitially": 4543,
      "Ġscore": 4544,
      "eld": 4545,
      "ĠNether": 4546,
      "ĠSciences": 4547,
      "ĠKir": 4548,
      "Ġbrief": 4549,
      "ais": 4550,
      "ĠClark": 4551,
      "ously": 4552,
      "Ġevidence": 4553,
      "48": 4554,
      "Ġfinancial": 4555,
      "emeter": 4556,
      "Ġsoftware": 4557,
      "Ġpick": 4558,
      "MA": 4559,
      "ĠJackson": 4560,
      "emetery": 4561,
      "Ġsom": 4562,
      "ounds": 4563,
      "Ġremain": 4564,
      "ĠStudies": 4565,
      "Ġinstitutions": 4566,
      "Ġmentioned": 4567,
      "Ġalways": 4568,
      "ĠBh": 4569,
      "ĠFederal": 4570,
      "ector": 4571,
      "ĠKen": 4572,
      "ctoral": 4573,
      "ĠCorporation": 4574,
      "ĠTam": 4575,
      "ĠKorea": 4576,
      "onia": 4577,
      "Ġexecutive": 4578,
      "Ġdirectly": 4579,
      "Ġproblems": 4580,
      "fect": 4581,
      "47": 4582,
      "ĠHarv": 4583,
      "uer": 4584,
      "Ġwords": 4585,
      "99": 4586,
      "Ġimmedi": 4587,
      "Ġimplement": 4588,
      "Ġtypes": 4589,
      "Ġhours": 4590,
      "ĠCzech": 4591,
      "Ġcomment": 4592,
      "ĠPremier": 4593,
      "ĠBang": 4594,
      "ĠUk": 4595,
      "Ġrecords": 4596,
      "Ar": 4597,
      "ĠDaniel": 4598,
      "itting": 4599,
      "itude": 4600,
      "Ġcapacity": 4601,
      "ĠAvenue": 4602,
      "2007": 4603,
      "ador": 4604,
      "ession": 4605,
      "Ġfollows": 4606,
      "ĠDar": 4607,
      "ĠOk": 4608,
      "Ġjun": 4609,
      "more": 4610,
      "ctors": 4611,
      "ansion": 4612,
      "Ġdecision": 4613,
      "respond": 4614,
      "31": 4615,
      "Ġsituated": 4616,
      "Ġproposed": 4617,
      "ĠToronto": 4618,
      "Ġmodels": 4619,
      "Ġdedicated": 4620,
      "ĠRaj": 4621,
      "Ġdivided": 4622,
      "Ġop": 4623,
      "ĠHung": 4624,
      "ĠNorw": 4625,
      "ĠNorway": 4626,
      "Ġborder": 4627,
      "Ġalready": 4628,
      "Ġbranch": 4629,
      "ĠStand": 4630,
      "Ġfail": 4631,
      "Ġ1954": 4632,
      "Ġ1939": 4633,
      "ograp": 4634,
      "ĠPolish": 4635,
      "Ġcontinu": 4636,
      "Ġbomb": 4637,
      "ĠNFL": 4638,
      "ĠBad": 4639,
      "Ġagric": 4640,
      "Ġsupported": 4641,
      "VD": 4642,
      "Ġpassed": 4643,
      "Ġ1953": 4644,
      "Ġpolicy": 4645,
      "ĠLt": 4646,
      "ĠHind": 4647,
      "ĠJes": 4648,
      "Ġnative": 4649,
      "gypt": 4650,
      "icted": 4651,
      "ilton": 4652,
      "ĠBrian": 4653,
      "Ġserves": 4654,
      "worth": 4655,
      "vis": 4656,
      "iest": 4657,
      "nic": 4658,
      "ĠAsian": 4659,
      "ĠPhilipp": 4660,
      "ĠSerb": 4661,
      "ĠRegional": 4662,
      "LA": 4663,
      "ression": 4664,
      "ĠBarb": 4665,
      "Ġ1946": 4666,
      "ighter": 4667,
      "arriage": 4668,
      "Ġorganizations": 4669,
      "Ġlove": 4670,
      "ĠMedia": 4671,
      "Ġestablishments": 4672,
      "ortun": 4673,
      "ucky": 4674,
      "65": 4675,
      "ĠReview": 4676,
      "Ġcontra": 4677,
      "Ġresponsible": 4678,
      "Ġconstructed": 4679,
      "osa": 4680,
      "Ġcommand": 4681,
      "ĠAnton": 4682,
      "Ġconcept": 4683,
      "ĠAlso": 4684,
      "itzer": 4685,
      "2004": 4686,
      "Ġdepart": 4687,
      "ĠRod": 4688,
      "ĠHeart": 4689,
      "Ġinn": 4690,
      "ĠViet": 4691,
      "ĠElizabeth": 4692,
      "ĠNetherlands": 4693,
      "Ã§": 4694,
      "ĠTal": 4695,
      "elled": 4696,
      "Ġ180": 4697,
      "Ġsusp": 4698,
      "Ġcitiz": 4699,
      "eeks": 4700,
      "Ġlin": 4701,
      "ĠLy": 4702,
      "oz": 4703,
      "EC": 4704,
      "Ġparish": 4705,
      "Ġearned": 4706,
      "irds": 4707,
      "Ġbacking": 4708,
      "Ġstarting": 4709,
      "Ġ1941": 4710,
      "ĠIndiana": 4711,
      "abb": 4712,
      "isk": 4713,
      "ilies": 4714,
      "Ġofficially": 4715,
      "ih": 4716,
      "ĠChris": 4717,
      "Ġdepartment": 4718,
      "44": 4719,
      "Ġbeat": 4720,
      "rate": 4721,
      "iece": 4722,
      "ĠÂ£": 4723,
      "Ġathlet": 4724,
      "ĠAff": 4725,
      "Ġformerly": 4726,
      "Ġcomposer": 4727,
      "ione": 4728,
      "ĠAtt": 4729,
      "Ġpersonnel": 4730,
      "Ġgive": 4731,
      "Ġvoice": 4732,
      "Ġ80": 4733,
      "Ġraised": 4734,
      "ĠIndepend": 4735,
      "55": 4736,
      "ST": 4737,
      "Ġbelieved": 4738,
      "enty": 4739,
      "mph": 4740,
      "uts": 4741,
      "edom": 4742,
      "Ġleaving": 4743,
      "former": 4744,
      "ĠDespite": 4745,
      "ortheast": 4746,
      "Ġsport": 4747,
      "Ġneighbor": 4748,
      "ĠRam": 4749,
      "da": 4750,
      "ĠSil": 4751,
      "ĠTreat": 4752,
      "ĠGer": 4753,
      "Ġsal": 4754,
      "Ġminutes": 4755,
      "ĠRevolution": 4756,
      "ĠBeach": 4757,
      "cles": 4758,
      "Ġmissing": 4759,
      "Ġsociety": 4760,
      "ĠCO": 4761,
      "icine": 4762,
      "32": 4763,
      "onom": 4764,
      "ĠEgypt": 4765,
      "Ġsolo": 4766,
      "Ġsecondary": 4767,
      "Ġdirection": 4768,
      "Ġoffers": 4769,
      "Ġwinner": 4770,
      "Ġoperating": 4771,
      "Ġdyn": 4772,
      "Ġsucceed": 4773,
      "ieut": 4774,
      "ennis": 4775,
      "ĠManchester": 4776,
      "ean": 4777,
      "ĠUs": 4778,
      "Ġdistricts": 4779,
      "Ã¡n": 4780,
      "Ġforced": 4781,
      "AA": 4782,
      "inity": 4783,
      "orter": 4784,
      "39": 4785,
      "orning": 4786,
      "New": 4787,
      "ĠArthur": 4788,
      "ĠWrit": 4789,
      "Ġserve": 4790,
      "Ġlaws": 4791,
      "ĠCas": 4792,
      "rance": 4793,
      "Ġnotable": 4794,
      "Ġast": 4795,
      "Ġlevels": 4796,
      "ributed": 4797,
      "Ġtypically": 4798,
      "ĠSus": 4799,
      "Ġappl": 4800,
      "ĠFI": 4801,
      "ĠFore": 4802,
      "essee": 4803,
      "ĠHarris": 4804,
      "rif": 4805,
      "Ġlatter": 4806,
      "anguage": 4807,
      "ĠTaylor": 4808,
      "ĠBec": 4809,
      "quarters": 4810,
      "Ġconditions": 4811,
      "Ġvictory": 4812,
      "ĠConf": 4813,
      "Ġcard": 4814,
      "enz": 4815,
      "iced": 4816,
      "Ġstories": 4817,
      "Ġheavy": 4818,
      "ellig": 4819,
      "Ġap": 4820,
      "Ġgran": 4821,
      "Ġrat": 4822,
      "also": 4823,
      "Ġdisplay": 4824,
      "ĠProject": 4825,
      "ĠIndust": 4826,
      "agon": 4827,
      "li": 4828,
      "ĠBir": 4829,
      "Ġthreat": 4830,
      "ube": 4831,
      "itional": 4832,
      "Ġappearances": 4833,
      "illed": 4834,
      "astic": 4835,
      "pper": 4836,
      ")\"": 4837,
      "ĠMuslim": 4838,
      "Ġnearly": 4839,
      "ĠIra": 4840,
      "rack": 4841,
      "Ġjob": 4842,
      "ĠHal": 4843,
      "Ġcarried": 4844,
      "Ġdrama": 4845,
      "Ġbasis": 4846,
      "ĠCE": 4847,
      "rics": 4848,
      "ĠSu": 4849,
      "umed": 4850,
      "Ġconstitu": 4851,
      "oud": 4852,
      "Ġplants": 4853,
      "Ġsymb": 4854,
      "Ġconver": 4855,
      "orship": 4856,
      "64": 4857,
      "aith": 4858,
      "ĠDun": 4859,
      "ĠDown": 4860,
      "Ġ500": 4861,
      "text": 4862,
      "selves": 4863,
      "Ġcat": 4864,
      "Ġnature": 4865,
      "Ġawards": 4866,
      "yo": 4867,
      "Ġpsych": 4868,
      "Ġarrest": 4869,
      "Ġelections": 4870,
      "ĠRecord": 4871,
      "ila": 4872,
      "ĠVen": 4873,
      "ĠTennessee": 4874,
      "',": 4875,
      "Ġnation": 4876,
      "ĠLi": 4877,
      "Ġcharg": 4878,
      "Ġproduce": 4879,
      "Ġmountain": 4880,
      "ĠPolice": 4881,
      "zona": 4882,
      "ĠBrad": 4883,
      "Ġweap": 4884,
      "ĠSenate": 4885,
      "ĠFair": 4886,
      "akh": 4887,
      "redited": 4888,
      "Ġthemselves": 4889,
      "Ġtransferred": 4890,
      "Ġhelped": 4891,
      "vanced": 4892,
      "no": 4893,
      "ĠAz": 4894,
      "osaur": 4895,
      "ĠForm": 4896,
      "Ġdigital": 4897,
      "2001": 4898,
      "ĠPoland": 4899,
      "Ġheart": 4900,
      "ez": 4901,
      "utt": 4902,
      "Ġsettlement": 4903,
      "Ġcause": 4904,
      "bro": 4905,
      "ogue": 4906,
      "ropolitan": 4907,
      "Ġsched": 4908,
      "Ġwidely": 4909,
      "ĠMunicip": 4910,
      "light": 4911,
      "istance": 4912,
      "Ġfort": 4913,
      "Ġgrowth": 4914,
      "78": 4915,
      "itled": 4916,
      "Ġclaimed": 4917,
      "osophy": 4918,
      "get": 4919,
      "Ġengineer": 4920,
      "ĠRegister": 4921,
      "Ġcultural": 4922,
      "ĠMountain": 4923,
      "ĠSwedish": 4924,
      "ĠAk": 4925,
      "2002": 4926,
      "Ġdone": 4927,
      "Ġdial": 4928,
      "Ġmotor": 4929,
      "ĠEarly": 4930,
      "edia": 4931,
      "ĠVill": 4932,
      "Ġreplace": 4933,
      "ieutenant": 4934,
      "ĠMarg": 4935,
      "Eng": 4936,
      "Ġlake": 4937,
      "inson": 4938,
      "esota": 4939,
      "ĠFox": 4940,
      "ĠBusiness": 4941,
      "Ġdiscovered": 4942,
      "Ġlives": 4943,
      "Ġstore": 4944,
      "Ġcars": 4945,
      "Ġcensus": 4946,
      "ĠPit": 4947,
      "Ġincreasing": 4948,
      "ĠSchools": 4949,
      "ĠPrime": 4950,
      "Ġillust": 4951,
      "ader": 4952,
      "2003": 4953,
      "vest": 4954,
      "ading": 4955,
      "Ġdeliver": 4956,
      "ĠServices": 4957,
      "found": 4958,
      "Ġetc": 4959,
      "Ġfle": 4960,
      "ĠHoly": 4961,
      "ĠProfessor": 4962,
      "ĠLev": 4963,
      "Ġaddress": 4964,
      "Ġmic": 4965,
      "Ġ1949": 4966,
      "ully": 4967,
      "ancy": 4968,
      "oura": 4969,
      "igen": 4970,
      "Ġtarg": 4971,
      "ĠCa": 4972,
      "Ġdeep": 4973,
      "ĠBrig": 4974,
      "rog": 4975,
      "Ġinitial": 4976,
      "Ġpoor": 4977,
      "Ġroom": 4978,
      "ĠMinnesota": 4979,
      "ĠLewis": 4980,
      "athan": 4981,
      "hens": 4982,
      "Ġhospital": 4983,
      "Ġextra": 4984,
      "ĠStadium": 4985,
      "Ġweeks": 4986,
      "66": 4987,
      "ĠFire": 4988,
      "ĠLegisl": 4989,
      "Ġvan": 4990,
      "rence": 4991,
      "ĠHay": 4992,
      "ĠCare": 4993,
      "Ġshare": 4994,
      "Ġtowns": 4995,
      "Ġgenus": 4996,
      "una": 4997,
      "Ġparents": 4998,
      "Ġfounder": 4999,
      "ĠMemorial": 5000,
      "Ġgraduated": 5001,
      "ĠMaster": 5002,
      "Ġresponse": 5003,
      "Ġprevent": 5004,
      "Ġpurchased": 5005,
      "ĠGreg": 5006,
      "formed": 5007,
      "Ġquick": 5008,
      "ĠRome": 5009,
      "ĠFamily": 5010,
      "present": 5011,
      "No": 5012,
      "bra": 5013,
      "ĠGolden": 5014,
      "Ġmeeting": 5015,
      "Ġeffects": 5016,
      "undred": 5017,
      "Ġpiano": 5018,
      "usband": 5019,
      "ĠDeath": 5020,
      "ker": 5021,
      "inated": 5022,
      "ĠLike": 5023,
      "Ġalongside": 5024,
      "ĠAlf": 5025,
      "Ġ32": 5026,
      "Ġterritory": 5027,
      "rass": 5028,
      "ĠCirc": 5029,
      "Ġpos": 5030,
      "ĠBon": 5031,
      "peror": 5032,
      "rolled": 5033,
      "ĠTa": 5034,
      "ĠTok": 5035,
      "Ġpartn": 5036,
      "ixed": 5037,
      "ĠWalk": 5038,
      "ĠKansas": 5039,
      "500": 5040,
      "Ġblue": 5041,
      "ĠÅ": 5042,
      "org": 5043,
      "bec": 5044,
      "ĠMissouri": 5045,
      "Ġfifth": 5046,
      "Ġchall": 5047,
      "Ġang": 5048,
      "Un": 5049,
      "Ġhar": 5050,
      "struct": 5051,
      "ĠMiller": 5052,
      "Ġnecess": 5053,
      "ĠColorado": 5054,
      "ĠSpring": 5055,
      "Ġpath": 5056,
      "erick": 5057,
      "ĠModern": 5058,
      "grad": 5059,
      "ĠBol": 5060,
      "ĠFinal": 5061,
      "ĠBrother": 5062,
      "ĠDesign": 5063,
      "ĠDuke": 5064,
      "ĠSecretary": 5065,
      "Ã£": 5066,
      "Ġquarter": 5067,
      "ĠArizona": 5068,
      "Ġrap": 5069,
      "Ġunc": 5070,
      "Ġsmaller": 5071,
      "Ġcolor": 5072,
      "mission": 5073,
      "Ġovers": 5074,
      "ĠSher": 5075,
      "Ġdrug": 5076,
      "ĠOfficial": 5077,
      "Ġelement": 5078,
      "Ġ70": 5079,
      "Ġcorrespond": 5080,
      "dam": 5081,
      "ima": 5082,
      "Ġindividuals": 5083,
      "76": 5084,
      "lav": 5085,
      "Ġshoot": 5086,
      "Ġinfluence": 5087,
      "Ġissued": 5088,
      "Ġ1951": 5089,
      "Ġremoved": 5090,
      "ĠBall": 5091,
      "ĠMelbourne": 5092,
      "Ġproblem": 5093,
      "ĠBuildings": 5094,
      "Ġequipment": 5095,
      "Ġnuclear": 5096,
      "establ": 5097,
      "ji": 5098,
      "ĠAuthor": 5099,
      "olis": 5100,
      "ĠSix": 5101,
      "Ġkind": 5102,
      "ĠUt": 5103,
      "oln": 5104,
      "Ġplans": 5105,
      "Ġdifficult": 5106,
      "Ġblood": 5107,
      "mas": 5108,
      "rical": 5109,
      "Ġgoing": 5110,
      "odies": 5111,
      "Ġ90": 5112,
      "Ġconducted": 5113,
      "ĠHospital": 5114,
      "Ġrule": 5115,
      "cluding": 5116,
      "ails": 5117,
      "Ġmanaged": 5118,
      "Ġphysical": 5119,
      "ĠLo": 5120,
      "Ġmax": 5121,
      "ographer": 5122,
      "Ġsemi": 5123,
      "2008": 5124,
      "ĠÎ": 5125,
      "greg": 5126,
      "ĠRen": 5127,
      "Ġtitles": 5128,
      "Ġjournalist": 5129,
      "Ġgas": 5130,
      "ĠEach": 5131,
      "rie": 5132,
      "Ġfigure": 5133,
      "Ġsecurity": 5134,
      "ghan": 5135,
      "lyn": 5136,
      "Ġadministration": 5137,
      "Ġbronze": 5138,
      "Ġmight": 5139,
      "ĠWat": 5140,
      "class": 5141,
      "ĠHy": 5142,
      "Ġcomedy": 5143,
      "Ġwhether": 5144,
      "ĠMarsh": 5145,
      "Ġly": 5146,
      "Ġconne": 5147,
      "Ġinstrument": 5148,
      "Ġupper": 5149,
      "ĠFormer": 5150,
      "Ġolder": 5151,
      "Ð°": 5152,
      "ĠKel": 5153,
      "ĠSpace": 5154,
      "Ġdemon": 5155,
      "Ġperman": 5156,
      "Ġhol": 5157,
      "Ġstay": 5158,
      "Ġassigned": 5159,
      "ĠBalt": 5160,
      "Ġanalysis": 5161,
      "Ġgraph": 5162,
      "emy": 5163,
      "Ġ*": 5164,
      "ĠRoss": 5165,
      "Ġindustrial": 5166,
      "Ġadopted": 5167,
      "Ġgre": 5168,
      "ĠLeon": 5169,
      "Ġhighly": 5170,
      "ĠLabor": 5171,
      "ĠMP": 5172,
      "ĠChannel": 5173,
      "ĠCost": 5174,
      "ĠRegion": 5175,
      "Ġdefined": 5176,
      "Ġsites": 5177,
      "58": 5178,
      "Ġdomin": 5179,
      "ĠBorn": 5180,
      "force": 5181,
      "46": 5182,
      "iary": 5183,
      "Ġprogress": 5184,
      "Ġworkers": 5185,
      "Ġexperience": 5186,
      "ĠAh": 5187,
      "ĠCop": 5188,
      "Ġconcent": 5189,
      "Ġcorn": 5190,
      "ĠFrancis": 5191,
      "49": 5192,
      "ĠEs": 5193,
      "Ġattra": 5194,
      "Ġoldest": 5195,
      "Ġchap": 5196,
      "olved": 5197,
      "Ġpack": 5198,
      "ĠId": 5199,
      "ulpt": 5200,
      "stic": 5201,
      "ali": 5202,
      "anks": 5203,
      "Ġrare": 5204,
      "Ġletter": 5205,
      "Ġchampion": 5206,
      "ĠAbb": 5207,
      "Ġcompon": 5208,
      "Ġera": 5209,
      "bs": 5210,
      "Ġcomes": 5211,
      "Ġvote": 5212,
      "Ġfinally": 5213,
      "Ġairport": 5214,
      "ĠIraq": 5215,
      "Ġx": 5216,
      "Ġfailed": 5217,
      "2010": 5218,
      "Ġminister": 5219,
      "aug": 5220,
      "nected": 5221,
      "Ġwhole": 5222,
      "Ġcrew": 5223,
      "Ġgreen": 5224,
      "Ġjoint": 5225,
      "ifying": 5226,
      "orph": 5227,
      "ĠKer": 5228,
      "ivity": 5229,
      "ĠSever": 5230,
      "Ġcerem": 5231,
      "ĠCastle": 5232,
      "Ġcombined": 5233,
      "oration": 5234,
      "ĠBah": 5235,
      "Ġresidents": 5236,
      "Ġsn": 5237,
      "42": 5238,
      "ĠAdminist": 5239,
      "Ġut": 5240,
      "ictional": 5241,
      "pass": 5242,
      "oned": 5243,
      "Ġretire": 5244,
      "ĠHart": 5245,
      "agh": 5246,
      "Ġversions": 5247,
      "Ġassociation": 5248,
      "Ġowner": 5249,
      "Ġtreatment": 5250,
      "AC": 5251,
      "lete": 5252,
      "Ġturned": 5253,
      "Ġurban": 5254,
      "Ġstrateg": 5255,
      "Ġlikely": 5256,
      "aly": 5257,
      "Ġste": 5258,
      "Ġ1938": 5259,
      "Ġgrew": 5260,
      "Ġmarriage": 5261,
      "Ġsources": 5262,
      "ĠSquadron": 5263,
      "Ġinterp": 5264,
      "ĠAD": 5265,
      "duce": 5266,
      "ĠYour": 5267,
      "1999": 5268,
      "anga": 5269,
      "ĠHonor": 5270,
      "Ġprominent": 5271,
      "ii": 5272,
      "Ġreason": 5273,
      "achel": 5274,
      "incoln": 5275,
      "Ġfacility": 5276,
      "sey": 5277,
      "Ġexpanded": 5278,
      "ĠPhilip": 5279,
      "Ãº": 5280,
      "rown": 5281,
      "Ġliterature": 5282,
      "Ġswim": 5283,
      "ĠStock": 5284,
      "Ġyouth": 5285,
      "ĠKorean": 5286,
      "Ġmiles": 5287,
      "ĠHu": 5288,
      "ĠCommand": 5289,
      "Ġtree": 5290,
      "Ġeducated": 5291,
      "amber": 5292,
      "Ġ45": 5293,
      "Ġranked": 5294,
      "Ġrefers": 5295,
      "from": 5296,
      "ĠMember": 5297,
      "Ġhusband": 5298,
      "ĠBru": 5299,
      "perial": 5300,
      "ĠHan": 5301,
      "Ġestimated": 5302,
      "Ġtroops": 5303,
      "ĠCra": 5304,
      "ĠBack": 5305,
      "ĠRon": 5306,
      "ĠColon": 5307,
      "arry": 5308,
      "Ġfirm": 5309,
      "Ġparties": 5310,
      "rator": 5311,
      "ographic": 5312,
      "ĠMexican": 5313,
      "Ġattend": 5314,
      "ĠBos": 5315,
      "ĠFle": 5316,
      "water": 5317,
      "urer": 5318,
      "ĠSom": 5319,
      "ĠRugby": 5320,
      "ĠDor": 5321,
      "Ġrepe": 5322,
      "ĠPlaces": 5323,
      "ĠDVD": 5324,
      "Ġscene": 5325,
      "Cl": 5326,
      "idae": 5327,
      "Ġadapt": 5328,
      "ĠPrim": 5329,
      "Ġprojects": 5330,
      "ingham": 5331,
      "Ġdistribution": 5332,
      "ĠAfghan": 5333,
      "Ġpal": 5334,
      "pson": 5335,
      "egian": 5336,
      "Ġsubs": 5337,
      "Ġadministrative": 5338,
      "izes": 5339,
      "hol": 5340,
      "Ġpages": 5341,
      "ĠMedical": 5342,
      "ads": 5343,
      "iated": 5344,
      "oto": 5345,
      "SS": 5346,
      "Ġbring": 5347,
      "rovers": 5348,
      "77": 5349,
      "ĠMoon": 5350,
      "ĠWho": 5351,
      "ĠDisc": 5352,
      "ĠShort": 5353,
      "Ġintended": 5354,
      "ĠAst": 5355,
      "Ġbecomes": 5356,
      "Ġelev": 5357,
      "life": 5358,
      "Ġdance": 5359,
      "ĠLind": 5360,
      "ĠNaz": 5361,
      "Ġrespectively": 5362,
      "2009": 5363,
      "ĠOp": 5364,
      "ĠFree": 5365,
      "ĠSem": 5366,
      "ĠBattalion": 5367,
      "Ġlif": 5368,
      "ĠManagement": 5369,
      "hat": 5370,
      "Ġsamp": 5371,
      "ĠTax": 5372,
      "Ġdead": 5373,
      "Ġface": 5374,
      "Ġdisease": 5375,
      "ĠAM": 5376,
      "Ġprec": 5377,
      "Ã©e": 5378,
      "Ġholds": 5379,
      "ĠHard": 5380,
      "istry": 5381,
      "Ġconfl": 5382,
      "ĠSon": 5383,
      "Ġfamilies": 5384,
      "ĠEngineering": 5385,
      "ĠToday": 5386,
      "Ġresident": 5387,
      "osh": 5388,
      "Ġengineering": 5389,
      "98": 5390,
      "aks": 5391,
      "ublin": 5392,
      "Ġpotential": 5393,
      "ĠSound": 5394,
      "ĠHarry": 5395,
      "Ġlay": 5396,
      "Ġ36": 5397,
      "duct": 5398,
      "Ġmixed": 5399,
      "usc": 5400,
      "Ġsplit": 5401,
      "alo": 5402,
      "ĠPass": 5403,
      "asty": 5404,
      "Ġrecently": 5405,
      "ĠCroat": 5406,
      "Ġdistinct": 5407,
      "ĠMinistry": 5408,
      "aret": 5409,
      "bass": 5410,
      "met": 5411,
      "inus": 5412,
      "Ġtheatre": 5413,
      "Ġaim": 5414,
      "iform": 5415,
      "Ġtable": 5416,
      "Ġcontinue": 5417,
      "ilation": 5418,
      "41": 5419,
      "pool": 5420,
      "Ġroles": 5421,
      "ĠPlan": 5422,
      "Ġimmig": 5423,
      "Ġflight": 5424,
      "Ġult": 5425,
      "Ġfast": 5426,
      "eller": 5427,
      "Ġcontemporary": 5428,
      "aging": 5429,
      "iot": 5430,
      "ĠSant": 5431,
      "incess": 5432,
      "eather": 5433,
      "Ġtraffic": 5434,
      "ĠOffic": 5435,
      "Ġregions": 5436,
      "ĠEntertain": 5437,
      "Ġspons": 5438,
      "iley": 5439,
      "Ġsingles": 5440,
      "Ġvolume": 5441,
      "ĠStory": 5442,
      "ĠLincoln": 5443,
      "88": 5444,
      "Ġdistance": 5445,
      "Ġtitled": 5446,
      "ĠHo": 5447,
      "Ġtele": 5448,
      "ĠHamilton": 5449,
      "Ġinside": 5450,
      "Ġsurrounding": 5451,
      "An": 5452,
      "ĠTest": 5453,
      "Ġstreet": 5454,
      "thing": 5455,
      "ĠSimon": 5456,
      "Ġfish": 5457,
      "umes": 5458,
      "ighth": 5459,
      "ĠAC": 5460,
      "%)": 5461,
      "Ġdocumentary": 5462,
      "real": 5463,
      "Ġ(;": 5464,
      "FM": 5465,
      "enes": 5466,
      "Ġprotect": 5467,
      "yg": 5468,
      "ĠWolf": 5469,
      "uls": 5470,
      "ĠMarc": 5471,
      "Ġforest": 5472,
      "Ġacting": 5473,
      "Ġpromoted": 5474,
      "eral": 5475,
      "Ġcle": 5476,
      "100": 5477,
      "aud": 5478,
      "acc": 5479,
      "ĠSweden": 5480,
      "Ġcharge": 5481,
      "Ġreference": 5482,
      "Ġuns": 5483,
      "western": 5484,
      "Ġ(),": 5485,
      "Ġdestroyed": 5486,
      "Ð¾": 5487,
      "vo": 5488,
      "ĠStone": 5489,
      "Ġwalk": 5490,
      "room": 5491,
      "ĠMaria": 5492,
      "anth": 5493,
      "Ġrecognized": 5494,
      "ĠDam": 5495,
      "ĠNorwegian": 5496,
      "olished": 5497,
      "Ġpet": 5498,
      "Ġgot": 5499,
      "unte": 5500,
      "ova": 5501,
      "ĠBefore": 5502,
      "Ġplanned": 5503,
      "isted": 5504,
      "resh": 5505,
      "ika": 5506,
      "Ġvocal": 5507,
      "Ġactivity": 5508,
      "aron": 5509,
      "Ġability": 5510,
      "ĠKim": 5511,
      "ĠVis": 5512,
      "place": 5513,
      "ĠRom": 5514,
      "Ġdespite": 5515,
      "ervative": 5516,
      "ĠTy": 5517,
      "Ġroll": 5518,
      "enge": 5519,
      "ĠAnthony": 5520,
      "Ġsens": 5521,
      "Ġcomput": 5522,
      "Ġmusician": 5523,
      "estic": 5524,
      "see": 5525,
      "hu": 5526,
      "Ġmemory": 5527,
      "CD": 5528,
      "ns": 5529,
      "Ġec": 5530,
      "Ġdrums": 5531,
      "ĠGree": 5532,
      "96": 5533,
      "Ġcollect": 5534,
      "Ã£o": 5535,
      "Ġsu": 5536,
      "icient": 5537,
      "ĠForeign": 5538,
      "ĠAud": 5539,
      "ĠWeek": 5540,
      "Ġlargely": 5541,
      "Ġsoldiers": 5542,
      "bed": 5543,
      "ĠThrough": 5544,
      "Ġcontinues": 5545,
      "Ġimpact": 5546,
      "ĠAtlantic": 5547,
      "ordin": 5548,
      "under": 5549,
      "Ġsynt": 5550,
      "ĠDick": 5551,
      "col": 5552,
      "gu": 5553,
      "ĠWars": 5554,
      "Ġofficers": 5555,
      "1998": 5556,
      "Ġcreation": 5557,
      "'.": 5558,
      "iec": 5559,
      "mun": 5560,
      "Ġfestival": 5561,
      "anna": 5562,
      "Ġregist": 5563,
      "ĠBurn": 5564,
      "Ġreduced": 5565,
      "Ġstock": 5566,
      "Ġcompeted": 5567,
      "ĠEntertainment": 5568,
      "Ġ1918": 5569,
      "85": 5570,
      "Ġdefin": 5571,
      "Ġhydro": 5572,
      "ĠCape": 5573,
      "urd": 5574,
      "ĠFront": 5575,
      "Ġpict": 5576,
      "Ġcandidate": 5577,
      "Ġrecip": 5578,
      "Ġmoving": 5579,
      "Ġ(,": 5580,
      "ĠKentucky": 5581,
      "ĠWalter": 5582,
      "onsin": 5583,
      "1997": 5584,
      "ĠSecurity": 5585,
      "ĠDougl": 5586,
      "Ġcalc": 5587,
      "anner": 5588,
      "ĠRepresentatives": 5589,
      "ĠDrag": 5590,
      "ĠConnect": 5591,
      "ĠEP": 5592,
      "Ġconcert": 5593,
      "iat": 5594,
      "isconsin": 5595,
      "Ġinhabit": 5596,
      "ĠCre": 5597,
      "ĠBat": 5598,
      "Ġseats": 5599,
      "ĠQueensland": 5600,
      "andy": 5601,
      "ĠCaptain": 5602,
      "2011": 5603,
      "Sh": 5604,
      "Ġaired": 5605,
      "ocated": 5606,
      "ĠDark": 5607,
      "Ġox": 5608,
      "ĠRang": 5609,
      "Ġships": 5610,
      "sex": 5611,
      "mad": 5612,
      "Ġcounter": 5613,
      "Ġgovernor": 5614,
      "urches": 5615,
      "Ġdesignated": 5616,
      "hedral": 5617,
      "79": 5618,
      "Ġcoin": 5619,
      "Ġstreng": 5620,
      "ĠLocal": 5621,
      "ĠDave": 5622,
      "uther": 5623,
      "ĠChildren": 5624,
      "hist": 5625,
      "ĠTrib": 5626,
      "Ġrestaur": 5627,
      "iques": 5628,
      "AM": 5629,
      "eline": 5630,
      "56": 5631,
      "Ġbackground": 5632,
      "emic": 5633,
      "aped": 5634,
      "Ġlett": 5635,
      "Ġacid": 5636,
      "Ġ1936": 5637,
      "uese": 5638,
      "Ġpresence": 5639,
      "ĠRad": 5640,
      "43": 5641,
      "Ġhighway": 5642,
      "06": 5643,
      "ĠSav": 5644,
      "ĠPict": 5645,
      "Ġcontrovers": 5646,
      "ĠOrchestra": 5647,
      "ridges": 5648,
      "Ġclasses": 5649,
      "Ġderived": 5650,
      "Ġracing": 5651,
      "onym": 5652,
      "Ġhistoric": 5653,
      "ĠSunday": 5654,
      "ĠCemetery": 5655,
      "Ġburied": 5656,
      "Ġ;": 5657,
      "oured": 5658,
      "ĠFord": 5659,
      "Ġstra": 5660,
      "Ġcancer": 5661,
      "AF": 5662,
      "ĠTransportation": 5663,
      "SE": 5664,
      "Ġwins": 5665,
      "ĠMalays": 5666,
      "Ġproperties": 5667,
      "Ġgives": 5668,
      "Ã¼r": 5669,
      "Ġkeyboard": 5670,
      "ĠMas": 5671,
      "ĠEric": 5672,
      "ĠKal": 5673,
      "Ġenter": 5674,
      "Ġmagn": 5675,
      "Ġscholars": 5676,
      "OR": 5677,
      "Ġpan": 5678,
      "Ġmeasure": 5679,
      "ĠDublin": 5680,
      "Ġarts": 5681,
      "ĠGil": 5682,
      "omot": 5683,
      "Ġestate": 5684,
      "Ġvehicles": 5685,
      "ĠInformation": 5686,
      "Ġfunctions": 5687,
      "Ġflag": 5688,
      "ĠMcG": 5689,
      "Ġleave": 5690,
      "Ġcarri": 5691,
      "ĠFederation": 5692,
      "ĠBasketball": 5693,
      "Ġ33": 5694,
      "ĠMusical": 5695,
      "ĠBoys": 5696,
      "ĠHoward": 5697,
      "ĠWisconsin": 5698,
      "Ġstars": 5699,
      "apore": 5700,
      "Ġleaders": 5701,
      "oted": 5702,
      "ĠVo": 5703,
      "ĠConc": 5704,
      "ented": 5705,
      "uris": 5706,
      "ibly": 5707,
      "ĠOt": 5708,
      "Ġsil": 5709,
      "ĠAlan": 5710,
      "Ġadvert": 5711,
      "which": 5712,
      "Ġtaught": 5713,
      "ĠVietnam": 5714,
      "ĠMit": 5715,
      "ĠHor": 5716,
      "ĠJacob": 5717,
      "IT": 5718,
      "people": 5719,
      "Ġpoll": 5720,
      "ĠDavis": 5721,
      "Ġsignal": 5722,
      "Ġpeace": 5723,
      "Wales": 5724,
      "osen": 5725,
      "2012": 5726,
      "ooth": 5727,
      "Ġtwice": 5728,
      "ĠNic": 5729,
      "ĠOtt": 5730,
      "Ġallows": 5731,
      "Ġenough": 5732,
      "ĠHamp": 5733,
      "Ġrain": 5734,
      "Ġgun": 5735,
      "Ġ38": 5736,
      "Ġopportun": 5737,
      "Ġbehav": 5738,
      "ĠLiter": 5739,
      "ÅĤ": 5740,
      "Ġmulti": 5741,
      "cest": 5742,
      "Ġvenues": 5743,
      "Ġexecut": 5744,
      "Ġtal": 5745,
      "aro": 5746,
      "ĠDomin": 5747,
      "Ġchairman": 5748,
      "Ġsyn": 5749,
      "Ġvehicle": 5750,
      "ĠPublishing": 5751,
      "Ġbig": 5752,
      "usion": 5753,
      "Ġfriends": 5754,
      "aki": 5755,
      "Ġidentified": 5756,
      "Ġleadership": 5757,
      "Ġproviding": 5758,
      "Ġcells": 5759,
      "Ġalternative": 5760,
      "54": 5761,
      "Ġhab": 5762,
      "Ġwild": 5763,
      "Ġrecover": 5764,
      "Ġweight": 5765,
      "ĠUN": 5766,
      "bu": 5767,
      "Ġpositive": 5768,
      "Ġconnected": 5769,
      "ĠMagazine": 5770,
      "died": 5771,
      "ĠIce": 5772,
      "ĠBroad": 5773,
      "ĠMorris": 5774,
      "rec": 5775,
      "ellows": 5776,
      "ĠAllen": 5777,
      "ĠDouglas": 5778,
      "bo": 5779,
      "ĠPoint": 5780,
      "aine": 5781,
      "Ġparticipated": 5782,
      "ĠDoctor": 5783,
      "97": 5784,
      "Ġbal": 5785,
      "ĠPriv": 5786,
      "Ġfellow": 5787,
      "ĠCollins": 5788,
      "erc": 5789,
      "file": 5790,
      "Ġfiction": 5791,
      "Ġ1937": 5792,
      "vin": 5793,
      "Ġportion": 5794,
      "Ġpattern": 5795,
      "Ġ1922": 5796,
      "ĠMaryland": 5797,
      "rill": 5798,
      "ĠLat": 5799,
      "ĠNow": 5800,
      "rin": 5801,
      "Ġcontact": 5802,
      "ĠForces": 5803,
      "Ġmaster": 5804,
      "lers": 5805,
      "Ġtim": 5806,
      "Ġgranted": 5807,
      "Ġraces": 5808,
      "bell": 5809,
      "Ġaccepted": 5810,
      "ening": 5811,
      "Ġtheme": 5812,
      "je": 5813,
      "yal": 5814,
      "Ġmerged": 5815,
      "Ġprobably": 5816,
      "aints": 5817,
      "Ġtherefore": 5818,
      "Ġhor": 5819,
      "ĠBetween": 5820,
      "Ġcitizens": 5821,
      "Ġsexual": 5822,
      "ĠLabour": 5823,
      "itness": 5824,
      "ĠMun": 5825,
      "Ġtarget": 5826,
      "zz": 5827,
      "ĠPier": 5828,
      "ĠLow": 5829,
      "Ġprincipal": 5830,
      "Ġquestion": 5831,
      "outs": 5832,
      "ĠWin": 5833,
      "ogs": 5834,
      "Ġcoaches": 5835,
      "ĠHolly": 5836,
      "CAA": 5837,
      "Ġcondition": 5838,
      "mouth": 5839,
      "Ġdeclared": 5840,
      "Ġyet": 5841,
      "Ġrecon": 5842,
      "Ġrural": 5843,
      "Ġ1929": 5844,
      "ĠPortuguese": 5845,
      "ĠMach": 5846,
      "oster": 5847,
      "gor": 5848,
      "Ġsales": 5849,
      "ĠJesus": 5850,
      "oral": 5851,
      "Ġpurs": 5852,
      "Ġasked": 5853,
      "ĠPlace": 5854,
      "Ġvillages": 5855,
      "IC": 5856,
      "Ġhundred": 5857,
      "Ġfavor": 5858,
      "ĠAlab": 5859,
      "Don": 5860,
      "Ġquality": 5861,
      "ancing": 5862,
      "Ġexperiment": 5863,
      "ĠAffairs": 5864,
      "Ġspect": 5865,
      "Ġnominated": 5866,
      "icians": 5867,
      "ensity": 5868,
      "ĠSee": 5869,
      "Ġnewly": 5870,
      "roit": 5871,
      "Ġdark": 5872,
      "ami": 5873,
      "ĠKhan": 5874,
      "1996": 5875,
      "ĠReal": 5876,
      "spe": 5877,
      "aste": 5878,
      "ĠArmen": 5879,
      "Ġexpansion": 5880,
      "Ġsimply": 5881,
      "ĠSingapore": 5882,
      "Ġtheor": 5883,
      "Ġbott": 5884,
      "ĠFC": 5885,
      "ĠOak": 5886,
      "Ġapproach": 5887,
      "iate": 5888,
      "ĠFM": 5889,
      "iants": 5890,
      "Ġcustom": 5891,
      "ĠGord": 5892,
      "ĠGram": 5893,
      "ĠNY": 5894,
      "Ġresulting": 5895,
      "ĠBowl": 5896,
      "FC": 5897,
      "Ġwinners": 5898,
      "Ġreach": 5899,
      "orney": 5900,
      "ĠAdam": 5901,
      "ĠKr": 5902,
      "ester": 5903,
      "Ġspirit": 5904,
      "59": 5905,
      "ba": 5906,
      "Ġwa": 5907,
      "Ġspring": 5908,
      "Ġcompared": 5909,
      "Ġsculpt": 5910,
      "Ġreports": 5911,
      "52": 5912,
      "Ġparliament": 5913,
      "Ġ1914": 5914,
      "Ġgained": 5915,
      "Ġidea": 5916,
      "ĠMoh": 5917,
      "ĠDak": 5918,
      "ruit": 5919,
      "Ġgreater": 5920,
      "Ġbishop": 5921,
      "ĠTen": 5922,
      "iling": 5923,
      "%.": 5924,
      "Ġcontain": 5925,
      "mitted": 5926,
      "aph": 5927,
      "law": 5928,
      "ĠTurn": 5929,
      "07": 5930,
      "Ġfully": 5931,
      "Ġ1933": 5932,
      "lah": 5933,
      "ĠAlbums": 5934,
      "ĠTs": 5935,
      "Ġour": 5936,
      "ĠWell": 5937,
      "Ġmaterials": 5938,
      "Ġguest": 5939,
      "Ġhistorian": 5940,
      "Ġlabor": 5941,
      "Ġ37": 5942,
      "owa": 5943,
      "Ġrob": 5944,
      "Ġ1935": 5945,
      "Ġtranslation": 5946,
      "aren": 5947,
      "ÃŃa": 5948,
      "ienn": 5949,
      "ĠComics": 5950,
      "Ġcolumn": 5951,
      "Ġsafety": 5952,
      "mes": 5953,
      "sky": 5954,
      "inally": 5955,
      "ashion": 5956,
      "ĠJam": 5957,
      "Ġprint": 5958,
      "Cy": 5959,
      "Ġgiving": 5960,
      "Ġknowledge": 5961,
      "uct": 5962,
      "rone": 5963,
      "wing": 5964,
      "ito": 5965,
      "leased": 5966,
      "Ġlibrary": 5967,
      "ishment": 5968,
      "Ġstone": 5969,
      "Ġwithd": 5970,
      "aded": 5971,
      "weight": 5972,
      "08": 5973,
      "ĠDiv": 5974,
      "ĠDream": 5975,
      "ĠNick": 5976,
      "ĠĠĠ": 5977,
      "67": 5978,
      "car": 5979,
      "Ġbegins": 5980,
      "ĠLtd": 5981,
      "Ġtrue": 5982,
      "ĠRoberts": 5983,
      "Ġ1900": 5984,
      "elle": 5985,
      "ĠHand": 5986,
      "ĠAnderson": 5987,
      "Ġfrequently": 5988,
      "tle": 5989,
      "Ġpitcher": 5990,
      "Ġapplied": 5991,
      "Northern": 5992,
      "ĠIV": 5993,
      "ĠKl": 5994,
      "51": 5995,
      "rees": 5996,
      "Ġ1928": 5997,
      "Ġmarked": 5998,
      "Ġimmediately": 5999,
      "PS": 6000,
      "ĠDue": 6001,
      "ĠHans": 6002,
      "Ġcontent": 6003,
      "\"),": 6004,
      "68": 6005,
      "ĠAdvent": 6006,
      "cow": 6007,
      "ĠAge": 6008,
      "Ġreserv": 6009,
      "ĠAmong": 6010,
      "Ġagreement": 6011,
      "Ġsearch": 6012,
      "osis": 6013,
      "ĠAustria": 6014,
      "Ġpurpose": 6015,
      "gow": 6016,
      "Ġresulted": 6017,
      "itzerland": 6018,
      "aria": 6019,
      "elligence": 6020,
      "Ġfr": 6021,
      "ĠAlabama": 6022,
      "Ġspread": 6023,
      "Â°": 6024,
      "Ġprep": 6025,
      "iplom": 6026,
      "Ġmachine": 6027,
      "Ġbad": 6028,
      "iversary": 6029,
      "Ġcovers": 6030,
      "urance": 6031,
      "apted": 6032,
      "1990": 6033,
      "restling": 6034,
      "Pro": 6035,
      "ĠBuilding": 6036,
      "Ġce": 6037,
      "ource": 6038,
      "Ġagent": 6039,
      "ĠHills": 6040,
      "icut": 6041,
      "Ġretirement": 6042,
      "rum": 6043,
      "ĠOcean": 6044,
      "Ġeconomy": 6045,
      "di": 6046,
      "ĠWhit": 6047,
      "Ġorganized": 6048,
      "ething": 6049,
      "ymn": 6050,
      "ĠSeveral": 6051,
      "Ġclimate": 6052,
      "tery": 6053,
      "ĠSymph": 6054,
      "Ġletters": 6055,
      "ĠImp": 6056,
      "Ġscientific": 6057,
      "1995": 6058,
      "Ġsets": 6059,
      "Ġstream": 6060,
      "Ġexpatriate": 6061,
      "ĠGib": 6062,
      "Ġformation": 6063,
      "Ġunique": 6064,
      "Ġanimals": 6065,
      "iang": 6066,
      "Ġcontest": 6067,
      "gg": 6068,
      "Ġvirt": 6069,
      "Ġsoutheast": 6070,
      "ĠHou": 6071,
      "Ġsevent": 6072,
      "ĠWhat": 6073,
      "ĠKey": 6074,
      "Ġreviews": 6075,
      "established": 6076,
      "Ã¢": 6077,
      "Ġquickly": 6078,
      "Ġfields": 6079,
      "Ġtrial": 6080,
      "claim": 6081,
      "Ġneeded": 6082,
      "Ġcrim": 6083,
      "Ġsuit": 6084,
      "ĠSilver": 6085,
      "Ġthous": 6086,
      "ulate": 6087,
      "Ġbillion": 6088,
      "ĠRoll": 6089,
      "Ġcompris": 6090,
      "ĠFrederick": 6091,
      "don": 6092,
      "ĠArk": 6093,
      "burn": 6094,
      "Ġbought": 6095,
      "ĠFood": 6096,
      "Ġstarring": 6097,
      "Å«": 6098,
      "ĠChampions": 6099,
      "Ġheadquarters": 6100,
      "Ġtold": 6101,
      "Ġinhabitants": 6102,
      "Ð¸": 6103,
      "Ġmethods": 6104,
      "Ġarms": 6105,
      "har": 6106,
      "Ġmill": 6107,
      "Ġsector": 6108,
      "Ġ1921": 6109,
      "ĠRoger": 6110,
      "Ġir": 6111,
      "ryst": 6112,
      "roup": 6113,
      "ogy": 6114,
      "Ġefforts": 6115,
      "MS": 6116,
      "Ġcart": 6117,
      "omy": 6118,
      "Ġactually": 6119,
      "Ġconsum": 6120,
      "olec": 6121,
      "Ġgod": 6122,
      "Ġgirl": 6123,
      "Ġnotes": 6124,
      "ĠInternet": 6125,
      "ĠHun": 6126,
      "ĠProvincial": 6127,
      "Ġspok": 6128,
      "Ġequival": 6129,
      "Ġcritical": 6130,
      "53": 6131,
      "Ġaband": 6132,
      "orage": 6133,
      "Ġboy": 6134,
      "ĠBrand": 6135,
      "Ġnortheast": 6136,
      "rell": 6137,
      "Ġfloor": 6138,
      "Ġbasic": 6139,
      "ĠGuide": 6140,
      "Ġconverted": 6141,
      "ĠGlas": 6142,
      "Ġhall": 6143,
      "Ġteaching": 6144,
      "ĠPope": 6145,
      "ects": 6146,
      "ĠDetroit": 6147,
      "Ġheav": 6148,
      "veland": 6149,
      "Ġrelatively": 6150,
      "Ġmaintain": 6151,
      "Ġoccurred": 6152,
      "Ġ1919": 6153,
      "inking": 6154,
      "Ġsuffered": 6155,
      "oes": 6156,
      "ĠDiego": 6157,
      "ĠPhill": 6158,
      "ĠTemple": 6159,
      "Bl": 6160,
      "Ġsuppl": 6161,
      "Ġyounger": 6162,
      "Ġsucceeded": 6163,
      "ĠMem": 6164,
      "ĠRights": 6165,
      "ownt": 6166,
      "Ġcannot": 6167,
      "rect": 6168,
      "Ġmess": 6169,
      "Ġsquare": 6170,
      "Ġharm": 6171,
      "evin": 6172,
      "Ġconduct": 6173,
      "Ġdaily": 6174,
      "ĠReb": 6175,
      "yt": 6176,
      "yes": 6177,
      "ĠShip": 6178,
      "Ġhap": 6179,
      "ĠLast": 6180,
      "Ġarticles": 6181,
      "inth": 6182,
      "Ġeffective": 6183,
      "Ġ1924": 6184,
      "Ġsuburb": 6185,
      "ĠBecause": 6186,
      "rings": 6187,
      "Ġpra": 6188,
      "ĠSab": 6189,
      "ĠGirl": 6190,
      "Ġimage": 6191,
      "Ġexisting": 6192,
      "57": 6193,
      "Ġarrived": 6194,
      "Ġapplication": 6195,
      "Ġlocations": 6196,
      "ĠSwitzerland": 6197,
      "ĠPatrick": 6198,
      "Ġglobal": 6199,
      "Ġethnic": 6200,
      "Ġinspired": 6201,
      "Ġrecomm": 6202,
      "ĠConnecticut": 6203,
      "ressed": 6204,
      "Ġsupply": 6205,
      "inguished": 6206,
      "Ġbatt": 6207,
      "OS": 6208,
      "ĠPot": 6209,
      "ivals": 6210,
      "ĠLet": 6211,
      "Ġexc": 6212,
      "oen": 6213,
      "Ġcam": 6214,
      "Ġlearning": 6215,
      "AN": 6216,
      "Ġfolk": 6217,
      "ĠEth": 6218,
      "Ġ34": 6219,
      "ĠPitts": 6220,
      "uties": 6221,
      "Ġemployed": 6222,
      "Ġhour": 6223,
      "illery": 6224,
      "ĠPhys": 6225,
      "ĠTerrit": 6226,
      "ĠLas": 6227,
      "Ġprovincial": 6228,
      "Ġ1931": 6229,
      "Ġcrime": 6230,
      "ori": 6231,
      "iser": 6232,
      "ĠGirls": 6233,
      "ĠSlov": 6234,
      "ĠTai": 6235,
      "acent": 6236,
      "Ġcenturies": 6237,
      "Ġlicens": 6238,
      "zy": 6239,
      "Ġfeed": 6240,
      "atab": 6241,
      "Ġmap": 6242,
      "ĠBeng": 6243,
      "ateur": 6244,
      "Ġ1932": 6245,
      "Ġdriver": 6246,
      "ĠMicro": 6247,
      "Ġtower": 6248,
      "ĠTokyo": 6249,
      "ban": 6250,
      "kes": 6251,
      "92": 6252,
      "irmed": 6253,
      "ĠBroadcast": 6254,
      "enh": 6255,
      "ĠChile": 6256,
      "Ġarrang": 6257,
      "Ġreceive": 6258,
      "Ġtalk": 6259,
      "2013": 6260,
      "ĠSac": 6261,
      "agu": 6262,
      "weet": 6263,
      "ĠJews": 6264,
      "eech": 6265,
      "Ġjudge": 6266,
      "Ġsac": 6267,
      "heme": 6268,
      "01": 6269,
      "aver": 6270,
      "Ġforward": 6271,
      "ourses": 6272,
      "Ġoccasion": 6273,
      "ĠFe": 6274,
      "Ġrapid": 6275,
      "aga": 6276,
      "Ġfounding": 6277,
      "Ġopera": 6278,
      "Ġlaunch": 6279,
      "''": 6280,
      "Ġcomposition": 6281,
      "ĠThird": 6282,
      "Ġ1927": 6283,
      "Ġslight": 6284,
      "Ġrevealed": 6285,
      "86": 6286,
      "ĠBeat": 6287,
      "Ġeas": 6288,
      "Ġattention": 6289,
      "TC": 6290,
      "rine": 6291,
      "ĠNar": 6292,
      "Ġrecordings": 6293,
      "Ġ1934": 6294,
      "uled": 6295,
      "Ġexclus": 6296,
      "Ġunknown": 6297,
      "oles": 6298,
      "Ġcontaining": 6299,
      "Ġneighborhood": 6300,
      "Ġfictional": 6301,
      "ĠSky": 6302,
      "Ġtemperature": 6303,
      "Ġsons": 6304,
      "bar": 6305,
      "anes": 6306,
      "inder": 6307,
      "ĠIndones": 6308,
      "Ġauthority": 6309,
      "Ġpressure": 6310,
      "Ġreform": 6311,
      "Ġalle": 6312,
      "lahoma": 6313,
      "ĠEag": 6314,
      "ropical": 6315,
      "Ġsimple": 6316,
      "ĠSum": 6317,
      "Ġcycl": 6318,
      "ĠNich": 6319,
      "imens": 6320,
      "ĠAbd": 6321,
      "actions": 6322,
      "ĠInfantry": 6323,
      "wise": 6324,
      "Ġcricket": 6325,
      "Ġcolleges": 6326,
      "ĠDur": 6327,
      "Ġchemical": 6328,
      "Le": 6329,
      "ĠGri": 6330,
      "Ġarchitecture": 6331,
      "ĠMoscow": 6332,
      "Ġ1923": 6333,
      "Ġpublication": 6334,
      "09": 6335,
      "Ġhyp": 6336,
      "ĠGreece": 6337,
      "05": 6338,
      "Ġcombat": 6339,
      "ois": 6340,
      "sch": 6341,
      "iral": 6342,
      "ouver": 6343,
      "ĠLouisiana": 6344,
      "Ġperformances": 6345,
      "ricketer": 6346,
      "Ġsoccer": 6347,
      "Ġcab": 6348,
      "aming": 6349,
      "ĠGallery": 6350,
      "ĠLegislative": 6351,
      "ĠMethod": 6352,
      "ĠBerg": 6353,
      "Ġkil": 6354,
      "Ġconstant": 6355,
      "ĠColomb": 6356,
      "Ġagreed": 6357,
      "72": 6358,
      "Ġvalley": 6359,
      "ĠGard": 6360,
      "\").": 6361,
      "nia": 6362,
      "rÃ©": 6363,
      "arp": 6364,
      "Ġseg": 6365,
      "ikh": 6366,
      "Ġtranslated": 6367,
      "Ġnick": 6368,
      "ĠLang": 6369,
      "ĠLiberal": 6370,
      "Ġstores": 6371,
      "ĠSport": 6372,
      "ĠNCAA": 6373,
      "Ġentitled": 6374,
      "Ġaccomp": 6375,
      "ĠPrior": 6376,
      "ĠStra": 6377,
      "Ġmayor": 6378,
      "Ġportray": 6379,
      "Ġattacks": 6380,
      "ĠFall": 6381,
      "ĠNon": 6382,
      "Ġallowing": 6383,
      "74": 6384,
      "Ġislands": 6385,
      "Ġfigures": 6386,
      "à¤": 6387,
      "Ġexchange": 6388,
      "ĠChristmas": 6389,
      "bound": 6390,
      "Ġ1917": 6391,
      "Ġauthorities": 6392,
      "ials": 6393,
      "ĠNev": 6394,
      "ĠOnly": 6395,
      "Äį": 6396,
      "active": 6397,
      "Ġ1926": 6398,
      "ĠSn": 6399,
      "ogen": 6400,
      "Ġflow": 6401,
      "ĠYears": 6402,
      "ĠCleveland": 6403,
      "zen": 6404,
      "Ġchosen": 6405,
      "Ġcompar": 6406,
      "ĠWelsh": 6407,
      "elve": 6408,
      "ĠNob": 6409,
      "Ġtrees": 6410,
      "ĠAP": 6411,
      "ager": 6412,
      "ĠHistorical": 6413,
      "Ġcouple": 6414,
      "Ġsaying": 6415,
      "Ġcoming": 6416,
      "ĠTrade": 6417,
      "ĠQuebec": 6418,
      "Ġfair": 6419,
      "Ġconference": 6420,
      "Ġring": 6421,
      "Ġslow": 6422,
      "Ġfranch": 6423,
      "Ġadapted": 6424,
      "Ġentry": 6425,
      "Ġgrowing": 6426,
      "ĠOklahoma": 6427,
      "ieces": 6428,
      "ĠCab": 6429,
      "Ġordered": 6430,
      "Ġpun": 6431,
      "ĠOd": 6432,
      "ĠBorough": 6433,
      "Ġmig": 6434,
      "ĠDC": 6435,
      "Ġcomic": 6436,
      "SR": 6437,
      "ww": 6438,
      "1994": 6439,
      "Ġclaims": 6440,
      "ga": 6441,
      "Ġ...": 6442,
      "isf": 6443,
      "ĠBillboard": 6444,
      "Ġgirls": 6445,
      "Ġpositions": 6446,
      "gn": 6447,
      "isa": 6448,
      "ĠRhe": 6449,
      "Ġpermanent": 6450,
      "SO": 6451,
      "Ðµ": 6452,
      "ĠHarvard": 6453,
      "fall": 6454,
      "Ġserious": 6455,
      "bach": 6456,
      "Ġwear": 6457,
      "ĠDall": 6458,
      "Ġfaculty": 6459,
      "Ġoffices": 6460,
      "Ġquant": 6461,
      "Ġsettled": 6462,
      "stitutional": 6463,
      "Ġvotes": 6464,
      "dale": 6465,
      "Ġwall": 6466,
      "ĠSri": 6467,
      "ĠStew": 6468,
      "Ġcompletely": 6469,
      "hematics": 6470,
      "inburgh": 6471,
      "ĠEnvironment": 6472,
      "Ġmunicipalities": 6473,
      "ĠErn": 6474,
      "89": 6475,
      "Ġhy": 6476,
      "ĠNap": 6477,
      "ĠWing": 6478,
      "raine": 6479,
      "Ġprotection": 6480,
      "allel": 6481,
      "2014": 6482,
      "Ġrank": 6483,
      "Ġperforming": 6484,
      "ussion": 6485,
      "Ġapproved": 6486,
      "ting": 6487,
      "Ġaspect": 6488,
      "hess": 6489,
      "ĠEducational": 6490,
      "living": 6491,
      "ieval": 6492,
      "ĠDead": 6493,
      "Ġsupp": 6494,
      "isms": 6495,
      "Ġextensive": 6496,
      "Ġlyrics": 6497,
      "Ġactors": 6498,
      "ĠLog": 6499,
      "03": 6500,
      "ĠBuff": 6501,
      "ĠRhif": 6502,
      "IN": 6503,
      "Ġcert": 6504,
      "Ġreligion": 6505,
      "Ġfans": 6506,
      "ifically": 6507,
      "ĠPrincess": 6508,
      "Ġcarbon": 6509,
      "ancouver": 6510,
      "Ġsixth": 6511,
      "ĠIslamic": 6512,
      "Ġpartner": 6513,
      "ĠGlasgow": 6514,
      "ĠHur": 6515,
      "ĠFarm": 6516,
      "ĠFriend": 6517,
      "ĠReport": 6518,
      "Ġsays": 6519,
      "Ġmut": 6520,
      "olas": 6521,
      "ĠKat": 6522,
      "ĠCooper": 6523,
      "iments": 6524,
      "ĠChristopher": 6525,
      "leep": 6526,
      "ĠBible": 6527,
      "Ġeducational": 6528,
      "Ġpassenger": 6529,
      "agen": 6530,
      "anton": 6531,
      "Ġwanted": 6532,
      "83": 6533,
      "Ġvs": 6534,
      "Ġflood": 6535,
      "ĠLawrence": 6536,
      "zer": 6537,
      "Ġpolitics": 6538,
      "Ġachieved": 6539,
      "Ġanth": 6540,
      "Ġexpected": 6541,
      "ĠHell": 6542,
      "ĠKevin": 6543,
      "Ġresources": 6544,
      "Ġvalues": 6545,
      "62": 6546,
      "ĠVolume": 6547,
      "Ġnormal": 6548,
      "ĠDeb": 6549,
      "udget": 6550,
      "orf": 6551,
      "Ġoperates": 6552,
      "Ġdamage": 6553,
      "HS": 6554,
      "ĠRun": 6555,
      "ĠLiver": 6556,
      "Ġvent": 6557,
      "cycl": 6558,
      "ĠSwiss": 6559,
      "ĠMoore": 6560,
      "ĠIndependent": 6561,
      "ĠAlberta": 6562,
      "ĠGordon": 6563,
      "rete": 6564,
      "2015": 6565,
      "Ġfell": 6566,
      "Ġyards": 6567,
      "etting": 6568,
      "Ġcaptured": 6569,
      "Ġpromotion": 6570,
      "ĠTrack": 6571,
      "Ġhousing": 6572,
      "ĠBan": 6573,
      "asters": 6574,
      "pet": 6575,
      "rat": 6576,
      "Ġshared": 6577,
      "phas": 6578,
      "ourney": 6579,
      "71": 6580,
      "joy": 6581,
      "1992": 6582,
      "Ġobtained": 6583,
      "including": 6584,
      "organ": 6585,
      "ĠPur": 6586,
      "Ġclassical": 6587,
      "dis": 6588,
      "De": 6589,
      "ho": 6590,
      "Ġsteel": 6591,
      "riev": 6592,
      "Ġpilot": 6593,
      "Ġdropped": 6594,
      "stream": 6595,
      "Ġwinter": 6596,
      "ĠCrit": 6597,
      "ĠMand": 6598,
      "ĠGarden": 6599,
      "Ġhero": 6600,
      "ĠAntonio": 6601,
      "ĠPhilippines": 6602,
      "lan": 6603,
      "ippi": 6604,
      "69": 6605,
      "ĠBuck": 6606,
      "acter": 6607,
      "Ġcoal": 6608,
      "ĠSenior": 6609,
      "gency": 6610,
      "ĠEc": 6611,
      "Ġhop": 6612,
      "lem": 6613,
      "ĠVancouver": 6614,
      "iÃ³n": 6615,
      "Ġalt": 6616,
      "Ġdeploy": 6617,
      "Ġlosing": 6618,
      "Ġaged": 6619,
      "Ġpair": 6620,
      "ĠMult": 6621,
      "Ġprogramme": 6622,
      "Ġcopies": 6623,
      "ĠSin": 6624,
      "Ġlawyer": 6625,
      "ĠRussell": 6626,
      "urisd": 6627,
      "Ġsides": 6628,
      "Ġleaves": 6629,
      "ĠNatural": 6630,
      "ĠKings": 6631,
      "Ġdoub": 6632,
      "jo": 6633,
      "ĠUpper": 6634,
      "irty": 6635,
      "ĠJane": 6636,
      "rep": 6637,
      "star": 6638,
      "ĠCall": 6639,
      "ĠBou": 6640,
      "ti": 6641,
      "ĠTel": 6642,
      "Ġdraft": 6643,
      "uda": 6644,
      "Ġnovels": 6645,
      "ĠSamuel": 6646,
      "Ġcastle": 6647,
      "61": 6648,
      "ĠCow": 6649,
      "Ġaccident": 6650,
      "Ġsuggested": 6651,
      "Ġ49": 6652,
      "Ġinters": 6653,
      "ĠDom": 6654,
      "ĠPopulated": 6655,
      "igenous": 6656,
      "Comm": 6657,
      "ĠDanish": 6658,
      "miss": 6659,
      "iny": 6660,
      "ĠKam": 6661,
      "Ġ300": 6662,
      "ĠEdinburgh": 6663,
      "agues": 6664,
      "ĠBilly": 6665,
      "Ġ400": 6666,
      "1993": 6667,
      "PA": 6668,
      "Ġelim": 6669,
      "Ġbrothers": 6670,
      "ĠBry": 6671,
      "ĠEvery": 6672,
      "Ġrot": 6673,
      "Ġworldwide": 6674,
      "Ġastron": 6675,
      "apolis": 6676,
      "uv": 6677,
      "agan": 6678,
      "ĠAlumni": 6679,
      "Ġ1925": 6680,
      "West": 6681,
      "Ġoperate": 6682,
      "ĠDiocese": 6683,
      "ĠSymphony": 6684,
      "last": 6685,
      "Ġvo": 6686,
      "orders": 6687,
      "Ġending": 6688,
      "ĠMountains": 6689,
      "lines": 6690,
      "ographical": 6691,
      "Ġindependence": 6692,
      "ĠDakota": 6693,
      "ĠInn": 6694,
      "ĠKnight": 6695,
      "ĠMississ": 6696,
      "Ġinaug": 6697,
      "Ġvess": 6698,
      "Ġimpl": 6699,
      "Ġbroad": 6700,
      "Ġexam": 6701,
      "Ġinjury": 6702,
      "ĠSel": 6703,
      "Ġdrive": 6704,
      "ĠPittsburgh": 6705,
      "die": 6706,
      "ĠBase": 6707,
      "Ġearth": 6708,
      "Ġstandards": 6709,
      "Ġsquad": 6710,
      "ĠMatthew": 6711,
      "ĠGi": 6712,
      "onder": 6713,
      "ĠFac": 6714,
      "Ġnecessary": 6715,
      "Sp": 6716,
      "usal": 6717,
      "ĠKarl": 6718,
      "uses": 6719,
      "ĠStaff": 6720,
      "ymru": 6721,
      "Ġedited": 6722,
      "73": 6723,
      "Ġcategory": 6724,
      "cop": 6725,
      "Ġconvers": 6726,
      "Ġconflict": 6727,
      "mers": 6728,
      "ĠTrad": 6729,
      "Ġ1910": 6730,
      "ĠBruce": 6731,
      "Ġmorning": 6732,
      "ective": 6733,
      "Ġenvironmental": 6734,
      "ui": 6735,
      "Ġtechnical": 6736,
      "igation": 6737,
      "Ġroyal": 6738,
      "Ġwriters": 6739,
      "ĠLiverpool": 6740,
      "angel": 6741,
      "Ġscoring": 6742,
      "Ġpaid": 6743,
      "uccess": 6744,
      "Ġoccurs": 6745,
      "ĠSquare": 6746,
      "ante": 6747,
      "Ġscript": 6748,
      "inch": 6749,
      "ĠAqu": 6750,
      "Ġcaptain": 6751,
      "ega": 6752,
      "ĠAmericans": 6753,
      "prise": 6754,
      "owntown": 6755,
      "eland": 6756,
      "ĠFund": 6757,
      "otic": 6758,
      "ĠFal": 6759,
      "ĠNord": 6760,
      "ĠAle": 6761,
      "ĠABC": 6762,
      "adow": 6763,
      "ĠConstitution": 6764,
      "ĠLor": 6765,
      "ĠHeritage": 6766,
      "Ġapplications": 6767,
      "ques": 6768,
      "ni": 6769,
      "ĠRose": 6770,
      "ĠNep": 6771,
      "Ġ1915": 6772,
      "Ġkept": 6773,
      "ĠAfghanistan": 6774,
      "ĠGw": 6775,
      "DA": 6776,
      "Ġbra": 6777,
      "ĠIl": 6778,
      "Ġbow": 6779,
      "thm": 6780,
      "Ġrenov": 6781,
      "ĠPolitical": 6782,
      "isters": 6783,
      "Ġmaximum": 6784,
      "Ġchain": 6785,
      "enny": 6786,
      "ĠCrown": 6787,
      "iti": 6788,
      "ĠAli": 6789,
      "ĠStudios": 6790,
      "rations": 6791,
      "inted": 6792,
      "olly": 6793,
      "ĠAnne": 6794,
      "Ġ1908": 6795,
      "ĠFisher": 6796,
      "Ġsubsequent": 6797,
      "ÃŁ": 6798,
      "ĠCommander": 6799,
      "unnel": 6800,
      "93": 6801,
      "ocks": 6802,
      "Ġtwenty": 6803,
      "ĠLeb": 6804,
      "ĠNorman": 6805,
      "Ġanimated": 6806,
      "04": 6807,
      "US": 6808,
      "pur": 6809,
      "ĠTig": 6810,
      "ache": 6811,
      "ĠMayor": 6812,
      "63": 6813,
      "Ġthings": 6814,
      "antasy": 6815,
      "Ġadvanced": 6816,
      "idge": 6817,
      "ĠGor": 6818,
      "Ġcommittee": 6819,
      "ĠGlobal": 6820,
      "ĠPortugal": 6821,
      "Ġfeel": 6822,
      "ĠSupport": 6823,
      "regon": 6824,
      "ĠCollection": 6825,
      "kh": 6826,
      "ĠÃī": 6827,
      "ĠRa": 6828,
      "ĠLieutenant": 6829,
      "Ġcompl": 6830,
      "gal": 6831,
      "ĠFellows": 6832,
      "ahn": 6833,
      "lov": 6834,
      "oustic": 6835,
      "ordan": 6836,
      "pir": 6837,
      "Ġbul": 6838,
      "ĠNa": 6839,
      "ĠBernard": 6840,
      "cluded": 6841,
      "Ġofficials": 6842,
      "achelor": 6843,
      "can": 6844,
      "million": 6845,
      "ĠAbout": 6846,
      "ĠLanc": 6847,
      "ĠJohann": 6848,
      "Ġhorse": 6849,
      "ĠConvention": 6850,
      "Ġsurvey": 6851,
      "Ġhabit": 6852,
      "iders": 6853,
      "Ġvisit": 6854,
      "Ġsurn": 6855,
      "Ġincorporated": 6856,
      "bridge": 6857,
      "orough": 6858,
      "Ġends": 6859,
      "ĠMetropolitan": 6860,
      "Ġconsisted": 6861,
      "ĠOm": 6862,
      "Ġadult": 6863,
      "Ġadjacent": 6864,
      "yst": 6865,
      "Ġbit": 6866,
      "Ġrough": 6867,
      "ĠApple": 6868,
      "eton": 6869,
      "rama": 6870,
      "Ġsolid": 6871,
      "lets": 6872,
      "ĠEver": 6873,
      "cha": 6874,
      "imore": 6875,
      "ĠYouth": 6876,
      "Ġtouch": 6877,
      "ĠBrothers": 6878,
      "ĠGab": 6879,
      "ĠIron": 6880,
      "ĠWorks": 6881,
      "ĠBarry": 6882,
      "ĠHere": 6883,
      "ĠWy": 6884,
      "emble": 6885,
      "Ġequivalent": 6886,
      "Ġple": 6887,
      "Ġneeds": 6888,
      "IS": 6889,
      "Ġwing": 6890,
      "ĠNeb": 6891,
      "2016": 6892,
      "Ġsymbol": 6893,
      "à¸": 6894,
      "Ġplanning": 6895,
      "Ġstrugg": 6896,
      "iva": 6897,
      "iamond": 6898,
      "ĠFa": 6899,
      "Ġweapons": 6900,
      "ES": 6901,
      "Ġcourses": 6902,
      "Ġsetting": 6903,
      "ĠSeat": 6904,
      "ĪĴ": 6905,
      "ĠIowa": 6906,
      "02": 6907,
      "Ġyellow": 6908,
      "Con": 6909,
      "Ġhands": 6910,
      "ĠExecutive": 6911,
      "ĠBrigade": 6912,
      "ĠNote": 6913,
      "Ġrisk": 6914,
      "ĠPeace": 6915,
      "rome": 6916,
      "Ġ64": 6917,
      "Ġtemple": 6918,
      "vey": 6919,
      "Ġ1912": 6920,
      "Ġgoes": 6921,
      "Ġpainter": 6922,
      "Ġrepresenting": 6923,
      "ĠHollywood": 6924,
      "aux": 6925,
      "ĠLyn": 6926,
      "osm": 6927,
      "issance": 6928,
      "ĠMotor": 6929,
      "Ġiron": 6930,
      "Ġconsisting": 6931,
      "ecution": 6932,
      "ĠMcK": 6933,
      "Ġcreating": 6934,
      "Ġextension": 6935,
      "ĠSpeed": 6936,
      "net": 6937,
      "ologies": 6938,
      "oa": 6939,
      "ĠAlfred": 6940,
      "hard": 6941,
      "inces": 6942,
      "ĠFact": 6943,
      "Ġscholar": 6944,
      "Ġfeet": 6945,
      "pan": 6946,
      "ĠBeg": 6947,
      "owned": 6948,
      "ET": 6949,
      "ĠJay": 6950,
      "ĠArchitect": 6951,
      "Ġsuggest": 6952,
      "oyd": 6953,
      "ĠFA": 6954,
      "Ġbeaut": 6955,
      "Ġfinish": 6956,
      "Ġguitarist": 6957,
      "ĠHouston": 6958,
      "ĠImperial": 6959,
      "Ġvictim": 6960,
      "ĠBrazilian": 6961,
      "uration": 6962,
      "ĠDean": 6963,
      "Is": 6964,
      "stand": 6965,
      "igious": 6966,
      "Ġcontributed": 6967,
      "94": 6968,
      "Ġoccupied": 6969,
      "82": 6970,
      "ĠDJ": 6971,
      "Ġvice": 6972,
      "Ġacts": 6973,
      "ĠAlexand": 6974,
      "ĠOperation": 6975,
      "Ġfighting": 6976,
      "Ġfuel": 6977,
      "ĠScient": 6978,
      "1991": 6979,
      "ĠArgentina": 6980,
      "obe": 6981,
      "1980": 6982,
      "Ġadvance": 6983,
      "ĠAmendment": 6984,
      "Ġliber": 6985,
      "ĠEmperor": 6986,
      "ĠOregon": 6987,
      "Ġequal": 6988,
      "jan": 6989,
      "Ġdiplom": 6990,
      "ĠIan": 6991,
      "ĠLate": 6992,
      "ĠShah": 6993,
      "uerto": 6994,
      "east": 6995,
      "ĠClin": 6996,
      "iami": 6997,
      "Ġcontrast": 6998,
      "cussion": 6999,
      "ĠMission": 7000,
      "oslav": 7001,
      "Ġeffort": 7002,
      "Ġuniversities": 7003,
      "Ġchalleng": 7004,
      "ĠCook": 7005,
      "chell": 7006,
      "ĠMississippi": 7007,
      "Ġpione": 7008,
      "Ġimpr": 7009,
      "Ġdomestic": 7010,
      "Ġpowers": 7011,
      "ĠNaval": 7012,
      "ĠDallas": 7013,
      "wich": 7014,
      "ĠPun": 7015,
      "Ġinternal": 7016,
      "Ġstraight": 7017,
      "91": 7018,
      "Ġcricketer": 7019,
      "ĠMargaret": 7020,
      "Ġcommander": 7021,
      "Ġfootballers": 7022,
      "Ġjunior": 7023,
      "odox": 7024,
      "ipe": 7025,
      "Ġprepar": 7026,
      "Ġarrested": 7027,
      "ĠBush": 7028,
      "Ġpriest": 7029,
      "It": 7030,
      "ĠDal": 7031,
      "ista": 7032,
      "spec": 7033,
      "ĠAuthority": 7034,
      "orus": 7035,
      "Ġsense": 7036,
      "ĠHug": 7037,
      "ĠHunt": 7038,
      "Ġflu": 7039,
      "Ġelectronic": 7040,
      "Ġpremier": 7041,
      "cht": 7042,
      "Ġchurches": 7043,
      "ĠStewart": 7044,
      "Ġbey": 7045,
      "Ġconfirmed": 7046,
      "esign": 7047,
      "sterdam": 7048,
      "PC": 7049,
      "Ġactions": 7050,
      "Ġnarrow": 7051,
      "ĠPap": 7052,
      "Ġjazz": 7053,
      "ĠJuan": 7054,
      "ĠNik": 7055,
      "Ġformal": 7056,
      "ĠPlayers": 7057,
      "Ð½": 7058,
      "Ġham": 7059,
      "season": 7060,
      "Ġjurisd": 7061,
      "Ġanimal": 7062,
      "Ġagricultural": 7063,
      "Ġnickn": 7064,
      "81": 7065,
      "ĠMedalists": 7066,
      "ternal": 7067,
      "Ġaudience": 7068,
      "Ġbeyond": 7069,
      "Ġconsult": 7070,
      "IV": 7071,
      "ĠDance": 7072,
      "ĠFinn": 7073,
      "Ġgeneration": 7074,
      "ĠMrs": 7075,
      "ski": 7076,
      "ĠLin": 7077,
      "Ġcontained": 7078,
      "ĠBed": 7079,
      "ĠRan": 7080,
      "song": 7081,
      "ĨĴ": 7082,
      "Ġchampions": 7083,
      "chers": 7084,
      "Ġdecades": 7085,
      "Ġsupporting": 7086,
      "Ġalleged": 7087,
      "Ġmetres": 7088,
      "ĠBomb": 7089,
      "ĠDa": 7090,
      "ception": 7091,
      "ĠDisney": 7092,
      "84": 7093,
      "General": 7094,
      "iful": 7095,
      "long": 7096,
      "Ġgrade": 7097,
      "Ġmom": 7098,
      "ĠFull": 7099,
      "ello": 7100,
      "Ġdescribes": 7101,
      "Ġlocomot": 7102,
      "ĠAgain": 7103,
      "equ": 7104,
      "Ġpiece": 7105,
      "ĠSax": 7106,
      "ĠAdministration": 7107,
      "hire": 7108,
      "Ġcho": 7109,
      "Ġintroduction": 7110,
      "ĠHotel": 7111,
      "ĠPC": 7112,
      "Ġpros": 7113,
      "Ġsale": 7114,
      "ĠNative": 7115,
      "rac": 7116,
      "'m": 7117,
      "night": 7118,
      "Ġlat": 7119,
      "ĠBart": 7120,
      "ĠJosÃ©": 7121,
      "Ġinstall": 7122,
      "Ġearliest": 7123,
      "Ġ75": 7124,
      "ĠTele": 7125,
      "ĠFranklin": 7126,
      "Ġdegrees": 7127,
      "lad": 7128,
      "ĠCour": 7129,
      "Ġamb": 7130,
      "Ġmaintained": 7131,
      "Ġglass": 7132,
      "Ġ1916": 7133,
      "ĠNash": 7134,
      "ĠGary": 7135,
      "Ġvisited": 7136,
      "ĠArabic": 7137,
      "ĠSaf": 7138,
      "ĠKu": 7139,
      "ĠBlues": 7140,
      "Ġopposed": 7141,
      "eler": 7142,
      "ĠRow": 7143,
      "Ġreturning": 7144,
      "ĠPas": 7145,
      "ĠRick": 7146,
      "point": 7147,
      "ĠFive": 7148,
      "ugar": 7149,
      "Ġbands": 7150,
      "ĠPlayer": 7151,
      "othing": 7152,
      "risis": 7153,
      "ishers": 7154,
      "Ġsubsid": 7155,
      "Man": 7156,
      "Ġmatter": 7157,
      "Ġkilling": 7158,
      "atabase": 7159,
      "Ġburn": 7160,
      "ctic": 7161,
      "Ġdecre": 7162,
      "ĠRyan": 7163,
      "Ġproceed": 7164,
      "ĠZh": 7165,
      "Ġdevice": 7166,
      "Ġtrust": 7167,
      "Ġhousehold": 7168,
      "LC": 7169,
      "ĠLaure": 7170,
      "Ġattempts": 7171,
      "set": 7172,
      "Ġboys": 7173,
      "Ġstorage": 7174,
      "Ġapparent": 7175,
      "Ġ42": 7176,
      "Ġphase": 7177,
      "keep": 7178,
      "Mar": 7179,
      "Ġax": 7180,
      "Ġlit": 7181,
      "ielder": 7182,
      "ĠFil": 7183,
      "Ġlect": 7184,
      "eget": 7185,
      "borough": 7186,
      "Ġban": 7187,
      "Ġvac": 7188,
      "ĠVers": 7189,
      "ĠVice": 7190,
      "ĠAndre": 7191,
      "Ġlimit": 7192,
      "inema": 7193,
      "Ġpup": 7194,
      "rett": 7195,
      "ĠExpress": 7196,
      "ĠBaltimore": 7197,
      "ĠWright": 7198,
      "ĠTar": 7199,
      "Ġ1911": 7200,
      "illing": 7201,
      "2017": 7202,
      "ĠUpon": 7203,
      "bishop": 7204,
      "Ġemphas": 7205,
      "ĠPuerto": 7206,
      "ĠLov": 7207,
      "ĠBox": 7208,
      "ĠAustrian": 7209,
      "Ġclosely": 7210,
      "awn": 7211,
      "2018": 7212,
      "mingham": 7213,
      "log": 7214,
      "nold": 7215,
      "ĠMans": 7216,
      "ĠFurther": 7217,
      "Ġcore": 7218,
      "Ġpasses": 7219,
      "iw": 7220,
      "ĠGran": 7221,
      "raf": 7222,
      "Ġvolunte": 7223,
      "hr": 7224,
      "ĠAngl": 7225,
      "ĠRound": 7226,
      "ĠMarket": 7227,
      "Ġways": 7228,
      "ĠCru": 7229,
      "ĠGrant": 7230,
      "Ġcalls": 7231,
      "Ġexistence": 7232,
      "Ġcriminal": 7233,
      "Ġemig": 7234,
      "Ġrepresentative": 7235,
      "orig": 7236,
      "1989": 7237,
      "Ġbusinessman": 7238,
      "Ã¥": 7239,
      "Ġrom": 7240,
      "Ġspeech": 7241,
      "Ġshortly": 7242,
      "ĠMontreal": 7243,
      "Ġrebu": 7244,
      "Ġheight": 7245,
      "Ġcorpor": 7246,
      "Ġconnection": 7247,
      "Ġwine": 7248,
      "Ġsand": 7249,
      "Ġspot": 7250,
      "Ġcompetitions": 7251,
      "aling": 7252,
      "ĠLower": 7253,
      "ĠCurrent": 7254,
      "ĠAR": 7255,
      "structure": 7256,
      "ĠBris": 7257,
      "eway": 7258,
      "Ġshowed": 7259,
      "Ġcommissioned": 7260,
      "rix": 7261,
      "Ġreflect": 7262,
      "Ġpowerful": 7263,
      "ĠChem": 7264,
      "iah": 7265,
      "Ġencoura": 7266,
      "Ġsections": 7267,
      "sea": 7268,
      "anger": 7269,
      "opping": 7270,
      "Ġmicro": 7271,
      "ĠMiami": 7272,
      "ĠEnt": 7273,
      "ĠOur": 7274,
      "ĠTraining": 7275,
      "uing": 7276,
      "ĠRot": 7277,
      "ĠVic": 7278,
      "Ġsan": 7279,
      "Ġextrem": 7280,
      "Ġtried": 7281,
      "Ġdetermined": 7282,
      "Ġhired": 7283,
      "ĠHom": 7284,
      "ĠEven": 7285,
      "rik": 7286,
      "Ġmeant": 7287,
      "Ġslightly": 7288,
      "Ġrival": 7289,
      "Ġfashion": 7290,
      "Ġbodies": 7291,
      "Ġnob": 7292,
      "ĠAustin": 7293,
      "Ġrecognition": 7294,
      "DF": 7295,
      "Ġinstalled": 7296,
      "ĠContin": 7297,
      "ĠJordan": 7298,
      "Ġgraduate": 7299,
      "Ġreaction": 7300,
      "1987": 7301,
      "Ġobjects": 7302,
      "ĠTan": 7303,
      "ĠHend": 7304,
      "osite": 7305,
      "ĠDonald": 7306,
      "ĠCultural": 7307,
      "ĠDefense": 7308,
      "ĠThompson": 7309,
      "Ġ1913": 7310,
      "Ġplayoff": 7311,
      "ĠRecip": 7312,
      "ĠMetro": 7313,
      "Ġsynthes": 7314,
      "ĠSte": 7315,
      "idden": 7316,
      "ĠTurk": 7317,
      "Ġceremony": 7318,
      "Ġfranchise": 7319,
      "Cymru": 7320,
      "Ġprefer": 7321,
      "Ġ1890": 7322,
      "oyal": 7323,
      "Ġconsecutive": 7324,
      "father": 7325,
      "ÑĢ": 7326,
      "Ġfought": 7327,
      "Ġpolic": 7328,
      "ĠEnergy": 7329,
      "ĠWayne": 7330,
      "ĠControl": 7331,
      "ĠDenmark": 7332,
      "Ġwaters": 7333,
      "thodox": 7334,
      "Ġexamples": 7335,
      "ĠBirmingham": 7336,
      "fort": 7337,
      "gers": 7338,
      "Ġcompilation": 7339,
      "Ġupd": 7340,
      "Ġpurposes": 7341,
      "elson": 7342,
      "irt": 7343,
      "ĠWhe": 7344,
      "ifer": 7345,
      "Ġopposition": 7346,
      "Ġcatal": 7347,
      "Ġreasons": 7348,
      "uncredited": 7349,
      "icide": 7350,
      "Ġdistributed": 7351,
      "Ġstrength": 7352,
      "Ġdeveloping": 7353,
      "ãĥ": 7354,
      "term": 7355,
      "ĠCommunications": 7356,
      "Ġroads": 7357,
      "Ġenjoy": 7358,
      "Ġmedals": 7359,
      "ĠMalaysia": 7360,
      "run": 7361,
      "Ġdates": 7362,
      "ĠFather": 7363,
      "Ġ44": 7364,
      "ĠCentury": 7365,
      "Ġguard": 7366,
      "Ġstands": 7367,
      "Ġstarred": 7368,
      "ĠApoll": 7369,
      "Ġille": 7370,
      "ĠFu": 7371,
      "Ġonto": 7372,
      "Ġ48": 7373,
      "yard": 7374,
      "ĠPed": 7375,
      "etime": 7376,
      "Ġgall": 7377,
      "Ġwrite": 7378,
      "ĠAgric": 7379,
      "Ġdynasty": 7380,
      "Ġrise": 7381,
      "rons": 7382,
      "ĠNBA": 7383,
      "related": 7384,
      "Ġbirds": 7385,
      "Ġtechniques": 7386,
      "urday": 7387,
      "Ġidentity": 7388,
      "Ġemployees": 7389,
      "adau": 7390,
      "essions": 7391,
      "Ġresigned": 7392,
      "Ġdepend": 7393,
      "ĠAtlanta": 7394,
      "bane": 7395,
      "ĠAren": 7396,
      "Ġmolec": 7397,
      "Ġlot": 7398,
      "ĠSign": 7399,
      "Ġdivers": 7400,
      "ĠMond": 7401,
      "ĠLanguage": 7402,
      "ĠGener": 7403,
      "ultan": 7404,
      "Ġdefense": 7405,
      "ĠAssoci": 7406,
      "Ġfocused": 7407,
      "rm": 7408,
      "ampton": 7409,
      "Ġsituation": 7410,
      "Ġcauses": 7411,
      "pa": 7412,
      "Ġreact": 7413,
      "Ġreject": 7414,
      "Ġreceiving": 7415,
      "Ġheavily": 7416,
      "unction": 7417,
      "Ġancest": 7418,
      "Ġshape": 7419,
      "Ġshall": 7420,
      "ĠBlood": 7421,
      "Ġsequence": 7422,
      "chant": 7423,
      "ĠRest": 7424,
      "ĠVar": 7425,
      "Ġpartnership": 7426,
      "Ġpron": 7427,
      "ĠJess": 7428,
      "ĠJohnny": 7429,
      "Ġreduce": 7430,
      "ĠLost": 7431,
      "rowd": 7432,
      "Ġliterary": 7433,
      "itionally": 7434,
      "ĠHous": 7435,
      "ĠBelgium": 7436,
      "iner": 7437,
      "contin": 7438,
      "otte": 7439,
      "Ġpassengers": 7440,
      "Ġdensity": 7441,
      "Ġregarded": 7442,
      "cyclop": 7443,
      "Ġcas": 7444,
      "level": 7445,
      "Ġparks": 7446,
      "III": 7447,
      "Ġmis": 7448,
      "ĠRap": 7449,
      "Ġscale": 7450,
      "astery": 7451,
      "ĠRef": 7452,
      "ĠEss": 7453,
      "umin": 7454,
      "ĠâĢĺ": 7455,
      "Ġavoid": 7456,
      "Ġfailure": 7457,
      "Ġda": 7458,
      "ĠHorn": 7459,
      "ĠReserve": 7460,
      "ĠLimited": 7461,
      "ĠCarib": 7462,
      "Ġhill": 7463,
      "Ġabandoned": 7464,
      "Ġtennis": 7465,
      "istant": 7466,
      "Ġlands": 7467,
      "ĠMurray": 7468,
      "Ġregarding": 7469,
      "Ġhits": 7470,
      "Ġbroke": 7471,
      "Ġresear": 7472,
      "Ġbenef": 7473,
      "usalem": 7474,
      "box": 7475,
      "odge": 7476,
      "ĠExt": 7477,
      "Ġbriefly": 7478,
      "Ġselect": 7479,
      "Ġnotably": 7480,
      "Ġcredited": 7481,
      "ĠCEO": 7482,
      "Ġpieces": 7483,
      "ĠThough": 7484,
      "keley": 7485,
      "enberg": 7486,
      "ĠNag": 7487,
      "ensis": 7488,
      "Ġinvolving": 7489,
      "RO": 7490,
      "Ġfram": 7491,
      "ĠFried": 7492,
      "ĠPlant": 7493,
      "Ġincident": 7494,
      "Ã¡s": 7495,
      "anian": 7496,
      "ĠRain": 7497,
      "Ġretail": 7498,
      "ĠCompet": 7499,
      "ĠRailroad": 7500,
      "ĠOfficer": 7501,
      "ĠBroadcasting": 7502,
      "ĠPra": 7503,
      "Ġhosts": 7504,
      "ĠMaur": 7505,
      "Ġvary": 7506,
      "Ġproced": 7507,
      "ĠCapital": 7508,
      "ĠTownship": 7509,
      "Ġtend": 7510,
      "entially": 7511,
      "racy": 7512,
      "Ġstring": 7513,
      "ĠOrd": 7514,
      "Ġnewspapers": 7515,
      "Ġmand": 7516,
      "ĠDigital": 7517,
      "Ġheard": 7518,
      "ĠKelly": 7519,
      "GB": 7520,
      "ĠHop": 7521,
      "uster": 7522,
      "ĠAdela": 7523,
      "Ġpromote": 7524,
      "Ġdisestablished": 7525,
      "scape": 7526,
      "Ġsust": 7527,
      "Ġexact": 7528,
      "ohn": 7529,
      "Ġanniversary": 7530,
      "ĠKit": 7531,
      "Ġparallel": 7532,
      "ping": 7533,
      "ĠCher": 7534,
      "ithm": 7535,
      "ĠOri": 7536,
      "Ġadvent": 7537,
      "ĠOpera": 7538,
      "Ġobserved": 7539,
      "Ġbusinesses": 7540,
      "low": 7541,
      "Ġspecifically": 7542,
      "Ġcollected": 7543,
      "ĠOnline": 7544,
      "GA": 7545,
      "He": 7546,
      "Ġcru": 7547,
      "ĠRobinson": 7548,
      "ĠWalker": 7549,
      "Ġsurname": 7550,
      "NT": 7551,
      "Ġbran": 7552,
      "aughters": 7553,
      "ĠWindows": 7554,
      "ĠTot": 7555,
      "ĠCulture": 7556,
      "ĠNiger": 7557,
      "ĠChang": 7558,
      "ommod": 7559,
      "ĠOw": 7560,
      "Ġholding": 7561,
      "ranged": 7562,
      "ailand": 7563,
      "Ġsomething": 7564,
      "Ġ41": 7565,
      "ĠKennedy": 7566,
      "chi": 7567,
      "ĠFalls": 7568,
      "ĠCampbell": 7569,
      "á¹": 7570,
      "iler": 7571,
      "Ġrivers": 7572,
      "ĠCarn": 7573,
      "1988": 7574,
      "Ġinfluenced": 7575,
      "Ġkingdom": 7576,
      "DP": 7577,
      "Ġsoci": 7578,
      "ellite": 7579,
      "ĠDefunct": 7580,
      "Ġfer": 7581,
      "amic": 7582,
      "We": 7583,
      "ĠGill": 7584,
      "ĠAgency": 7585,
      "ĠTit": 7586,
      "leton": 7587,
      "ĠKy": 7588,
      "ĠOnce": 7589,
      "Ġimages": 7590,
      "ĠRand": 7591,
      "ĠFern": 7592,
      "Ġappoint": 7593,
      "Ġswimming": 7594,
      "ĠUE": 7595,
      "aved": 7596,
      "Ġselection": 7597,
      "Ġhotel": 7598,
      "ĠBrew": 7599,
      "oria": 7600,
      "ĠCensus": 7601,
      "ĠGulf": 7602,
      "ducing": 7603,
      "insula": 7604,
      "Ġentrance": 7605,
      "Ġphilosophy": 7606,
      "Ġped": 7607,
      "Ġpercussion": 7608,
      "Ġsettle": 7609,
      "Ġattempted": 7610,
      "ĠAndy": 7611,
      "Ġestablishment": 7612,
      "ĠOrganization": 7613,
      "ĠBron": 7614,
      "Ġclassic": 7615,
      "Ġoccas": 7616,
      "ĠGraham": 7617,
      "ĠStandard": 7618,
      "ifications": 7619,
      "ĠEdition": 7620,
      "ĠPalace": 7621,
      "Ġinstruments": 7622,
      "ĠComb": 7623,
      "Ġcompete": 7624,
      "Ġmyth": 7625,
      "Ġadaptation": 7626,
      "ĠCatal": 7627,
      "aza": 7628,
      "Ġdesigner": 7629,
      "Ġmusicians": 7630,
      "ĠAcademic": 7631,
      "ictionary": 7632,
      "profit": 7633,
      "ĠBrist": 7634,
      "Ġ().": 7635,
      "ĠJose": 7636,
      "tered": 7637,
      "ĠIns": 7638,
      "Ġcopy": 7639,
      "uma": 7640,
      "Ġoutput": 7641,
      "stead": 7642,
      "Ġdig": 7643,
      "ĠAmaz": 7644,
      "ĠJerry": 7645,
      "hetic": 7646,
      "ĠMind": 7647,
      "ige": 7648,
      "Ġrow": 7649,
      "icks": 7650,
      "Ġcombination": 7651,
      "Ġentirely": 7652,
      "orial": 7653,
      "Ġgreatest": 7654,
      "Ġspoken": 7655,
      "atures": 7656,
      "bean": 7657,
      "ĠOriginally": 7658,
      "itic": 7659,
      "Ġresidence": 7660,
      "ographs": 7661,
      "ĠMitchell": 7662,
      "Ġtank": 7663,
      "ĠYug": 7664,
      "ĠJerusalem": 7665,
      "ĠAdelaide": 7666,
      "Ġheat": 7667,
      "Ġdoctor": 7668,
      "Ġscheduled": 7669,
      "ĠBroadway": 7670,
      "Ġtells": 7671,
      "ĠFreedom": 7672,
      "Ġfrequency": 7673,
      "Ġproducing": 7674,
      "87": 7675,
      "resents": 7676,
      "rene": 7677,
      "Ġexped": 7678,
      "ĠMedicine": 7679,
      "ĠPrimary": 7680,
      "Ġtack": 7681,
      "ĠVerm": 7682,
      "Ġfunds": 7683,
      "ĠJimmy": 7684,
      "Ġvenue": 7685,
      "boy": 7686,
      "ambig": 7687,
      "ĠWard": 7688,
      "ĠUnt": 7689,
      "Ġbegin": 7690,
      "ĠBenj": 7691,
      "ĠSeven": 7692,
      "Ġconstituency": 7693,
      "Ġpassing": 7694,
      "come": 7695,
      "Ġpossibly": 7696,
      "ĠSaturday": 7697,
      "Ġhumans": 7698,
      "Ġsail": 7699,
      "Ġfaith": 7700,
      "uru": 7701,
      "ivated": 7702,
      "ĠChampion": 7703,
      "Ġcourts": 7704,
      "ĠRey": 7705,
      "Ġ150": 7706,
      "ĠTrophy": 7707,
      "Ä«": 7708,
      "Ġanime": 7709,
      "ogether": 7710,
      "Ph": 7711,
      "ĠThen": 7712,
      "Ġ65": 7713,
      "Ġcoverage": 7714,
      "Ġzone": 7715,
      "Ġfunding": 7716,
      "Ġment": 7717,
      "ĠLan": 7718,
      "ĠLank": 7719,
      "ĠEqu": 7720,
      "Ġcarry": 7721,
      "Ñģ": 7722,
      "Ġmind": 7723,
      "ĠVienn": 7724,
      "Ġresistance": 7725,
      "2019": 7726,
      "Ġneighbour": 7727,
      "Ġexhibition": 7728,
      "after": 7729,
      "ĠHig": 7730,
      "Ġinfra": 7731,
      "fish": 7732,
      "Ġprice": 7733,
      "ĠBapt": 7734,
      "ĠDoc": 7735,
      "ĠVinc": 7736,
      "Ġvisual": 7737,
      "raska": 7738,
      "Ġinvestigation": 7739,
      "lades": 7740,
      "Ġyour": 7741,
      "ĠFIFA": 7742,
      "Ġliqu": 7743,
      "ĠSud": 7744,
      "ĠLarry": 7745,
      "agg": 7746,
      "Ġconce": 7747,
      "ĠDaily": 7748,
      "iki": 7749,
      "Ġtypical": 7750,
      "Ġpoetry": 7751,
      "Ġfishing": 7752,
      "Ġ39": 7753,
      "ĠHolland": 7754,
      "Ġcorner": 7755,
      "ĠPay": 7756,
      "Ġorchestra": 7757,
      "ĠPhot": 7758,
      "Ġpainting": 7759,
      "wall": 7760,
      "roke": 7761,
      "Ġconvent": 7762,
      "ser": 7763,
      "ĠGa": 7764,
      "Ġconsequ": 7765,
      "ĠConservation": 7766,
      "Ġaudio": 7767,
      "Ġbelief": 7768,
      "Ġexpressed": 7769,
      "Ġmobile": 7770,
      "ĠMix": 7771,
      "Ġchoice": 7772,
      "ĠRichmond": 7773,
      "Ġvoted": 7774,
      "Ġemp": 7775,
      "osure": 7776,
      "annels": 7777,
      "Ġinterpret": 7778,
      "ĠTaiwan": 7779,
      "icit": 7780,
      "Ġedge": 7781,
      "ogle": 7782,
      "Ġuser": 7783,
      "Ġagency": 7784,
      "po": 7785,
      "ĠMap": 7786,
      "Ġreign": 7787,
      "Ġactual": 7788,
      "Ġnorthwest": 7789,
      "ĠVictorian": 7790,
      "Ġcandidates": 7791,
      "ĠChen": 7792,
      "Ġfinishing": 7793,
      "commun": 7794,
      "Ġ1906": 7795,
      "olph": 7796,
      "Ġcycle": 7797,
      "ĠPear": 7798,
      "ĠRace": 7799,
      "haps": 7800,
      "elli": 7801,
      "Ġtwelve": 7802,
      "formerly": 7803,
      "bal": 7804,
      "ĠSA": 7805,
      "ĠAy": 7806,
      "Ġflat": 7807,
      "rops": 7808,
      "Ġarchae": 7809,
      "ĠIsraeli": 7810,
      "ĠCosta": 7811,
      "eas": 7812,
      "friend": 7813,
      "icts": 7814,
      "Ġprofession": 7815,
      "Ġbudget": 7816,
      "ĠEmer": 7817,
      "ardo": 7818,
      "Ġfoundation": 7819,
      "Ġweekly": 7820,
      "ĠThailand": 7821,
      "Ġrepresents": 7822,
      "Ġcritics": 7823,
      "ureau": 7824,
      "Ġrequest": 7825,
      "Ġreading": 7826,
      "ishops": 7827,
      "1970": 7828,
      "ĠSingh": 7829,
      "Ġtheater": 7830,
      "released": 7831,
      "ĠStars": 7832,
      "ĠMorgan": 7833,
      "ĠKa": 7834,
      "Ġfactory": 7835,
      "Ġdecor": 7836,
      "Ġinvasion": 7837,
      "ĠEconomic": 7838,
      "ĠChall": 7839,
      "Ġreserve": 7840,
      "Ġsynd": 7841,
      "ĠVillage": 7842,
      "?\"": 7843,
      "ED": 7844,
      "ĠJason": 7845,
      "ucks": 7846,
      "Ġsoundtrack": 7847,
      "MP": 7848,
      "then": 7849,
      "apes": 7850,
      "Ġexerc": 7851,
      "Ġpreserv": 7852,
      "Ġdocuments": 7853,
      "Ġpersons": 7854,
      "ĠTamil": 7855,
      "ĠCompanies": 7856,
      "ĠBerkeley": 7857,
      "ĠPA": 7858,
      "Ġgrounds": 7859,
      "WA": 7860,
      "ĠRoc": 7861,
      "ĠLP": 7862,
      "Ġincome": 7863,
      "ĠBanglades": 7864,
      "ĠWa": 7865,
      "enez": 7866,
      "Ġ1903": 7867,
      "Ġclin": 7868,
      "Ġwealth": 7869,
      "Ġdevices": 7870,
      "ĠGon": 7871,
      "ĠSection": 7872,
      "Ġchampionships": 7873,
      "fe": 7874,
      "iac": 7875,
      "ĠChart": 7876,
      "Ġusers": 7877,
      "Ġcoordin": 7878,
      "ĠBright": 7879,
      "ĠRecipients": 7880,
      "Ġapart": 7881,
      "uri": 7882,
      "ĠBuffalo": 7883,
      "Ġtick": 7884,
      "Ġweather": 7885,
      "Ġbond": 7886,
      "Ġdry": 7887,
      "ĠWol": 7888,
      "ĠConn": 7889,
      "Ġaccommod": 7890,
      "TO": 7891,
      "uki": 7892,
      "Ġlegend": 7893,
      "Ġfresh": 7894,
      "ĠNova": 7895,
      "Ġpoem": 7896,
      "Ġactivist": 7897,
      "ĠNazi": 7898,
      "lock": 7899,
      "Ġsession": 7900,
      "ĠChel": 7901,
      "ugu": 7902,
      "Ġsurg": 7903,
      "Ġtrav": 7904,
      "atherine": 7905,
      "Ġruled": 7906,
      "Ġpool": 7907,
      "Ġclassified": 7908,
      "Ġmembership": 7909,
      "ĠBrooklyn": 7910,
      "Ġhappen": 7911,
      "vements": 7912,
      "oming": 7913,
      "anny": 7914,
      "ĠAmsterdam": 7915,
      "Ġunable": 7916,
      "utation": 7917,
      "osal": 7918,
      "tenance": 7919,
      "ĠHeb": 7920,
      "Ġroutes": 7921,
      "fully": 7922,
      "ĠElectric": 7923,
      "align": 7924,
      "Ġmotion": 7925,
      "England": 7926,
      "Ġaid": 7927,
      "ĠPack": 7928,
      "ĠTheater": 7929,
      "ĠWoman": 7930,
      "estyle": 7931,
      "ĠThus": 7932,
      "Ġappeal": 7933,
      "Ġcolonial": 7934,
      "Ġultimately": 7935,
      "asm": 7936,
      "Ġreality": 7937,
      "ĠMichel": 7938,
      "power": 7939,
      "ĠGray": 7940,
      "Ġitems": 7941,
      "Ġsentenced": 7942,
      "ĠSarah": 7943,
      "ĠJazz": 7944,
      "antage": 7945,
      "Ġpatients": 7946,
      "Ġsuccessfully": 7947,
      "Ġere": 7948,
      "ĠMother": 7949,
      "eless": 7950,
      "ĠRangers": 7951,
      "ĠNebraska": 7952,
      "aby": 7953,
      "Ġprime": 7954,
      "Ġloan": 7955,
      "uthors": 7956,
      "Ġfactors": 7957,
      "ĠConservative": 7958,
      "Ġimprove": 7959,
      "Ġcomponents": 7960,
      "SU": 7961,
      "ĠPast": 7962,
      "iday": 7963,
      "Ġ1905": 7964,
      "Ġimportance": 7965,
      "ĠPeters": 7966,
      "ĠAlliance": 7967,
      "unch": 7968,
      "Ġ55": 7969,
      "ĠPa": 7970,
      "ĠPage": 7971,
      "ando": 7972,
      "Ġdefensive": 7973,
      "Ġconvicted": 7974,
      "Ġlegislation": 7975,
      "ĠCharlie": 7976,
      "ĠHampshire": 7977,
      "BI": 7978,
      "ĠHold": 7979,
      "Ġcooper": 7980,
      "ĠHawai": 7981,
      "ĠMuham": 7982,
      "bi": 7983,
      "ĠNi": 7984,
      "isode": 7985,
      "ĠCarlos": 7986,
      "ĠSeattle": 7987,
      "hill": 7988,
      "Ġ43": 7989,
      "ĠOrthodox": 7990,
      "Ġlicensed": 7991,
      "xts": 7992,
      "ayan": 7993,
      "ocal": 7994,
      "Ġideas": 7995,
      "Ġdoll": 7996,
      "ĠUkraine": 7997,
      "rehens": 7998,
      "ĠMA": 7999,
      "Ġplot": 8000,
      "ductions": 8001,
      "Ġnegative": 8002,
      "Ġseem": 8003,
      "Ġcontrolled": 8004,
      "Ġkeyboards": 8005,
      "ĠCrim": 8006,
      "Ġmarg": 8007,
      "ocol": 8008,
      "ĠVik": 8009,
      "ples": 8010,
      "1986": 8011,
      "Ġregistered": 8012,
      "Ġwound": 8013,
      "Ġuniform": 8014,
      "appy": 8015,
      "ĠPsych": 8016,
      "ĠDyn": 8017,
      "azines": 8018,
      "Ġrestored": 8019,
      "Ġregularly": 8020,
      "clusion": 8021,
      "feld": 8022,
      "ĠCommer": 8023,
      "going": 8024,
      "Ġcrown": 8025,
      "Ġflying": 8026,
      "utions": 8027,
      "Ġdivisions": 8028,
      "ĠProfessional": 8029,
      "door": 8030,
      "ĠAlt": 8031,
      "Ġsole": 8032,
      "erb": 8033,
      "ania": 8034,
      "ĠCBS": 8035,
      "Ġlaid": 8036,
      "Ġroof": 8037,
      "Ġtrained": 8038,
      "ĠTreaties": 8039,
      "Ġaer": 8040,
      "udi": 8041,
      "Ġrefused": 8042,
      "aska": 8043,
      "ĠCA": 8044,
      "Ġrein": 8045,
      "aked": 8046,
      "Ġpurchase": 8047,
      "Ġalgor": 8048,
      "ocracy": 8049,
      "coh": 8050,
      "ĠAnna": 8051,
      "incorporated": 8052,
      "Ġopposite": 8053,
      "ĠUtah": 8054,
      "ĠDub": 8055,
      "ĠSteel": 8056,
      "ĠLam": 8057,
      "Ġans": 8058,
      "Ġpitch": 8059,
      "ĠCass": 8060,
      "Ġentertain": 8061,
      "Ġcontributions": 8062,
      "ĠBaker": 8063,
      "Ġgar": 8064,
      "ibl": 8065,
      "Ġisol": 8066,
      "Ġmedium": 8067,
      "ĠTrail": 8068,
      "Ġrailroad": 8069,
      "Ġimproved": 8070,
      "ints": 8071,
      "arks": 8072,
      "ĠBenjamin": 8073,
      "town": 8074,
      "Ġoppon": 8075,
      "ĠEvans": 8076,
      "ĠKeith": 8077,
      "idel": 8078,
      "ĠInvest": 8079,
      "pine": 8080,
      "ĠHit": 8081,
      "othy": 8082,
      "Ġrespond": 8083,
      "All": 8084,
      "rates": 8085,
      "Ġcovering": 8086,
      "ĠHum": 8087,
      "Ġorders": 8088,
      "ĠArena": 8089,
      "Ind": 8090,
      "RC": 8091,
      "ĠAber": 8092,
      "ĠCinc": 8093,
      "Ġassess": 8094,
      "Ġsouthwest": 8095,
      "Ġbroadcasting": 8096,
      "Ġsurvived": 8097,
      "Ġcollaboration": 8098,
      "ĠPrivate": 8099,
      "ĠBrisbane": 8100,
      "Ġmel": 8101,
      "Ġtoward": 8102,
      "Ġresc": 8103,
      "Ġcheck": 8104,
      "Ġresidential": 8105,
      "itals": 8106,
      "ĠCricket": 8107,
      "ictions": 8108,
      "ĠCuba": 8109,
      "ĠMunicipal": 8110,
      "ĠElement": 8111,
      "Ġgradu": 8112,
      "ĠBull": 8113,
      "tha": 8114,
      "ĠLead": 8115,
      "Ġcausing": 8116,
      "ĠMunicipality": 8117,
      "Ġrequirements": 8118,
      "Ġimprison": 8119,
      "ĠCaribbean": 8120,
      "ĠUEFA": 8121,
      "ambiguation": 8122,
      "harm": 8123,
      "Ġinstru": 8124,
      "Ġreaching": 8125,
      "Ġoverl": 8126,
      "Ġ1909": 8127,
      "Ġsomew": 8128,
      "ĠYugoslav": 8129,
      "ĠSaints": 8130,
      "ĠNever": 8131,
      "Ġveget": 8132,
      "exual": 8133,
      "Ġlongest": 8134,
      "ĠHindu": 8135,
      "May": 8136,
      "ĠMess": 8137,
      "Ġrear": 8138,
      "ĠProte": 8139,
      "1984": 8140,
      "ĠSalv": 8141,
      "nce": 8142,
      "Ġones": 8143,
      "Ġ1901": 8144,
      "Ġseparated": 8145,
      "hum": 8146,
      "uin": 8147,
      "Ġsought": 8148,
      "ĠSoul": 8149,
      "Ġvide": 8150,
      "Ġscenes": 8151,
      "ĠSeason": 8152,
      "Ġoffering": 8153,
      "ĠCathedral": 8154,
      "ĠGriff": 8155,
      "Ġadvoc": 8156,
      "innati": 8157,
      "Ġstarts": 8158,
      "Ġreplacing": 8159,
      "Ġeasily": 8160,
      "Ġbill": 8161,
      "ĠSoutheast": 8162,
      "ĠRacing": 8163,
      "ĠFitz": 8164,
      "ework": 8165,
      "Ġenemy": 8166,
      "ribed": 8167,
      "Ġcoastal": 8168,
      "ĠTerry": 8169,
      "itars": 8170,
      "isations": 8171,
      "1985": 8172,
      "Ġ1902": 8173,
      "Ġaffiliated": 8174,
      "oda": 8175,
      "Ġquite": 8176,
      "Ġbottom": 8177,
      "Ġbranches": 8178,
      "Ġhunt": 8179,
      "Ġveter": 8180,
      "pha": 8181,
      "ĠProtected": 8182,
      "ML": 8183,
      "attan": 8184,
      "soft": 8185,
      "Ġsuperv": 8186,
      "ĠAdams": 8187,
      "Ġski": 8188,
      "ĠApollo": 8189,
      "ĠAT": 8190,
      "Ġsubstant": 8191,
      "Scot": 8192,
      "ĠVienna": 8193,
      "ĠMaj": 8194,
      "ĠFrid": 8195,
      "Ġpresidential": 8196,
      "ĠUnit": 8197,
      "argo": 8198,
      "Ġdescend": 8199,
      "ĠDeputy": 8200,
      "lon": 8201,
      "zh": 8202,
      "Ġfixed": 8203,
      "ĠFem": 8204,
      "Ġannually": 8205,
      "ĠComputer": 8206,
      "Ġexperien": 8207,
      "oba": 8208,
      "Ġconqu": 8209,
      "rainian": 8210,
      "ĠGreater": 8211,
      "Ġbehavior": 8212,
      "Ġbrain": 8213,
      "ĠKaz": 8214,
      "Ġgoods": 8215,
      "leans": 8216,
      "ĠPir": 8217,
      "ĠBurg": 8218,
      "Ġseventh": 8219,
      "opter": 8220,
      "ĠMarshall": 8221,
      "atur": 8222,
      "enburg": 8223,
      "Ġregiment": 8224,
      "orer": 8225,
      "Ġlists": 8226,
      "phone": 8227,
      "ĠKnow": 8228,
      "ĠAction": 8229,
      "Ġteachers": 8230,
      "Ġsell": 8231,
      "Ġchannels": 8232,
      "Ġdesigns": 8233,
      "SW": 8234,
      "hing": 8235,
      "ture": 8236,
      "Ġfelt": 8237,
      "Ġgain": 8238,
      "Ġrooms": 8239,
      "2020": 8240,
      "Ġprize": 8241,
      "Ġkilomet": 8242,
      "ĠLane": 8243,
      "Ġviews": 8244,
      "ĠArkansas": 8245,
      "ĠCincinnati": 8246,
      "aire": 8247,
      "ĠGun": 8248,
      "arat": 8249,
      "ĠTower": 8250,
      "Ġcommemor": 8251,
      "Ġrestrict": 8252,
      "Ġmilit": 8253,
      "ĠPad": 8254,
      "Ġsoil": 8255,
      "NC": 8256,
      "ĠSR": 8257,
      "Ġ51": 8258,
      "Ġengines": 8259,
      "Ġrefuge": 8260,
      "ech": 8261,
      "Ġdie": 8262,
      "otes": 8263,
      "Ġprocesses": 8264,
      "pective": 8265,
      "ĠMack": 8266,
      "ĠKill": 8267,
      "Ġcommitted": 8268,
      "Ġvisitors": 8269,
      "Ġnegot": 8270,
      "ĠDerby": 8271,
      "Ġri": 8272,
      "Ġvert": 8273,
      "ĠTon": 8274,
      "Ġalign": 8275,
      "Ġcomed": 8276,
      "ĠChamber": 8277,
      "ĠHungarian": 8278,
      "BM": 8279,
      "ĠCP": 8280,
      "ĠFel": 8281,
      "Ġfilmed": 8282,
      "ÃŃn": 8283,
      "Ġshowing": 8284,
      "You": 8285,
      "ĠPhoen": 8286,
      "Ġrevolution": 8287,
      "Ġsolution": 8288,
      "iggest": 8289,
      "kee": 8290,
      "mith": 8291,
      "ĠNelson": 8292,
      "ĠSpirit": 8293,
      "Ġcorrect": 8294,
      "IP": 8295,
      "ĠHas": 8296,
      "ĠSystems": 8297,
      "ĠMuhammad": 8298,
      "ners": 8299,
      "orrow": 8300,
      "Ġaggreg": 8301,
      "Ġforests": 8302,
      "ĠBristol": 8303,
      "%,": 8304,
      "esc": 8305,
      "gebra": 8306,
      "Ġplus": 8307,
      "ĠMarie": 8308,
      "iency": 8309,
      "Ġdivor": 8310,
      "Ġfleet": 8311,
      "EA": 8312,
      "Ġarmed": 8313,
      "Ġstrike": 8314,
      "Ne": 8315,
      "opal": 8316,
      "Ġrequires": 8317,
      "Ġelectron": 8318,
      "formance": 8319,
      "ĠClassic": 8320,
      "Ġsecretary": 8321,
      "ĠRabb": 8322,
      "Ġleads": 8323,
      "ĠEncyclop": 8324,
      "Ġexecuted": 8325,
      "ĠÄ": 8326,
      "rav": 8327,
      "ĠProp": 8328,
      "Ġskills": 8329,
      "Ġaffected": 8330,
      "Ġclean": 8331,
      "Ġ1904": 8332,
      "Ġelectoral": 8333,
      "anne": 8334,
      "ĠGuy": 8335,
      "Ġtechnique": 8336,
      "Ġrepeated": 8337,
      "ĠLl": 8338,
      "ĠNav": 8339,
      "Ġabsor": 8340,
      "Ġwalls": 8341,
      "otan": 8342,
      "enson": 8343,
      "Ġdefinition": 8344,
      "'re": 8345,
      "lected": 8346,
      "Ġinstitution": 8347,
      "Ġphen": 8348,
      "ĠProm": 8349,
      "Ã©t": 8350,
      "ĠLud": 8351,
      "Ġacoustic": 8352,
      "aware": 8353,
      "1968": 8354,
      "ĠRivers": 8355,
      "rane": 8356,
      "ducted": 8357,
      "ĠOrleans": 8358,
      "Ġdetermine": 8359,
      "Ġdog": 8360,
      "ĠRub": 8361,
      "Ġaccused": 8362,
      "lie": 8363,
      "Ġsnow": 8364,
      "Ġcards": 8365,
      "adi": 8366,
      "ĠKan": 8367,
      "ĠMovement": 8368,
      "TS": 8369,
      "Ã´": 8370,
      "ĠPerson": 8371,
      "ĠRud": 8372,
      "Ġrhy": 8373,
      "atern": 8374,
      "ĠCole": 8375,
      "Ġappearing": 8376,
      "ĠAer": 8377,
      "Ã©s": 8378,
      "Ġtransition": 8379,
      "ĠResources": 8380,
      "Ġprotected": 8381,
      "Ã¶r": 8382,
      "ĠJonathan": 8383,
      "ĠPatri": 8384,
      "Ġterror": 8385,
      "Ġdim": 8386,
      "asure": 8387,
      "Ġha": 8388,
      "osopher": 8389,
      "antly": 8390,
      "ounce": 8391,
      "ĠAthletics": 8392,
      "ON": 8393,
      "Ġthink": 8394,
      "ĠOrange": 8395,
      "Ġrating": 8396,
      "Ġkid": 8397,
      "Ġotherwise": 8398,
      "Ġdifference": 8399,
      "ĠTrinity": 8400,
      "obi": 8401,
      "comp": 8402,
      "ĠFinland": 8403,
      "ĠModel": 8404,
      "Ġcelebrated": 8405,
      "ĠSoft": 8406,
      "Ex": 8407,
      "ĠLad": 8408,
      "Ġplatforms": 8409,
      "mat": 8410,
      "ĠJenn": 8411,
      "ĠScout": 8412,
      "Ġhomes": 8413,
      "DC": 8414,
      "Ġattract": 8415,
      "Ġmedicine": 8416,
      "Ġdetails": 8417,
      "Ġfine": 8418,
      "Ġvolumes": 8419,
      "Hz": 8420,
      "Ġinsc": 8421,
      "ĠRy": 8422,
      "ĠNumber": 8423,
      "othes": 8424,
      "ĠGlen": 8425,
      "1983": 8426,
      "iable": 8427,
      "ĠFight": 8428,
      "Ġparticipate": 8429,
      "Ġmanufacturing": 8430,
      "ĠIranian": 8431,
      "ĠSultan": 8432,
      "Ġexpression": 8433,
      "Ġboundary": 8434,
      "Ġ52": 8435,
      "Ġattached": 8436,
      "ĠCommunist": 8437,
      "Ġinjured": 8438,
      "Ġcharged": 8439,
      "Scotland": 8440,
      "//": 8441,
      "Ġinform": 8442,
      "ĠMall": 8443,
      "Ġproved": 8444,
      "Ġsuccessor": 8445,
      "Ġstret": 8446,
      "Ġalone": 8447,
      "ophone": 8448,
      "omic": 8449,
      "ĠDog": 8450,
      "ĠGiants": 8451,
      "ĠConstruction": 8452,
      "Ġagriculture": 8453,
      "Ġbiggest": 8454,
      "Ġmedieval": 8455,
      "ĠMean": 8456,
      "1979": 8457,
      "Ġviolence": 8458,
      "osaurus": 8459,
      "ĠPle": 8460,
      "ĠAncient": 8461,
      "ãģ": 8462,
      "Ġbatter": 8463,
      "Ġinterior": 8464,
      "ĠMi": 8465,
      "Ġrend": 8466,
      "abad": 8467,
      "intend": 8468,
      "Ġjoining": 8469,
      "Ġcharges": 8470,
      "forcement": 8471,
      "Ġroughly": 8472,
      "ĠRio": 8473,
      "ulum": 8474,
      "ĠGoogle": 8475,
      "cious": 8476,
      "Ġbridges": 8477,
      "Ġconcer": 8478,
      "Ġdoing": 8479,
      "ĠExpl": 8480,
      "arus": 8481,
      "ĠGrade": 8482,
      "Ġlicense": 8483,
      "ĠColonel": 8484,
      "ĠRules": 8485,
      "Ġsinging": 8486,
      "istical": 8487,
      "Ġ1880": 8488,
      "Ġboat": 8489,
      "ci": 8490,
      "master": 8491,
      "Ġpublishing": 8492,
      "Ġinvestment": 8493,
      "ĠCond": 8494,
      "Ġmart": 8495,
      "ĠDNA": 8496,
      "ĠGet": 8497,
      "Ġconvention": 8498,
      "Ġreleg": 8499,
      "Ġattacked": 8500,
      "ĠUrban": 8501,
      "alia": 8502,
      "ĠCelt": 8503,
      "disambiguation": 8504,
      "Ġfest": 8505,
      "Ġdowntown": 8506,
      "ilk": 8507,
      "ĠIC": 8508,
      "Ġorganisation": 8509,
      "ĠMethodist": 8510,
      "do": 8511,
      "illo": 8512,
      "Ġindicate": 8513,
      "ĠCraig": 8514,
      "pre": 8515,
      "rait": 8516,
      "ĠChairman": 8517,
      "Ġcolour": 8518,
      "yles": 8519,
      "Ġbanks": 8520,
      "Ġsignificantly": 8521,
      "ĠHud": 8522,
      "Ġ46": 8523,
      "ĠSi": 8524,
      "Ġduties": 8525,
      "Ġscheme": 8526,
      "rapy": 8527,
      "Ġchapter": 8528,
      "Ġdies": 8529,
      "ĠKap": 8530,
      "ooking": 8531,
      "Ġstanding": 8532,
      "rating": 8533,
      "ĠTak": 8534,
      "ĠRal": 8535,
      "ĠWet": 8536,
      "seud": 8537,
      "Ġinterests": 8538,
      "ĠYorkshire": 8539,
      "Ġownership": 8540,
      "Ġbelieve": 8541,
      "Ġfile": 8542,
      "ĠSite": 8543,
      "Ġmanga": 8544,
      "Ġrunner": 8545,
      "ĠAthletic": 8546,
      "ĠBangladesh": 8547,
      "host": 8548,
      "ĠSid": 8549,
      "Ġshel": 8550,
      "Ġinvent": 8551,
      "ĠTransl": 8552,
      "eding": 8553,
      "orst": 8554,
      "cho": 8555,
      "Ġcircum": 8556,
      "Äĥ": 8557,
      "Ġfan": 8558,
      "Ġsquadron": 8559,
      "hour": 8560,
      "olar": 8561,
      "Ġprisoners": 8562,
      "dd": 8563,
      "later": 8564,
      "stances": 8565,
      "Ġchair": 8566,
      "Ġwave": 8567,
      "eta": 8568,
      "ĠKild": 8569,
      "Ġrich": 8570,
      "Ġqualified": 8571,
      "Ġreplacement": 8572,
      "Ġjurisdiction": 8573,
      "Ġtry": 8574,
      "orous": 8575,
      "ĠIsa": 8576,
      "enger": 8577,
      "ĠProtest": 8578,
      "ĠML": 8579,
      "avan": 8580,
      "acks": 8581,
      "1960": 8582,
      "Ġdemolished": 8583,
      "ĠCart": 8584,
      "Ġnor": 8585,
      "Ġstorm": 8586,
      "orton": 8587,
      "ĠChron": 8588,
      "urers": 8589,
      "ĠUC": 8590,
      "ĠStu": 8591,
      "1981": 8592,
      "ĠPrix": 8593,
      "lig": 8594,
      "ucle": 8595,
      "rend": 8596,
      "Ġresign": 8597,
      "Ġrelative": 8598,
      "rock": 8599,
      "Ġgang": 8600,
      "Ġalleg": 8601,
      "oples": 8602,
      "ĠManh": 8603,
      "Ġparam": 8604,
      "Ġmagazines": 8605,
      "final": 8606,
      "rov": 8607,
      "ĠCer": 8608,
      "ubb": 8609,
      "Ġinnov": 8610,
      "ĠTob": 8611,
      "Ġdefend": 8612,
      "Ġ1907": 8613,
      "Ġiniti": 8614,
      "ÑĤ": 8615,
      "Ġduty": 8616,
      "Ġkick": 8617,
      "Ġflows": 8618,
      "Ġrestaurant": 8619,
      "ocation": 8620,
      "ĠChand": 8621,
      "Ġdemand": 8622,
      "Ġben": 8623,
      "ĠDraft": 8624,
      "Ġdiagn": 8625,
      "ĠSecondary": 8626,
      "Ġfinds": 8627,
      "ĠStanley": 8628,
      "ĠLeban": 8629,
      "mosp": 8630,
      "ĠâĢł": 8631,
      "ĠSmall": 8632,
      "Ġdelivered": 8633,
      ".),": 8634,
      "sa": 8635,
      "Ġmist": 8636,
      "Ġrecre": 8637,
      "Ġretained": 8638,
      "1982": 8639,
      "Ġlinked": 8640,
      "MC": 8641,
      "Ġmining": 8642,
      "1974": 8643,
      "Ġbon": 8644,
      "chang": 8645,
      "abilities": 8646,
      "encement": 8647,
      "Ġextens": 8648,
      "Ġ1870": 8649,
      "Ġfiled": 8650,
      "ocene": 8651,
      "Ġstatement": 8652,
      "bassador": 8653,
      "mate": 8654,
      "ĠDays": 8655,
      "ĠLuther": 8656,
      "ĠGround": 8657,
      "Ġdescription": 8658,
      "Ġfreedom": 8659,
      "Star": 8660,
      "Ġutil": 8661,
      "Ġpicture": 8662,
      "onian": 8663,
      "etry": 8664,
      "lett": 8665,
      "Ġowners": 8666,
      "Ġescape": 8667,
      "Ð¾Ð": 8668,
      "ĠMason": 8669,
      "Ġserial": 8670,
      "ĠLear": 8671,
      "ushed": 8672,
      "ĠJama": 8673,
      "Ġdisapp": 8674,
      "Ġmountains": 8675,
      "ĠCold": 8676,
      "Ġexists": 8677,
      "ĠAntar": 8678,
      "Ġcredits": 8679,
      "ĠMovie": 8680,
      "Ġtor": 8681,
      "Ġcontext": 8682,
      "ĠKra": 8683,
      "Ġplate": 8684,
      "ĠExper": 8685,
      "Ġrevers": 8686,
      "Ġpossess": 8687,
      "ĠTerritory": 8688,
      "ĠSnow": 8689,
      "Ġmouth": 8690,
      "Ġcancell": 8691,
      "wig": 8692,
      "Ġspiritual": 8693,
      "ĠBeck": 8694,
      "ĠKo": 8695,
      "ffield": 8696,
      "Ġenl": 8697,
      "Ġcrossing": 8698,
      "March": 8699,
      "ĠSteven": 8700,
      "!\"": 8701,
      "stad": 8702,
      "olt": 8703,
      "ĠKnights": 8704,
      "Ġgrass": 8705,
      "Ġdemonstr": 8706,
      "ĠTigers": 8707,
      "://": 8708,
      "uous": 8709,
      "ĠLib": 8710,
      "Ġbeach": 8711,
      "ĠHunter": 8712,
      "ĠLions": 8713,
      "izon": 8714,
      "amps": 8715,
      "ĠSerge": 8716,
      "ĠAdditionally": 8717,
      "ĠSerbia": 8718,
      "asa": 8719,
      "ĠAlice": 8720,
      "ĠUkrainian": 8721,
      "rieved": 8722,
      "ĠMes": 8723,
      "Ġflo": 8724,
      "1972": 8725,
      "Oct": 8726,
      "uction": 8727,
      "eme": 8728,
      "ĠMarvel": 8729,
      "ĠStudents": 8730,
      "ĠÃĹ": 8731,
      "Ġsubjects": 8732,
      "ĠMaine": 8733,
      "Ġdaughters": 8734,
      "ĠBenn": 8735,
      "ĠFellow": 8736,
      "Ġstood": 8737,
      "ĠNBC": 8738,
      "ĠVenez": 8739,
      "egas": 8740,
      "Ġsoldier": 8741,
      "rong": 8742,
      "ashed": 8743,
      "ĠDennis": 8744,
      "1978": 8745,
      "Ġconcrete": 8746,
      "ĠImm": 8747,
      "Ġratio": 8748,
      "ĠRena": 8749,
      "Ġassumed": 8750,
      "Ġpopulations": 8751,
      "ĠTurkey": 8752,
      "ĠDragon": 8753,
      "Ġpopularity": 8754,
      "ĠLock": 8755,
      "ĠGrad": 8756,
      "Ġmemorial": 8757,
      "aman": 8758,
      "Ġinvited": 8759,
      "zo": 8760,
      "Ġcommunication": 8761,
      "Ġrenew": 8762,
      "EP": 8763,
      "aired": 8764,
      "Ġdeaths": 8765,
      "Ġdiocese": 8766,
      "abled": 8767,
      "amental": 8768,
      "Ġprotest": 8769,
      "ĠSay": 8770,
      "Ġdating": 8771,
      "Ġprofile": 8772,
      "ĠDefence": 8773,
      "ĠBarbara": 8774,
      "Ġcool": 8775,
      "Ġcable": 8776,
      "aja": 8777,
      "Ġdriving": 8778,
      "RI": 8779,
      "Ġmort": 8780,
      "olo": 8781,
      "300": 8782,
      "Jan": 8783,
      "ĠBureau": 8784,
      "ranean": 8785,
      "Ġwheel": 8786,
      "dr": 8787,
      "ĠMars": 8788,
      "Ġ54": 8789,
      "Ġfactor": 8790,
      "Ġexisted": 8791,
      "Ġtesting": 8792,
      "Ġopin": 8793,
      "ĠRheoli": 8794,
      "ĠESP": 8795,
      "ĠTas": 8796,
      "Ġdecade": 8797,
      "ĠNature": 8798,
      "odore": 8799,
      "load": 8800,
      "ĠPersian": 8801,
      "Ġcrowd": 8802,
      "ĠStein": 8803,
      "ĠAlaska": 8804,
      "Ġformally": 8805,
      "Ġpublisher": 8806,
      "ĠPierre": 8807,
      "Ġselling": 8808,
      "Ġpull": 8809,
      "Ġskin": 8810,
      "Ġcoaching": 8811,
      "Ġ!": 8812,
      "ĠFr": 8813,
      "oviÄĩ": 8814,
      "Ġshares": 8815,
      "ashi": 8816,
      "Ġmodified": 8817,
      "language": 8818,
      "Ġ120": 8819,
      "ĠCroatia": 8820,
      "Ġguitars": 8821,
      "Ġobtain": 8822,
      "Ġprotein": 8823,
      "edding": 8824,
      "ĠKon": 8825,
      "Ġbroken": 8826,
      "ĠElementary": 8827,
      "ĠCob": 8828,
      "ĠBM": 8829,
      "oca": 8830,
      "Ġ47": 8831,
      "1973": 8832,
      "Ġsatisf": 8833,
      "rystal": 8834,
      "Ġsegment": 8835,
      "Ġcous": 8836,
      "Ġfly": 8837,
      "ĠGuine": 8838,
      "1971": 8839,
      "Ġcosts": 8840,
      "Ġtransportation": 8841,
      "eo": 8842,
      "Ãł": 8843,
      "stan": 8844,
      "ĠAdv": 8845,
      "Ġadvertising": 8846,
      "stown": 8847,
      "Ġago": 8848,
      "ĠHungary": 8849,
      "Ġgarden": 8850,
      "ĠUnlike": 8851,
      "ĠLiterature": 8852,
      "BE": 8853,
      "Can": 8854,
      "dy": 8855,
      "1967": 8856,
      "cons": 8857,
      "ĠRomanian": 8858,
      "Ġanch": 8859,
      "ĠPrincip": 8860,
      "Ġpractices": 8861,
      "Ġdraf": 8862,
      "Ġterritories": 8863,
      "Ġstreets": 8864,
      "via": 8865,
      "Ġtall": 8866,
      "Ġsed": 8867,
      "Ġevolution": 8868,
      "For": 8869,
      "ĠHugh": 8870,
      "Ġeye": 8871,
      "ĠKath": 8872,
      "ĠAviation": 8873,
      "roc": 8874,
      "ĠIv": 8875,
      "terior": 8876,
      "Ġapprop": 8877,
      "Ġmonument": 8878,
      "ursing": 8879,
      "ĠBailey": 8880,
      "Ġaspects": 8881,
      "where": 8882,
      "Ġtrail": 8883,
      "Ġpoly": 8884,
      "Ġdifferences": 8885,
      "ĠBruns": 8886,
      "ĠBaptist": 8887,
      "ĠAld": 8888,
      "Ġheritage": 8889,
      "Ġpapers": 8890,
      "Ġpreced": 8891,
      "Ġaccur": 8892,
      "Ġcold": 8893,
      "ĠLeeds": 8894,
      "Ġassembly": 8895,
      "Ġsportspeople": 8896,
      "Ġshooting": 8897,
      "ĠAbbey": 8898,
      "Ġtrying": 8899,
      "Ġfra": 8900,
      "Ġamateur": 8901,
      "Ġranking": 8902,
      "Ġinstance": 8903,
      "Ġaccompan": 8904,
      "ĠAnglican": 8905,
      "icon": 8906,
      "Ġassass": 8907,
      "while": 8908,
      "such": 8909,
      "Ġwatch": 8910,
      "Ġagencies": 8911,
      "1976": 8912,
      "Ġhair": 8913,
      "Ġmarkets": 8914,
      "ĠUntil": 8915,
      "itter": 8916,
      "Ġ1000": 8917,
      "ĠBass": 8918,
      "Ġdescribe": 8919,
      "ĠPalest": 8920,
      "Ġcredit": 8921,
      "ĠSS": 8922,
      "ĠLith": 8923,
      "Ġengaged": 8924,
      "ĠSide": 8925,
      "Ġconcluded": 8926,
      "ĠVel": 8927,
      "away": 8928,
      "ĠHarold": 8929,
      "Ġinfluential": 8930,
      "eenth": 8931,
      "icate": 8932,
      "ĠAround": 8933,
      "ĠCou": 8934,
      "ĠDictionary": 8935,
      "Ġunus": 8936,
      "Ġadmitted": 8937,
      "Ġextremely": 8938,
      "rehensive": 8939,
      "Ġprohib": 8940,
      "ĠCode": 8941,
      "amo": 8942,
      "ĠNeg": 8943,
      "Ã©n": 8944,
      "rano": 8945,
      "Ġcalling": 8946,
      "ĠCarter": 8947,
      "Ã«": 8948,
      "Ġworth": 8949,
      "arest": 8950,
      "Ġpoliticians": 8951,
      "Ġ1898": 8952,
      "count": 8953,
      "Ġauthors": 8954,
      "Ġbat": 8955,
      "ĠSr": 8956,
      "Ġinfl": 8957,
      "Ġdub": 8958,
      "olid": 8959,
      "Ġfavour": 8960,
      "ĠCamer": 8961,
      "Ġnet": 8962,
      "ĠWas": 8963,
      "ixon": 8964,
      "ĠKirk": 8965,
      "ĠProtection": 8966,
      "pat": 8967,
      "Ġfoss": 8968,
      "ĠMeg": 8969,
      "Ġalcoh": 8970,
      "ĠHerz": 8971,
      "Ġtail": 8972,
      "isition": 8973,
      "Ġhang": 8974,
      "ĠView": 8975,
      "ĠParks": 8976,
      "ĠContemporary": 8977,
      "UK": 8978,
      "Ġbird": 8979,
      "ĠNation": 8980,
      "Ġplanet": 8981,
      "mund": 8982,
      "Ġintelligence": 8983,
      "ĠDrive": 8984,
      "Ġdirectors": 8985,
      "ĠRheoliadau": 8986,
      "bow": 8987,
      "inction": 8988,
      "Ġteen": 8989,
      "Ġinducted": 8990,
      "Ġbrown": 8991,
      "apping": 8992,
      "Ġcircuit": 8993,
      "ĠButler": 8994,
      "fielder": 8995,
      "ĠCov": 8996,
      "Ġnations": 8997,
      "ĠSheffield": 8998,
      "ĠPolicy": 8999,
      "1969": 9000,
      "Ġshop": 9001,
      "enses": 9002,
      "ĠPract": 9003,
      "emen": 9004,
      "ĠDenver": 9005,
      "Ġargued": 9006,
      "Ġoccasionally": 9007,
      "Ġpolicies": 9008,
      "Ġmaintenance": 9009,
      "Ġsevere": 9010,
      "ĠColumbus": 9011,
      "EM": 9012,
      "atche": 9013,
      "otype": 9014,
      "ĠEug": 9015,
      "Ġdeleg": 9016,
      "Ġseconds": 9017,
      "ivan": 9018,
      "ĠYank": 9019,
      "ĠFlight": 9020,
      "Ġillegal": 9021,
      "Ed": 9022,
      "ĠSC": 9023,
      "ĠDra": 9024,
      "ĠStorm": 9025,
      "Ġbuy": 9026,
      "Ġexception": 9027,
      "graduate": 9028,
      "ĠNicholas": 9029,
      "folk": 9030,
      "issue": 9031,
      "Ġassault": 9032,
      "Ġvalid": 9033,
      "ĠBrunswick": 9034,
      "ĠBath": 9035,
      "ĠFig": 9036,
      "Ġequipped": 9037,
      "Ġbr": 9038,
      "Ġnom": 9039,
      "Ġstages": 9040,
      "abet": 9041,
      "Ġfaced": 9042,
      "ĠRight": 9043,
      "1975": 9044,
      "Ġcompletion": 9045,
      "Ġcategories": 9046,
      "ĠTourn": 9047,
      "claimed": 9048,
      "LP": 9049,
      "rot": 9050,
      "Ġthrow": 9051,
      "ĠBrooks": 9052,
      "Ġreun": 9053,
      "Ġlanding": 9054,
      "rity": 9055,
      "Ġwarn": 9056,
      "urring": 9057,
      "Ġcarrying": 9058,
      "Ġmoment": 9059,
      "Ġmile": 9060,
      "Ġjustice": 9061,
      "ĠBulgar": 9062,
      "Ġinstrumental": 9063,
      "Nov": 9064,
      "oom": 9065,
      "pm": 9066,
      "ellect": 9067,
      "ĠJoy": 9068,
      "ĠVI": 9069,
      "Ġarranged": 9070,
      "Ġexpert": 9071,
      "June": 9072,
      "ĠDod": 9073,
      "ĠStri": 9074,
      "ĠIndonesia": 9075,
      "ĠPant": 9076,
      "Ġoffensive": 9077,
      "ĠâĨĴ": 9078,
      "uy": 9079,
      "Ġrelation": 9080,
      "who": 9081,
      "ĠPrad": 9082,
      "Ġphr": 9083,
      "Ã¼n": 9084,
      "Ġoccupation": 9085,
      "Ġdual": 9086,
      "ĠBranch": 9087,
      "aneous": 9088,
      "ĠHerbert": 9089,
      "ĠGabri": 9090,
      "OC": 9091,
      "fly": 9092,
      "atically": 9093,
      "Ġseems": 9094,
      "Ġshut": 9095,
      "Ġheaded": 9096,
      "person": 9097,
      "ĠGang": 9098,
      "ĠRalph": 9099,
      "ugs": 9100,
      "olley": 9101,
      "ĠRomania": 9102,
      "ĠArmenian": 9103,
      "Ġportrayed": 9104,
      "songwriter": 9105,
      "2021": 9106,
      "Ġconductor": 9107,
      "Ġmeasures": 9108,
      "Ġopportunity": 9109,
      "ĠVenezuel": 9110,
      "ĠFrances": 9111,
      "Ġsuggests": 9112,
      "ĠWW": 9113,
      "atters": 9114,
      "owski": 9115,
      "ĠSenator": 9116,
      "Ġprepared": 9117,
      "itime": 9118,
      "Ġsun": 9119,
      "race": 9120,
      "Ġconstitution": 9121,
      "ĠStre": 9122,
      "ĠArticle": 9123,
      "orp": 9124,
      "Ġpublications": 9125,
      "Ġgrades": 9126,
      "Ġassistance": 9127,
      "On": 9128,
      "hus": 9129,
      "ĠRav": 9130,
      "ĠGot": 9131,
      "ripts": 9132,
      "Ġtransmission": 9133,
      "Ġclassification": 9134,
      "Ġdelay": 9135,
      "ĠIvan": 9136,
      "raham": 9137,
      "Ġincorpor": 9138,
      "Ġdrummer": 9139,
      "uckland": 9140,
      "Ġhonour": 9141,
      "Ġmarketing": 9142,
      "Ġunsuccess": 9143,
      "Ġegg": 9144,
      "ĠJosh": 9145,
      "Ġpenal": 9146,
      "pent": 9147,
      "ĠBud": 9148,
      "Ġrelocated": 9149,
      "Ġrhythm": 9150,
      "ĠAlong": 9151,
      "center": 9152,
      "castle": 9153,
      "Ġcomponent": 9154,
      "ĠStart": 9155,
      "ĠRobin": 9156,
      "El": 9157,
      "Ġdefeating": 9158,
      "English": 9159,
      "style": 9160,
      "ĠLiving": 9161,
      "ulus": 9162,
      "Ġpaintings": 9163,
      "ĠFaculty": 9164,
      "EE": 9165,
      "ĠVas": 9166,
      "Ġexternal": 9167,
      "ĠWallace": 9168,
      "fare": 9169,
      "winning": 9170,
      "wright": 9171,
      "ĠPy": 9172,
      "ĠPul": 9173,
      "pping": 9174,
      "Ġjump": 9175,
      "ĠProductions": 9176,
      "ĠBobby": 9177,
      "ĠClarke": 9178,
      "Ġliquid": 9179,
      "uh": 9180,
      "inding": 9181,
      "Ġmanusc": 9182,
      "ĠPrison": 9183,
      "1965": 9184,
      "RS": 9185,
      "ĠWarren": 9186,
      "Ġfinals": 9187,
      "1977": 9188,
      "ĠSingles": 9189,
      "Ġimplementation": 9190,
      "ĠConfeder": 9191,
      "Ġjourney": 9192,
      "Ġmode": 9193,
      "ĠStudy": 9194,
      "Ġinfrastructure": 9195,
      "cia": 9196,
      "hips": 9197,
      "Ġbear": 9198,
      "Ġplane": 9199,
      "ĠFinancial": 9200,
      "ĠBuddhist": 9201,
      "ĠMicrosoft": 9202,
      "Ġexpedition": 9203,
      "Ġexperienced": 9204,
      "alg": 9205,
      "ĠPav": 9206,
      "ĠRico": 9207,
      "Ġdepending": 9208,
      "Ġ1895": 9209,
      "oga": 9210,
      "ĠZone": 9211,
      "ĠAnnual": 9212,
      "ilst": 9213,
      "ĠKum": 9214,
      "Ġmovements": 9215,
      "ĠUniversal": 9216,
      "Ġlinks": 9217,
      "ĠBengal": 9218,
      "ĠHorse": 9219,
      "Ġexplos": 9220,
      "jab": 9221,
      "Ġfrag": 9222,
      "Ġnaval": 9223,
      "uble": 9224,
      "hematical": 9225,
      "ĠVincent": 9226,
      "Ju": 9227,
      "inian": 9228,
      "ĠPow": 9229,
      "Ġlakes": 9230,
      "Ġgolf": 9231,
      "Ġmissions": 9232,
      "Ġspeak": 9233,
      "Ġconcerns": 9234,
      "ĠPhoenix": 9235,
      "mont": 9236,
      "Ġsax": 9237,
      "ĠSF": 9238,
      "ĠBened": 9239,
      "ĠSox": 9240,
      "ĠBelf": 9241,
      "ĠHem": 9242,
      "Ġperhaps": 9243,
      "Ġoption": 9244,
      "Ġthousands": 9245,
      "Ġrejected": 9246,
      "iere": 9247,
      "non": 9248,
      "ĠBrun": 9249,
      "Ġnormally": 9250,
      "ĠSerbian": 9251,
      "ĠManhattan": 9252,
      "VID": 9253,
      "ĠSalt": 9254,
      "Ġgrown": 9255,
      "Ġminimum": 9256,
      "Ġtemporary": 9257,
      "ĠDiamond": 9258,
      "Ġscope": 9259,
      "Ġherself": 9260,
      "Ġ1899": 9261,
      "ĠNeil": 9262,
      "ĠBiography": 9263,
      "ĠNHL": 9264,
      "iast": 9265,
      "Ġdeployed": 9266,
      "Ġerected": 9267,
      "hand": 9268,
      "Ġtropical": 9269,
      "Ġunderstanding": 9270,
      "Ġmathematics": 9271,
      "Re": 9272,
      "omon": 9273,
      "Ġeval": 9274,
      "Ġinvolves": 9275,
      "riptions": 9276,
      "Ġsatellite": 9277,
      "maker": 9278,
      "ĠSask": 9279,
      "roduction": 9280,
      "Ġorient": 9281,
      "Ġspaces": 9282,
      "mill": 9283,
      "top": 9284,
      "Ġnote": 9285,
      "Ġformula": 9286,
      "Ġvideos": 9287,
      "Ġproport": 9288,
      "Ġmixing": 9289,
      "cts": 9290,
      "Ġsurf": 9291,
      "Ġ1860": 9292,
      "ompl": 9293,
      "Ġtexts": 9294,
      "achi": 9295,
      "Ġdepth": 9296,
      "ĠPortland": 9297,
      "Ġcapture": 9298,
      "Ġsuperior": 9299,
      "called": 9300,
      "Ġworship": 9301,
      "Ġconj": 9302,
      "ĠChapter": 9303,
      "ĠMachine": 9304,
      "mi": 9305,
      "ãĤ": 9306,
      "Ġfal": 9307,
      "ĠPil": 9308,
      "ĠPerformance": 9309,
      "Ġprocessing": 9310,
      "ĠVermont": 9311,
      "ĠRoth": 9312,
      "Ġnav": 9313,
      "Ġrates": 9314,
      "ĠShel": 9315,
      "Ġevening": 9316,
      "ĠTurner": 9317,
      "ĠRat": 9318,
      "iko": 9319,
      "ussian": 9320,
      "Ġcrimes": 9321,
      "Ã¨re": 9322,
      "Ġwrest": 9323,
      "aments": 9324,
      "Ġadvis": 9325,
      "Ġadvantage": 9326,
      "Ġscientist": 9327,
      "Ġpremiered": 9328,
      "sec": 9329,
      "iper": 9330,
      "ĠUlt": 9331,
      "ingen": 9332,
      "Ġatmosp": 9333,
      "abil": 9334,
      "avor": 9335,
      "Ġmonarch": 9336,
      "ĠStudio": 9337,
      "ĠHebrew": 9338,
      "ĠAuckland": 9339,
      "ĠNI": 9340,
      "Ġsupports": 9341,
      "Ġrepresentation": 9342,
      "Ġwarm": 9343,
      "ĠMagic": 9344,
      "ĠCharlotte": 9345,
      "Ġtheat": 9346,
      "ĠExpatriate": 9347,
      "gate": 9348,
      "Ġgram": 9349,
      "Ġteach": 9350,
      "Ġuseful": 9351,
      "Ġperiods": 9352,
      "1945": 9353,
      "Ġresponsibility": 9354,
      "Ġdemonst": 9355,
      "Ġarc": 9356,
      "ĠSha": 9357,
      "annon": 9358,
      "ĠWarner": 9359,
      "Ġdin": 9360,
      "ĠDame": 9361,
      "Ġsteam": 9362,
      "ĠSoccer": 9363,
[...]
